#version: 0.2 - Trained by `huggingface/tokenizers`
Ġ t
h e
Ġ a
i n
Ġt he
Ġ s
Ġ w
Ġ o
r e
n d
Ġ h
Ġ b
e r
Ġ m
o u
Ġ i
Ġ c
Ġ f
a t
e d
e n
o n
Ġo f
Ġt o
Ġa nd
i s
in g
Ġ d
Ġ p
Ġt h
o r
Ġ he
e s
i t
Ġ l
a s
a r
l l
a n
Ġ in
Ġ n
Ġ g
o m
Ġb e
Ġh a
l e
Ġ e
o t
o w
u t
i c
Ġ y
l d
v e
l y
Ġi t
Ġw h
Ġw as
s e
Ġth at
i d
s t
g h
Ġo n
en t
Ġ re
i m
Ġy ou
c e
Ġ u
v er
i on
e t
a y
a l
it h
Ġh is
i r
Ġa s
Ġf or
Ġ r
Ġw e
Ġs t
Ġw ith
a d
u r
gh t
Ġa n
Ġhe r
Ġn ot
a nd
Ġha d
t er
Ġi s
he r
a c
a m
o o
Ġa t
ou ld
Ġ k
Ġs e
Ġs he
Ġh im
Ġs h
a in
r i
Ġm e
c h
i ll
Ġs a
Ġs o
Ġs u
Ġb ut
re d
c t
a ll
i ght
r o
k e
es s
' s
i l
t h
o re
Ġd e
Ġf r
Ġm y
Ġa ll
ic h
Ġthe y
om e
p p
Ġha ve
Ġn e
Ġb y
u s
Ġl i
Ġw he
Ġc on
Ġd o
Ġth is
u l
q u
Ġc h
Ġu p
ar d
g e
Ġwh ich
Ġ j
Ġfr om
Ġsa id
Ġ v
p e
Ġo r
Ġe x
Ġwe re
Ġon e
Ġn o
es t
an t
b le
Ġm an
re s
Ġa l
ou s
u st
ver y
Ġthe re
at ion
t he
Ġwh o
Ġf e
Ġthe m
l f
in d
r a
am e
u n
f e
er s
as t
oo d
Ġg o
Ġk n
Ġin t
is t
on g
ar t
ou t
ou r
Ġa re
o s
Ġw ould
Ġl e
Ġthe ir
at e
Ġwhe n
ou nd
i e
Ġc om
on e
Ġw or
Ġo ut
Ġu n
e m
Ġa b
a k
i f
Ġw ill
o l
u m
Ġi f
it t
ou gh
k ed
Ġwh at
a p
Ġm is
i g
Ġbe en
ow n
i ve
v en
se lf
' t
Ġp l
Ġa r
Ġt r
Ġr o
re at
t her
Ġp r
Ġs p
Ġ qu
it y
Ġp ro
he d
Ġa f
Ġc ould
Ġa g
o st
a ce
n t
u re
or t
Ġt w
a ke
ac k
Ġthe n
Ġb r
Ġa m
Ġan y
a g
Ġt im
Ġyou r
Ġm ore
e p
Ġc an
Ġs ome
a u
Ġ en
c k
r y
Ġint o
Ġc l
a re
h ing
w e
o se
nd er
Ġ very
o p
Ġg r
v ed
Ġb o
Ġl oo
e l
Ġn ow
an ce
Ġo ther
itt le
in e
i es
Ġl ittle
w ay
Ġd id
it e
as s
id e
Ġth an
a ble
ot her
ou ght
ur n
Ġl o
Ġb l
Ġli ke
Ġkn ow
Ġtim e
f ore
Ġu s
Ġd is
Ġi m
Ġc o
en ce
Ġd ay
Ġt e
ad e
ic e
Ġa d
p t
Ġab out
Ġse e
Ġo ver
m ent
in k
Ġto o
d e
c c
p l
a b
w n
Ġf l
Ġg reat
Ġh ow
Ġha nd
Ġag ain
re e
is h
c i
Ġup on
Ġp er
all y
Ġh as
res s
Ġsh ould
Ġaf ter
Ġp o
Ġon ly
ar s
at her
Ġs ay
ing s
ou nt
Ġg ood
i re
Ġp e
v ing
Ġtw o
b ut
Ġwe ll
Ġo ur
Ġd own
Ġm ar
er t
i le
v es
t e
Ġa pp
Ġbe fore
Ġo ld
Ġit s
ic k
Ġm u
i ed
Ġl ong
Ġm ade
a ge
f t
Ġe very
Ġth r
an g
f ul
u ll
Ġs m
Ġp re
Ġm ust
ion s
Ġof f
Ġst r
i ous
Ġs c
u e
Ġne ver
Ġc ame
w ard
Ġsu ch
p er
i ld
ac t
w h
Ġf ir
at ed
n ess
Ġp art
or d
Ġf o
Ġu nder
t y
Ġc ome
Ġre m
Ġmu ch
Ġmis s
Ġw ay
Ġth ink
l ed
Ġwhe re
Ġe ven
Ġm ay
or n
Ġthe se
Ġe y
Ġth ought
Ġg l
Ġcon t
e ct
Ġbe c
Ġs pe
is e
Ġb ack
Ġloo k
an s
ad y
ac h
Ġmis ter
Ġy e
re n
Ġbe t
Ġl et
a ve
u d
ri ed
Ġfir st
Ġo wn
Ġh o
c l
ar y
Ġo b
Ġd es
Ġhim self
a ir
c o
Ġw ent
Ġj ust
Ġm en
Ġm o
f f
at h
Ġhe re
e nd
ll ow
Ġs l
Ġre s
Ġc r
i ly
Ġm ight
i p
Ġse em
ou se
an c
Ġbe g
Ġw at
b er
Ġcom p
s o
Ġf ri
Ġa way
Ġthr ough
Ġc ar
os s
Ġhe ad
Ġe m
Ġg et
Ġim p
Ġli fe
Ġbe l
Ġp ass
en ed
om et
Ġm ost
Ġm ake
a v
f or
Ġt urn
Ġcon s
Ġd on
in t
Ġey es
Ġh ouse
i z
Ġwith out
Ġsh all
Ġp res
l ess
Ġa cc
au se
he s
Ġth ose
Ġn ight
Ġo p
Ġw om
Ġc all
k s
Ġj o
Ġl ast
a red
Ġs omet
Ġst ill
Ġcom m
ig n
on s
Ġ ent
Ġne w
Ġte ll
Ġt ake
Ġnot hing
Ġwor d
Ġbe ing
as e
n g
Ġf ound
Ġman y
Ġe ar
Ġre t
or y
Ġat t
i x
Ġsa w
ot h
op le
ar k
d y
Ġs er
l es
ak ing
Ġyou ng
en s
pe ct
Ġp ut
Ġc ount
Ġw r
Ġfri end
Ġl a
i ble
or s
fe ct
in ce
Ġpe ople
Ġro om
e red
Ġm at
a il
Ġon ce
n e
Ġs ame
i gh
Ġch ild
Ġc our
Ġf ather
Ġth ree
Ġr ight
m an
w he
ul t
Ġpl ace
it ion
Ġw ant
Ġf ar
g et
i v
Ġin d
Ġk ing
Ġe nd
Ġhe art
Ġan other
Ġf ace
th ing
Ġha pp
Ġe ver
Ġd ist
Ġn at
i an
Ġlo ve
Ġar m
Ġwh ile
Ġtoo k
t o
Ġwor k
Ġkn e
Ġl ight
ic t
Ġy et
u b
Ġin st
Ġloo ked
Ġm ind
Ġs et
Ġp le
Ġn or
Ġa c
Ġch ar
c ess
g g
Ġre p
ent ly
ert ain
th at
Ġsu pp
is hed
Ġle ft
way s
Ġth ings
Ġp ers
' ll
al k
ir l
Ġm om
Ġmom ent
Ġas ked
ation s
l t
se l
Ġk e
Ġth ough
ow er
i a
Ġwor ld
re w
Ġw a
Ġs at
Ġf ind
j ect
v ent
Ġmiss us
re t
Ġs ir
l ing
u nd
d er
pp ed
t ing
Ġg en
Ġs w
Ġg ive
Ġm other
Ġg u
Ġc ap
d en
Ġa ct
Ġhe ard
Ġal ways
Ġth ing
Ġfor m
an ge
Ġdo or
Ġan s
Ġso on
Ġg irl
c ed
it her
Ġe l
Ġsu b
oo k
Ġseem ed
Ġw ind
s s
Ġd if
Ġsomet hing
Ġto ld
ain ed
Ġm on
Ġh ome
ain t
Ġgo ing
Ġapp e
Ġgo d
au ght
Ġg ot
Ġw ar
b e
l and
Ġen g
n ing
Ġhand s
Ġwom an
p le
Ġs ur
a ut
Ġg i
p h
Ġv o
c hed
Ġy es
Ġp oss
Ġfe el
Ġfo llow
Ġint e
ic al
Ġre l
n ot
Ġbo y
n er
Ġkne w
e ver
Ġre st
Ġret urn
Ġk ind
Ġre g
i ver
s he
Ġex p
u al
Ġm a
Ġs il
Ġhe l
r ow
Ġc le
Ġwat er
Ġde l
ce pt
Ġwh y
Ġas s
Ġb re
Ġw o
Ġbec ause
Ġbel ie
Ġe ach
m ost
Ġagain st
Ġye ars
in ess
in ed
Ġs ide
Ġh ard
n o
Ġh or
re st
Ġc ertain
i red
oo l
ter s
Ġqu ite
Ġp h
i er
Ġcon f
Ġd one
Ġfe w
it ed
u ck
p s
Ġne ar
Ġc he
Ġf our
Ġbet ter
Ġt re
Ġm in
r u
Ġha lf
ou b
m ed
Ġc are
ull y
is ed
an k
Ġen ough
Ġbeg an
Ġse en
Ġal so
ap s
o ck
Ġp ur
is s
ro ss
ak en
Ġgen er
Ġst e
Ġd ra
Ġh our
Ġh um
i al
Ġt er
Ġl ady
as on
y ing
ot t
Ġwho le
Ġcall ed
Ġm orn
Ġple as
i b
en se
Ġs ou
re am
Ġbe h
Ġcour se
get her
Ġturn ed
Ġha ving
Ġo cc
e en
ut h
Ġin s
we en
sel ves
Ġdo es
Ġc ur
Ġre ad
ul ar
Ġg ave
b o
Ġc ol
Ġin de
Ġbe aut
Ġmorn ing
Ġad d
Ġbet ween
Ġin c
Ġwh ite
Ġke ep
g ed
Ġb oth
Ġsm all
Ġn ame
Ġs k
Ġl ar
Ġsu re
os ed
Ġpo or
at ing
Ġto ward
o nd
Ġam ong
x t
Ġfe lt
Ġde ar
Ġmy self
Ġop en
Ġher self
Ġo h
Ġre f
ct ion
und red
i fe
Ġf ore
Ġh igh
Ġh undred
pl ied
Ġin ter
Ġs ix
as ter
Ġt ra
u p
a le
Ġwh om
Ġst ood
Ġs ent
it s
ow ed
ve l
Ġun t
Ġr ound
Ġday s
Ġword s
Ġpo int
un t
Ġe v
Ġs im
at es
Ġg re
c es
Ġg ra
ow s
un g
Ġf am
Ġal most
h aps
Ġb us
Ġl and
ir d
ut e
u res
Ġsu n
i et
n ed
ent s
Ġhow ever
Ġe ight
Ġd r
Ġst and
Ġvo ice
Ġb est
Ġd ark
Ġs le
Ġ ed
in s
d den
Ġme an
' d
Ġb u
Ġb ar
Ġm et
ou d
Ġany thing
ar ing
Ġunder st
am p
Ġbl ack
Ġf act
Ġb ro
Ġsu dden
Ġpr in
Ġla w
Ġl ess
Ġre plied
Ġp ower
ent y
Ġb ri
Ġpro p
ate ly
' m
re nt
Ġcount ry
s h
Ġbr ought
f ully
Ġl ay
Ġlook ing
Ġne xt
w ith
Ġhel p
Ġa ir
Ġv is
al s
Ġc ried
Ġqu est
Ġne ed
Ġs ince
Ġu se
Ġsp o
Ġre d
Ġpers on
one y
Ġad v
Ġto gether
the y
u red
Ġin f
Ġpres ent
Ġper haps
Ġg ent
t ain
Ġi de
Ġp ar
Ġcont in
Ġunt il
Ġfe et
Ġt ill
the re
y ou
Ġs n
Ġun c
' ve
Ġf ull
Ġco nd
Ġr un
b y
f ort
a pp
ce i
Ġf all
Ġr ather
Ġb ed
Ġl at
Ġs y
Ġinte rest
p r
ress ed
Ġmat ter
Ġm il
is ter
Ġw ife
Ġh ar
Ġg one
er ing
Ġf ive
Ġf in
oub t
et er
Ġser v
Ġa w
ct or
o ve
Ġp at
as h
Ġinde ed
Ġde ath
Ġl ord
Ġad m
whe n
o d
Ġt ri
a z
Ġho pe
Ġt aken
ie f
t en
Ġthem selves
Ġt alk
Ġar t
Ġ es
ment s
ur ing
Ġcan not
Ġspe ak
Ġd ire
Ġc ou
u ed
m b
Ġother s
Ġl au
Ġm or
Ġlar ge
Ġal ong
on t
Ġex t
Ġgent le
ent ion
Ġf ire
Ġp ol
Ġc at
Ġse c
ie ld
Ġs we
Ġpl ay
ver s
ain s
we red
Ġre al
ous and
it ing
ak es
Ġre ason
ac hed
Ġth ousand
us ed
Ġbr other
Ġm oney
Ġde p
is on
Ġchild ren
ant s
Ġs ound
ab ly
Ġpr om
Ġw ood
en e
it u
Ġtr ue
Ġbeh ind
l ic
Ġbelie ve
Ġwo nder
Ġrem em
Ġde c
Ġhe ar
Ġc or
it ies
Ġin v
Ġpass ed
Ġh on
Ġtw enty
Ġd oubt
Ġe le
Ġo pp
Ġans wered
Ġdif fe
k en
Ġr a
id ed
t on
Ġsu ff
Ġal one
ac es
Ġnat ure
Ġb es
Ġho ld
Ġre c
y s
Ġm er
Ġp ri
Ġde ad
Ġs ing
anc es
Ġgo ld
Ġgr ound
et s
c y
Ġse a
w er
wh at
Ġst art
co nd
Ġh ur
Ġcl ose
Ġth ou
Ġb ur
er y
te nd
Ġstr ong
Ġcomp an
Ġs on
Ġle ave
id es
Ġas k
bo dy
ep t
an e
Ġc e
Ġdo ctor
if ul
Ġm ount
Ġst ate
Ġth us
Ġgi ven
Ġob s
Ġf ur
Ġs ign
Ġfe ll
d u
Ġbo dy
wh ich
f ic
Ġi r
Ġf air
the n
ce ed
b ed
whe re
Ġsh ort
Ġde ep
Ġt em
Ġear th
Ġhor se
Ġm aster
ill ed
Ġp ap
j o
g th
Ġst re
Ġwho se
Ġse cond
ve red
u ally
re ad
Ġf a
Ġof ten
ow ing
t le
Ġfor t
a im
Ġor der
Ġw ish
Ġcon st
Ġc ir
Ġe as
Ġd ro
cei ved
Ġf if
he n
Ġt en
Ġc a
a id
ac ed
os ition
Ġm ad
Ġsp ir
Ġre ally
l i
o g
Ġfe ar
ang er
Ġi ll
Ġab s
Ġw all
Ġunderst and
re ady
m en
Ġquest ion
id er
aught er
ch ing
Ġaf f
g er
m e
Ġle ast
Ġit self
Ġcom ing
Ġex pl
o c
Ġl ist
Ġj e
h n
Ġch r
Ġus ed
Ġc ase
Ġne cess
Ġr u
Ġst ep
Ġthere fore
Ġsp r
Ġpr ince
Ġsou l
Ġal ready
Ġab ove
iz ed
Ġd ri
Ġre co
im es
Ġkn own
Ġeven ing
Ġn um
Ġar ound
a h
Ġl ad
Ġm ag
Ġgener al
Ġle ar
Ġw al
if ic
Ġm us
Ġs ch
Ġevery thing
Ġtim es
Ġqu ick
Ġs ort
Ġli ve
Ġex pect
Ġfriend s
ver n
Ġcir c
Ġt able
il ed
Ġsu m
Ġwom en
Ġme et
th ough
t ed
b r
we ll
Ġhe ld
id ent
Ġb ig
Ġwith in
Ġel se
Ġsudden ly
Ġm id
Ġex c
Ġto wn
Ġper fect
for m
Ġbr ing
te red
Ġbeaut iful
Ġobs er
Ġs ight
g n
Ġh us
Ġcap tain
Ġreturn ed
Ġcle ar
i ence
m on
Ġl ost
et y
o ld
Ġme ans
Ġfo ot
a w
Ġk ept
Ġc al
Ġsle ep
Ġr an
Ġpro f
Ġjo hn
Ġfe llow
Ġsay s
ag es
Ġd ream
Ġp ast
Ġle a
Ġc ut
Ġob ject
Ġdis c
' re
Ġpre t
Ġb ad
g s
Ġman ner
Ġye ar
i ent
Ġbec ame
Ġm ist
Ġl ow
Ġe ither
Ġde v
ll ed
Ġhum an
in es
th is
c hes
m er
Ġstr ange
air s
m y
Ġwhe ther
Ġtoward s
Ġc ity
u ght
o f
il ity
Ġm aking
Ġp al
Ġ est
ci ous
l ish
ie w
Ġro se
Ġw alk
Ġro ad
c ri
i ans
ious ly
Ġre ady
Ġse ver
Ġco ld
Ġst ra
Ġc orn
Ġd uring
Ġp ie
le t
ll y
Ġtr uth
Ġsh ip
Ġb at
Ġsub ject
ut ion
Ġbus iness
Ġs qu
Ġso ci
a pe
Ġr iver
Ġb it
Ġans wer
Ġfam ily
ing ly
Ġm ur
Ġapp ro
Ġa p
Ġth y
Ġarm s
Ġappe ar
Ġdid n
Ġha ir
Ġf ree
Ġth ir
b ert
ou ble
ot e
Ġlet ter
er n
f fect
Ġposs ible
Ġst o
Ġw on
Ġ ut
Ġbec ome
Ġc ast
Ġdiffe rent
Ġj ud
Ġv al
itt ing
Ġexp ress
Ġchr ist
wh o
Ġf ine
Ġide a
Ġsomet imes
m s
Ġex cl
Ġle ad
itt ed
Ġbl ood
ren ce
Ġa ble
Ġnat ur
Ġqu iet
Ġfor g
Ġar ri
st er
b and
Ġsu s
Ġey e
et h
h ow
Ġchar ac
e y
Ġch ur
Ġst ory
Ġgl ad
at ive
ll ect
ard s
Ġsever al
Ġbeg in
Ġcons ider
Ġt ou
Ġwind ow
Ġdif fic
Ġsur pr
is f
d le
e k
Ġw in
Ġdis co
te en
Ġc ent
Ġp en
Ġe qu
Ġac ross
Ġf re
Ġfl o
as ed
Ġlong er
Ġe ffect
Ġpart ic
Ġs or
ct ed
Ġso ld
ub lic
Ġw ild
ant ly
Ġso ft
Ġcon c
Ġgr and
Ġgo vern
Ġhus band
Ġc ross
un e
Ġres pect
Ġpro v
Ġfollow ed
Ġc reat
Ġs al
Ġd aughter
Ġhapp y
Ġthe e
em pt
Ġb ird
Ġhe av
al th
Ġh ast
Ġsh ow
Ġspo ke
Ġ ve
Ġsupp ose
Ġan im
Ġgre en
Ġr ich
l s
Ġg ard
ang ed
in ation
pe nd
Ġd in
Ġre qu
Ġst ay
Ġre ached
Ġme re
Ġposs ess
am es
Ġex ist
Ġb ook
Ġpret ty
r act
Ġcomp le
Ġcomm on
a ven
le y
ic es
Ġex cept
Ġop ened
Ġappe ared
k ing
um p
Ġt aking
Ġocc as
n y
u se
is ing
Ġim ag
Ġsl ow
u c
Ġhe n
Ġf av
Ġs ense
Ġmon th
Ġr us
Ġex per
on es
u g
ter n
Ġsu cc
Ġsat isf
Ġbri ght
Ġsec ret
Ġbre ak
er ic
Ġremem ber
Ġchur ch
o v
Ġcour t
im e
Ġsc ar
Ġcar ried
Ġwant ed
g r
Ġc ry
Ġsay ing
ou n
Ġan n
Ġde m
Ġspir it
Ġt ree
Ġmo ve
Ġst ri
ot s
ri age
Ġcontin ued
Ġro ck
ou th
Ġacc ount
n ow
Ġpur p
Ġm ot
Ġs ens
Ġcomm and
c ul
Ġto m
Ġd est
Ġstre et
ow ers
med i
Ġe at
ut es
Ġes c
Ġswe et
Ġb reat
Ġcharac ter
Ġst ud
Ġsch ool
ir t
Ġpre p
h am
itu de
Ġo ught
a f
y ed
Ġde cl
aim ed
on y
Ġwor th
Ġh ill
Ġs ad
um b
ur y
Ġdis app
Ġd ut
Ġdra w
Ġqu ar
id ence
Ġreg ard
Ġsm o
Ġbl ue
Ġfeel ing
d ay
Ġp ain
Ġh ot
Ġeng lish
Ġhe aven
Ġtr ans
Ġdel ight
Ġv iew
Ġd ress
Ġlau gh
Ġsucc ess
Ġp ort
Ġli ved
Ġpro du
Ġh ung
as k
Ġcertain ly
Ġacc ord
Ġm ill
Ġh at
Ġb ra
Ġter ri
Ġf ight
Ġf ast
Ġprin cess
Ġse lf
Ġhour s
r ic
Ġd iv
Ġan g
Ġimp ort
led ge
z e
Ġde f
Ġso l
Ġex am
Ġt ried
Ġse ven
u ff
Ġv ar
ne y
Ġl en
Ġcar ry
Ġfor ward
Ġim medi
r or
Ġdis p
Ġd anger
Ġfr ont
Ġc ause
Ġd et
Ġoff ic
Ġent ered
s on
Ġde al
Ġp ay
Ġhapp ened
Ġto r
Ġe ff
Ġac qu
g in
Ġunc le
Ġl ed
Ġadd ed
Ġch ief
Ġwal ked
Ġpartic ular
Ġp ublic
i am
Ġf ig
Ġpr ot
res h
Ġor d
Ġaf fect
sh ip
Ġsh o
Ġcom fort
Ġma j
i ar
Ġgard en
al ity
Ġjo y
Ġb ene
Ġnum ber
s ide
Ġyour self
Ġf ail
oo f
Ġlat er
y ond
h is
Ġdo ing
Ġr id
Ġme m
Ġf ield
iz e
Ġpr ay
Ġn one
Ġsh ad
e ad
Ġli ving
in ct
Ġne ither
Ġbo at
Ġm outh
Ġpart y
il t
wh ile
are nt
Ġgentle man
Ġqu een
m ing
Ġam eric
Ġvis it
Ġl ine
Ġseem s
en ing
Ġre ceived
Ġfur ther
Ġa ge
Ġbe ar
Ġg e
ra id
Ġpro b
if f
Ġent ire
is m
Ġdire ct
Ġd a
or m
Ġha ll
w as
Ġs ister
b it
ous ly
Ġcl ot
if t
Ġdes p
il ing
Ġla id
Ġoccas ion
Ġbe yond
Ġtre es
ward s
Ġd u
Ġpr ison
Ġv i
anc ed
Ġl ab
Ġre pe
Ġfor th
Ġacc om
Ġen em
Ġprin ci
Ġph il
Ġmin utes
Ġt al
Ġse nd
Ġch ance
Ġv ill
Ġsm ile
Ġaf raid
Ġeng land
Ġan x
Ġcr ow
Ġnear ly
o int
Ġtr y
Ġp a
Ġwh is
Ġp ict
Ġm ed
im ent
Ġst ren
Ġnew s
Ġpleas ure
Ġc re
Ġl ate
Ġne igh
ren ch
Ġeight een
it er
Ġtr ouble
Ġgl ass
e f
Ġmil es
Ġw is
Ġthink ing
Ġear ly
Ġsu per
are t
Ġmar g
p ly
Ġsil ence
g y
Ġneigh b
Ġpl ain
Ġf le
Ġch ange
Ġpurp ose
Ġfa ith
Ġnecess ary
Ġpr act
Ġd rew
fe red
i ves
m iss
Ġro b
Ġto p
ic ked
Ġl u
Ġm ine
Ġmar y
Ġsh ar
Ġheav y
Ġb ill
Ġd eter
Ġb ott
us h
ound ed
em ent
u es
Ġbe ll
Ġf ing
Ġnatur al
ru pt
Ġc aught
Ġcirc um
Ġsto pped
Ġa uth
Ġa unt
am ent
Ġexcl aimed
Ġop in
Ġin qu
Ġstand ing
Ġis land
Ġkn ight
Ġsee ing
Ġse vent
Ġag o
Ġhard ly
Ġlen gth
ain ing
Ġg rew
in ary
v al
Ġw it
l er
Ġg ri
ll ing
ic ally
Ġh ig
he ad
in ing
pp er
Ġlo ved
Ġpri v
i or
as p
anc y
ra ge
Ġth ird
Ġpe ace
Ġstra ight
Ġdeter m
Ġc ra
Ġcon vers
Ġbeaut y
Ġdo g
Ġal though
Ġatt ention
Ġinf l
Ġth or
ag ed
ag er
e x
Ġp osition
ce nd
ust om
ate ver
Ġd en
Ġhis t
Ġbu ild
Ġthir ty
h ood
Ġfor ce
Ġr om
Ġcom es
g hed
Ġb ab
Ġwr ong
Ġch air
s aid
Ġgirl s
Ġa st
Ġwa it
Ġf rench
Ġknow ledge
Ġres ol
Ġr ap
Ġstr uck
Ġatt empt
Ġs itting
Ġthought s
he re
Ġa v
Ġsou th
Ġbo x
Ġh op
Ġp ull
Ġwat ch
Ġf at
Ġfif ty
Ġcon v
Ġcrow d
Ġ ver
Ġsl ight
Ġcompan y
i ers
Ġth ick
Ġli e
Ġscar ce
Ġpl an
Ġdin ner
Ġar r
Ġcl ass
Ġd ie
us ion
Ġgra ce
Ġma id
i us
pp ing
Ġre v
ic ed
u ct
Ġget ting
h a
Ġt reat
Ġfore st
Ġb urn
Ġdr ink
ist s
gg est
nd on
Ġte ars
Ġple ase
Ġb orn
Ġl im
Ġboy s
ce ive
o red
Ġst one
Ġres ult
ci ent
Ġt y
Ġf ool
an n
Ġpap er
Ġme ant
Ġauth or
Ġex act
Ġimmedi ately
b s
Ġt one
Ġyou th
Ġwar m
Ġd ied
Ġfri ght
Ġp ost
Ġsa ve
Ġen jo
Ġin cl
Ġac cept
Ġle g
Ġslow ly
if ied
Ġsu ggest
Ġj our
Ġbel ong
Ġinst ead
Ġ er
d d
Ġv ict
Ġquick ly
Ġcont r
m a
u gg
ar ch
Ġen c
Ġlo ndon
Ġb ound
oo ks
Ġbr own
Ġdist ance
Ġs aint
Ġdes ire
Ġli ps
Ġmo on
Ġcircum st
Ġc amp
Ġbes ide
g ing
s u
Ġob l
Ġimp oss
Ġwh atever
Ġpo ck
Ġflo or
Ġf ix
ad ed
at s
it ions
Ġnor th
Ġsn ow
ri es
Ġstren gth
Ġh ors
Ġcon se
ic s
Ġs ac
Ġb all
Ġf illed
am ed
Ġm akes
Ġfor get
Ġsa fe
ive ly
itt en
d om
ou red
Ġf ood
Ġcou n
Ġpl aced
Ġrem ained
Ġspr ing
Ġref le
Ġcom pl
Ġgovern ment
Ġlau ghed
Ġdep art
ent ed
Ġgr ow
er v
Ġn ar
el s
Ġdes cri
Ġvi ol
Ġbro ken
Ġknow s
Ġfollow ing
g es
Ġeas y
Ġprof ess
c ome
Ġhors es
o pe
Ġf ro
Ġpie ce
Ġa h
Ġd read
as ure
e ks
de red
Ġu nd
Ġh id
Ġg all
Ġne ck
ist ed
Ġcomple te
ci ally
p ar
Ġpro ceed
Ġpal ace
i res
Ġdo ll
Ġwa iting
Ġgu ard
en ces
Ġw ide
Ġsa il
Ġstart ed
ac y
Ġsh out
Ġj ack
Ġg az
Ġwe ek
Ġv an
Ġserv ice
Ġde g
re me
Ġf un
Ġan t
Ġeff ort
Ġim m
Ġdiffic ult
Ġtalk ing
Ġg ar
Ġm ess
Ġg er
Ġimposs ible
ac hing
Ġgra ve
Ġsoci ety
Ġf resh
Ġli ft
Ġbes ides
us s
Ġwe ak
Ġpro per
Ġarm y
Ġcorn er
Ġh y
iv id
Ġcl oud
Ġst op
r om
Ġsk y
Ġinc re
Ġmarg aret
l ight
Ġopin ion
Ġsing le
o om
Ġsh ut
Ġafter no
Ġdem and
Ġm ass
Ġat tend
ce ll
Ġthan k
Ġf ly
is es
Ġg un
Ġappear ance
Ġl ang
Ġbel ow
are r
af ter
Ġo ri
or k
Ġm ention
Ġb ank
Ġn ine
Ġocc up
Ġan ne
p ic
en cy
Ġreco gn
Ġconvers ation
Ġcould n
ci al
Ġbreat h
Ġw est
us hed
Ġgreat er
Ġs it
as es
Ġtr ust
Ġev il
he red
Ġf ash
Ġmor row
Ġclot hes
Ġk iss
o h
Ġn in
g o
Ġco ll
Ġout side
Ġpres ence
ve re
Ġbe at
Ġus ual
Ġmar ried
Ġwin ter
Ġarri ved
Ġmus ic
it ation
ap ed
li ke
Ġw ished
Ġsh owed
Ġexpress ion
Ġs and
Ġem b
Ġmonth s
Ġp un
Ġbat tle
Ġafterno on
c ent
Ġmount ain
c he
Ġne g
Ġrun ning
ap ter
Ġsy m
or ies
am b
Ġmar k
Ġe vent
Ġst ates
Ġturn ing
Ġsim ple
Ġc ab
Ġsh ore
Ġg ro
Ġform er
g ar
Ġe ager
a ld
Ġco vered
Ġmo ved
Ġp et
Ġp op
Ġcon n
at ure
Ġcon cl
un ity
Ġsil ent
Ġrel ig
Ġinst ant
st r
Ġph ys
Ġocc ur
Ġst ream
y al
Ġlo c
Ġrem ain
ch o
Ġeas ily
Ġt ur
Ġspe aking
Ġpleas ant
Ġbegin ning
Ġs ick
Ġrem ark
Ġsuff ic
Ġdut y
Ġp ale
Ġfig ure
Ġinfl u
Ġfash ion
Ġp ath
g an
u nder
u el
Ġterri ble
z z
Ġpol it
Ġf ut
Ġmin ute
Ġst ar
Ġgi ving
ol og
Ġtw el
Ġv ol
Ġcons cious
Ġtwel ve
Ġp eter
Ġexpect ed
h ad
Ġra ised
Ġmar ry
Ġk ill
Ġ z
Ġsw ord
Ġscarce ly
Ġobl ig
Ġfl owers
w ise
Ġst ick
pe cially
j ust
Ġoff ice
Ġt all
Ġrap id
ort ed
Ġprob ably
i pped
ul ty
Ġir on
Ġk illed
Ġpl aces
Ġfor ty
Ġgu ess
Ġdire ction
Ġlear ned
s y
Ġb ooks
Ġth rew
Ġsurpr ise
m it
e ch
ound s
Ġsil ver
Ġte nder
ib ly
Ġcond ition
en ess
Ġch o
Ġbre ad
Ġact ion
Ġentire ly
Ġtr ying
d ing
ter ing
Ġwr ite
Ġhapp iness
al ed
pe red
Ġlad ies
oo p
Ġb en
Ġsu c
Ġwr itten
um e
Ġent er
f er
Ġgold en
Ġis n
Ġwonder ful
Ġlang u
Ġf al
Ġnot e
is hing
Ġstep s
Ġconse qu
u ous
nd ered
at ic
ide red
f ast
or ge
os ing
Ġenem y
Ġcl osed
Ġdec ided
Ġsh ook
Ġlat ter
one l
Ġsp ot
it al
Ġw ise
ll ig
Ġmid dle
Ġhist ory
Ġunderst ood
Ġbro ad
it ch
Ġso le
Ġperfect ly
Ġh un
m n
Ġt ast
Ġrep ly
Ġadm ir
Ġbo ard
Ġmere ly
a x
ret ched
Ġi d
Ġch anged
Ġgr ass
Ġsum mer
g ress
Ġb ow
Ġsim ply
Ġsh ot
Ġs itu
Ġwould n
Ġexper ience
Ġsuc ceed
Ġp or
os p
pl o
Ġmar riage
Ġfort une
Ġsa v
Ġlea ving
Ġshar p
un k
d o
re l
Ġfl at
Ġaccord ing
Ġbro ke
ol ute
Ġtra ve
ous es
Ġacqu aint
t s
Ġex cell
est s
Ġobser ved
b ered
ci ence
Ġpock et
Ġt ail
Ġm ir
Ġear n
Ġo per
Ġpers ons
i o
Ġf it
Ġrep res
Ġf aint
Ġli ves
Ġcl im
cl ock
le nd
Ġafter wards
Ġcal m
Ġesc ape
Ġg ate
Ġr ing
Ġl ying
Ġpass ion
Ġf ish
Ġes pecially
Ġori gin
b ing
Ġre ach
c on
pl es
Ġfam il
Ġhe alth
Ġpre v
iver s
os es
se mb
Ġfir m
Ġsor ry
Ġtem per
Ġfut ure
Ġv en
Ġle an
Ġsp ite
Ġem plo
Ġrepe ated
Ġb an
Ġall owed
o ver
um ed
for med
k es
Ġr ain
ur s
Ġstr ugg
Ġbene ath
Ġf urn
Ġbit ter
Ġcircumst ances
Ġc and
o ved
y es
Ġint end
Ġpleas ed
Ġdark ness
ay s
Ġwall s
Ġimport ant
Ġse par
Ġbec om
Ġlet ters
Ġset t
Ġmag n
Ġc iv
Ġl oud
Ġn ice
Ġdisco vered
Ġte a
Ġdisapp e
Ġjour ney
Ġconn ect
Ġm ut
Ġle gs
Ġn ation
Ġye llow
Ġlist en
Ġwor se
Ġdel ic
Ġw and
ott en
id ently
Ġbl ess
Ġpass ing
e c
Ġspe c
Ġap art
Ġk it
Ġbl ind
Ġl ou
vel op
fe rence
Ġfin ally
Ġopp ort
Ġd ressed
Ġg ame
f rom
Ġd im
our s
Ġh ost
Ġsp read
Ġhead s
Ġsor row
Ġc ost
Ġbe ast
Ġv irt
Ġd ry
Ġe ars
Ġse at
Ġcreat ure
Ġrem ar
Ġb ag
Ġd am
Ġsub st
Ġdro pped
Ġmad ame
Ġv es
in a
qu e
Ġsm iled
Ġabs olute
Ġcon ce
ish ment
Ġexist ence
Ġnot ice
Ġpro s
ang ing
o on
Ġd ick
Ġprom ise
Ġlear n
Ġlea ves
Ġres p
Ġprot ect
um ent
Ġmot ion
Ġun less
Ġass ist
Ġdeterm ined
Ġbott om
i od
Ġp ress
Ġfix ed
Ġc ous
iet y
u ge
ac ked
er able
Ġr ub
act ion
Ġv ent
Ġh ouses
Ġin form
Ġpre vent
Ġind ivid
Ġsu it
Ġmaj or
Ġexact ly
ist r
Ġinte llig
anc ing
Ġhe s
Ġcast le
e ll
Ġconc er
ro du
Ġadv ant
c om
Ġha bit
id ge
Ġar g
Ġcons idered
z en
Ġem pt
Ġd om
Ġp ick
Ġon es
in ite
Ġche er
p an
Ġut ter
Ġbird s
u it
Ġv all
Ġt ired
Ġimp ress
Ġst ir
Ġdis g
Ġest ab
Ġfre qu
Ġs ong
ay ed
Ġspe ech
Ġvill age
Ġst ro
Ġprop ert
Ġhon or
Ġshad ow
Ġno ble
Ġp ra
ar ily
ri but
ent h
Ġbelie ved
Ġtr ain
Ġsp lend
Ġwr ote
Ġext ra
Ġp ure
Ġp aid
Ġpart s
Ġnar row
Ġpres ently
Ġvar ious
n a
Ġbreak fast
Ġast on
Ġi gn
Ġext reme
Ġd ar
Ġper iod
Ġro yal
Ġknow ing
Ġindivid ual
Ġha m
Ġag ree
Ġmo der
Ġremem bered
Ġanim al
Ġl uck
Ġall ow
Ġgreat est
Ġcle an
Ġjud ge
r ing
Ġc ott
Ġsc ene
Ġdiffic ulty
in y
Ġm al
as hed
Ġc ustom
am ber
ant ed
Ġsome what
Ġdraw ing
Ġinflu ence
Ġl ower
Ġu r
Ġway s
Ġrev ol
it ary
Ġconf ess
Ġsa ke
at or
Ġlike ly
Ġdecl ared
Ġdes ert
ot ion
Ġan cient
Ġang ry
Ġsold iers
Ġlook s
Ġdest ro
Ġpict ure
Ġs in
is ion
e v
est y
pt ion
Ġdra wn
Ġcou rage
oo se
Ġtr oub
Ġspo ken
Ġpr oud
gg ed
Ġcom b
Ġwat ched
Ġfin ished
Ġlaw s
Ġe ast
Ġsh op
Ġide as
Ġanx ious
Ġm ort
Ġno body
Ġatt ack
Ġtou ch
i ently
re r
Ġde pend
Ġsur f
Ġciv il
Ġsp ace
Ġmo d
Ġfall en
Ġbur st
Ġf ol
Ġag re
c il
i um
r al
Ġme l
Ġsc r
Ġcar riage
Ġth in
Ġins ide
Ġgo es
Ġour selves
ud ed
Ġpriv ate
it ive
Ġcol onel
Ġfif teen
c ise
Ġad vent
Ġapp re
Ġsoci al
Ġbab y
Ġform ed
Ġserv ant
Ġw ine
Ġno ise
Ġwa ited
Ġwind ows
on ed
Ġj ul
Ġspe ed
Ġt ong
Ġb al
Ġin no
cul iar
Ġoblig ed
Ġves sel
er ial
Ġl ot
Ġi ce
Ġhold ing
Ġj ane
Ġgr ou
Ġapp arent
Ġfav or
Ġimp ro
Ġstr anger
Ġforg otten
Ġshould er
Ġv ain
Ġgentle men
Ġth ro
Ġnot iced
Ġpe culiar
Ġgl ance
Ġcomm un
Ġl ose
Ġc up
Ġp ot
Ġm ain
Ġev idently
Ġprom ised
Ġher o
ch apter
wh y
Ġser ious
to gether
ict ion
ab les
Ġcare fully
Ġhig her
Ġpropert y
Ġameric an
i ant
Ġanim als
Ġge orge
w ood
Ġco ver
Ġmet h
Ġquiet ly
c her
Ġbo d
Ġhen ry
Ġf ier
ag ue
Ġearn est
st em
os ite
Ġshould ers
Ġsym p
Ġhands ome
Ġsure ly
Ġed ge
Ġc ow
ac ing
Ġperson al
Ġaffect ion
Ġd ust
Ġgr own
Ġtre mb
it ated
Ġsl a
Ġof fered
Ġgener ally
os ity
Ġsp ent
Ġsk in
s ome
he t
Ġf aces
Ġcont ro
Ġdist inct
o b
Ġhe at
Ġwalk ing
Ġpie ces
a ff
k n
Ġgr ad
fort un
Ġpo et
ing u
Ġf ancy
Ġfr ance
en ced
ot ed
Ġwe l
Ġco at
Ġinter rupt
Ġbu ilt
is ters
Ġp it
er ve
Ġwe ar
Ġch amber
Ġdes cend
Ġmount ains
Ġsurpr ised
ons ie
Ġsy stem
Ġtou ched
Ġde velop
Ġinte llect
Ġmur m
u ly
Ġwas n
Ġr ace
ac her
Ġbut ter
ak ed
Ġfo nd
Ġfing ers
le ep
fe nd
Ġwill iam
Ġed uc
Ġfal se
Ġe ld
Ġj ump
at hered
Ġwe alth
Ġopport unity
Ġb are
ke y
Ġs an
Ġd are
Ġcompan ion
h ip
Ġl in
ac he
i pp
Ġwe ather
ct ions
Ġbra ve
Ġger man
Ġmat ters
Ġst ore
Ġcr own
Ġm ach
Ġp i
Ġal ar
Ġar ch
p et
nd ay
or a
Ġdeg ree
u ce
Ġm am
Ġf an
ra ph
Ġr is
Ġco llect
Ġh ol
Ġlove ly
Ġhon our
b ur
e e
Ġgr ay
Ġin h
Ġmean ing
Ġsur r
oun ced
Ġl ake
Ġr ail
il ar
Ġatt ract
Ġbre ast
Ġoff er
Ġchar ge
Ġsitu ation
n ers
Ġr ag
Ġj im
Ġgr at
pect ed
Ġfeel ings
Ġopp osite
Ġprep ared
Ġgreat ly
Ġcous in
Ġf er
Ġp ier
Ġwr iting
Ġquar ter
o id
se t
Ġhur t
m ister
Ġas leep
Ġun h
Ġwhis pered
w ill
it es
Ġal ive
Ġthr own
Ġread ing
Ġb and
Ġevery body
Ġking dom
Ġpar is
Ġmem ory
Ġsurf ace
Ġh ide
Ġbl ow
c hen
Ġl oss
Ġal together
Ġenjo y
w or
Ġc ook
Ġex ec
ou ra
Ġf ate
Ġint rodu
are st
Ġconst it
m in
Ġ ess
Ġs ides
Ġb ent
ib ility
Ġserv ants
Ġmeet ing
Ġhe ight
Ġr ough
Ġequ al
Ġcr uel
Ġgre y
Ġli ked
Ġca used
Ġdoll ars
Ġfr ank
Ġsw ift
Ġcur ious
Ġsee k
Ġdu ke
oint ed
r on
ar a
er ved
Ġun ited
Ġhapp en
Ġquest ions
Ġd ue
Ġval ue
Ġsatisf ied
ut ed
Ġsqu are
Ġm ix
os op
Ġempt y
c ing
Ġan ge
Ġopen ing
Ġsus pic
Ġsett led
Ġh ath
Ġtal ked
Ġp ity
Ġsupp osed
Ġaccom pan
Ġf ill
Ġre ve
Ġlist ened
Ġfre ed
Ġdist ingu
Ġfind ing
Ġstud y
Ġtast e
ll s
Ġe re
Ġr oof
ch ief
Ġno se
Ġlaugh ing
Ġlift ed
Ġlangu age
Ġor dered
Ġcap t
Ġp ack
Ġv ast
Ġyour s
Ġm art
Ġhur ried
m ore
ep ing
tend ed
Ġr ul
Ġwood s
r ance
Ġe gg
Ġbuild ing
Ġp an
Ġfor ced
Ġst ation
Ġvall ey
Ġb as
Ġst airs
Ġro de
Ġreg ular
Ġhur ry
Ġfa ult
oc r
Ġr ise
Ġli bert
Ġre jo
Ġsh ape
ri ght
Ġjust ice
Ġdist ur
Ġfright ened
Ġcond uct
Ġspe cial
Ġpass age
Ġaccom pl
Ġsac ri
Ġt it
il s
Ġwe eks
ill e
Ġgl oom
Ġord ers
Ġd av
Ġd iam
est ed
if y
Ġsm iling
Ġsold ier
Ġord inary
Ġmeth od
Ġst ock
Ġmat erial
Ġe ur
ad es
Ġun e
Ġser ve
a ly
Ġp in
Ġpr ide
Ġl ines
Ġfl ower
Ġtell ing
Ġsix ty
Ġsuff er
Ġphil osop
Ġkit chen
us es
Ġam b
Ġin j
Ġr ising
Ġpap a
Ġchrist ian
Ġign or
Ġdoes n
l in
ro p
Ġdisc uss
Ġsupp er
Ġaff airs
Ġex er
Ġdesp air
onsie ur
Ġth reat
Ġbo ld
Ġhon est
Ġstre ets
Ġdirect ly
ed s
Ġy ork
Ġne arer
Ġho le
Ġmist ress
i k
im ate
Ġse ized
Ġgr owing
Ġsuffic ient
u de
Ġw ed
Ġg h
ic ated
th ur
Ġcontr ary
Ġse arch
Ġs am
Ġcat ch
v ation
Ġg athered
Ġend e
Ġb ir
ant ic
Ġo w
Ġc it
Ġus ually
Ġre ceive
Ġun f
Ġwat ching
y n
Ġmo ving
Ġremar ked
hen s
Ġmar ch
Ġhill s
Ġeur ope
l ished
Ġsh r
Ġfav our
Ġmove ment
Ġse ason
Ġlo d
n ight
Ġd ign
Ġre ck
Ġhar m
Ġimag ine
be c
Ġpossess ion
b ly
r id
Ġpro ve
Ġpro cess
Ġinst ance
Ġeng aged
cept ion
oc ked
Ġde b
Ġput ting
ail s
Ġauthor ity
Ġa ut
er gy
Ġas ide
Ġbrother s
Ġpull ed
e er
Ġst ones
Ġj er
Ġm as
Ġfar m
Ġwork ing
Ġadvant age
Ġy o
Ġtw ice
ul s
Ġpro ved
Ġr ate
Ġdiffe rence
h old
Ġsole mn
k y
Ġwe ight
Ġdo ors
it able
ag n
Ġfamil iar
h y
p or
Ġm onsieur
Ġspe ct
Ġfle w
f ather
m end
up on
Ġplay ed
Ġsymp ath
Ġha ven
Ġaw are
Ġdist ant
the less
Ġho ly
Ġmoment s
Ġt est
Ġam ount
Ġcol or
Ġadd ress
Ġinterest ing
kn own
Ġw ore
Ġsh ame
Ġdo gs
ra ce
Ġar thur
Ġbus y
Ġexpl ained
Ġb ull
Ġd i
Ġn amed
Ġmy ster
Ġem per
Ġthor ough
Ġtong ue
b es
he st
Ġme asure
ul ous
Ġconf idence
en ance
Ġwor ked
Ġbr it
b ers
Ġl iter
Ġnecess ity
Ġoffic er
Ġexcell ent
c an
k er
y et
ill a
s ued
Ġt akes
Ġn ames
Ġse ated
Ġind ian
Ġsim ilar
Ġende av
Ġsplend id
l v
Ġw id
Ġun ivers
Ġthr ow
Ġdisappe ared
Ġsu f
Ġdri ve
Ġa ud
Ġim per
Ġpres ident
Ġear l
Ġa le
Ġun known
Ġsupp ort
Ġmag ic
m itted
Ġw il
Ġgod s
Ġsmo ke
Ġagre ed
Ġter ror
Ġart ic
Ġlibert y
f ord
Ġhe aring
Ġfr anc
ul ation
Ġfort un
Ġprison er
h ib
Ġp owers
Ġcompan ions
as c
Ġst orm
ter day
Ġprodu ced
z y
Ġst ars
Ġwit ness
Ġp ard
Ġsp an
Ġco ast
Ġper form
Ġdisco ver
Ġb id
Ġv ir
Ġbr and
Ġnatur ally
ro ad
Ġwor ks
Ġmight y
Ġspir its
Ġrepres ent
ro se
Ġev idence
Ġworth y
Ġd ull
um ph
Ġw icked
the se
Ġam az
Ġwant s
l o
Ġc ool
Ġcl aim
Ġpers u
Ġfall ing
Ġdro ve
Ġr are
Ġter ms
Ġpoint ed
Ġg ift
Ġcont ent
Ġinst antly
e very
Ġs ought
Ġd well
Ġdes ign
so ci
Ġkne es
Ġkeep ing
Ġoffic ers
Ġp arent
Ġform s
Ġd or
al ous
we re
Ġfing er
Ġoccur red
is c
un ch
Ġwat ers
ru ction
Ġtra vel
Ġce ased
Ġpa used
Ġdiam ond
m ar
Ġo l
il es
Ġte eth
Ġb le
Ġr at
um n
Ġtri umph
Ġemper or
p ap
Ġp air
Ġg ree
Ġy ield
Ġsh own
Ġprinci ple
Ġyes terday
Ġa ug
id ing
Ġu pper
Ġlab or
Ġgrou p
Ġg le
Ġfail ed
Ġp ill
Ġaff air
Ġrequ ired
Ġexam ple
Ġfr uit
Ġent ertain
Ġameric a
es e
us ing
Ġli es
Ġinh ab
Ġb ask
as m
Ġin n
ent al
art her
Ġun to
Ġroom s
Ġfore ign
e ven
Ġc ases
Ġal i
Ġrep ort
Ġbu y
Ġrock s
Ġor gan
Ġexc it
Ġparticular ly
Ġh om
Ġh unt
Ġh uge
ust ed
Ġposs ibly
Ġpri est
Ġintend ed
Ġd ance
Ġmil k
Ġpossess ed
Ġsatisf action
Ġcarry ing
Ġunh app
Ġd ouble
st and
ac le
less ly
Ġmaj esty
Ġsing ing
Ġsoft ly
Ġmention ed
Ġpr oof
Ġheart s
Ġarr ange
Ġshout ed
Ġfreed om
Ġf arther
at tered
Ġd er
ang ers
Ġmor al
Ġsucceed ed
ro om
iv al
Ġneighb our
Ġte nd
Ġte le
Ġgi ves
Ġele ct
Ġdro p
Ġp aint
Ġg a
Ġcur i
bec ause
Ġf et
Ġin vent
Ġg ently
Ġpro gress
Ġru le
c er
Ġas soci
Ġcab in
Ġp ounds
Ġother wise
Ġel iz
Ġrec ord
Ġdread ful
Ġexcit ement
i ance
Ġc ard
es h
Ġbo b
Ġreg ret
Ġpap ers
Ġb er
Ġv ig
Ġpower ful
Ġfair y
Ġevent s
m ond
w ould
re g
Ġb ore
Ġpre fer
Ġjo ined
wor th
Ġadv ice
Ġadv anced
Ġsuff ering
Ġp os
im ents
Ġinst inct
Ġinterest ed
Ġshe ep
Ġun fortun
Ġfour th
Ġhid den
Ġbir th
Ġf ully
ill y
Ġpl at
Ġvo ices
Ġinter v
Ġaw ful
Ġrelig ion
Ġexpl ain
Ġgri ef
Ġshe l
Ġpresent ed
Ġclear ly
Ġg ather
Ġke y
Ġbri ll
Ġlead ing
y er
Ġab and
Ġob ey
Ġche st
Ġpol ice
Ġaff ord
Ġsevent y
Ġc art
Ġst uff
Ġimp at
Ġste am
Ġresol ved
Ġb or
Ġhen ce
Ġs en
ad ing
ac ious
Ġcle ver
Ġdemand ed
in al
Ġr os
Ġsh ining
Ġdes ired
Ġcond itions
Ġconsider able
Ġfield s
Ġw ag
Ġj ames
ist ic
ig hed
Ġfo x
Ġneed ed
Ġc ro
Ġy ard
Ġser ved
Ġexc ited
Ġsho ot
p ir
t ure
Ġc red
Ġc ord
Ġje w
Ġimport ance
Ġpict ures
r ant
as ant
Ġe p
Ġinform ation
Ġr ide
Ġsh are
Ġcon qu
ort ion
Ġunder t
Ġcall ing
Ġind ians
Ġship s
Ġsevent een
Ġcr it
Ġchar les
tern al
o le
Ġme mb
Ġmer ch
Ġspr ang
d on
Ġt ask
Ġcou ple
Ġimag ination
Ġty pe
Ġfier ce
Ġh osp
Ġwill ing
Ġper ceived
Ġcount enance
Ġcuri osity
b ar
Ġ ing
ll en
Ġno dd
ab el
Ġste ad
Ġda wn
i est
et t
am s
Ġsal t
Ġcit iz
Ġh ither
Ġsl ave
Ġsoon er
Ġdev il
asp ed
Ġcomplete ly
h us
Ġm ult
Ġfo ld
Ġabsolute ly
Ġany body
Ġapp l
Ġhor ri
Ġextra ord
Ġbod ies
u ced
Ġt ight
Ġr ad
Ġlo ck
Ġref used
Ġsuf fered
i ot
Ġs igh
et te
Ġmy st
Ġcr ime
Ġoccup ied
Ġd ying
as ons
Ġfe at
Ġen v
Ġdis m
Ġnever theless
Ġact ually
Ġmoder n
Ġm ile
Ġregard ed
Ġda ily
Ġspe nd
Ġacc ident
Ġcott age
s ie
Ġb ay
Ġsu nday
ul f
Ġsuper ior
Ġwel come
Ġo ce
Ġbr ain
Ġbet r
ip s
Ġav oid
Ġrapid ly
Ġc y
iz ation
Ġhor ror
g ment
Ġh ate
Ġd ur
Ġcl ub
Ġdis s
Ġfl ight
Ġed ward
Ġbri ef
Ġun s
g ers
m as
Ġs ize
Ġd un
res p
Ġwor st
Ġmid st
f l
an y
ver t
Ġpoint s
Ġcor re
Ġsuggest ed
Ġs our
Ġo dd
at er
ab ility
ish op
Ġinst r
iss ion
n or
Ġm aint
Ġrel ations
Ġcross ed
Ġc ult
Ġtr ade
Ġsm ith
Ġste pped
Ġland s
Ġdri ven
Ġeduc ation
Ġa in
Ġp icked
Ġdo zen
Ġtem pt
Ġinqu ir
i ally
Ġt aught
Ġs cience
Ġres ist
Ġnin et
Ġst y
Ġde ck
ack s
Ġpolit ical
Ġw et
Ġan ger
Ġcr im
Ġprofess or
Ġme at
Ġfl esh
Ġmist ake
Ġfool ish
Ġremark able
agn an
Ġexp ressed
Ġbelie f
Ġequ ally
Ġdanger ous
Ġp u
ar ies
art agnan
Ġmemb ers
Ġs isters
as ing
Ġsh ri
Ġcontro l
Ġpard on
b l
Ġn erv
Ġse vere
Ġob st
Ġhun ting
Ġl one
ars h
Ġinter p
Ġsix teen
Ġce re
Ġhot el
Ġenem ies
c ked
Ġw ings
re m
ac ity
Ġdis pl
Ġkind ly
Ġdep th
ific ation
Ġpa ul
Ġf is
Ġwor n
Ġdream s
Ġrus hed
Ġdelight ed
Ġw ounded
Ġo ak
Ġse x
Ġtr uly
Ġmur der
Ġspec ies
Ġb uck
Ġcreat ures
Ġb on
Ġsa f
Ġrel ief
Ġexp ed
Ġass ert
w ar
Ġcare ful
Ġnews pap
Ġphys ical
Ġinterrupt ed
k ind
Ġc op
al ing
Ġj es
Ġapparent ly
st one
Ġsa ved
k in
Ġsho es
Ġn ur
Ġst up
Ġpl enty
Ġlo ver
Ġbeg un
ail ed
Ġask ing
Ġfl our
Ġdra g
Ġbur ied
Ġhop ed
Ġaug ust
Ġele ven
Ġsmo oth
Ġuse ful
k ins
Ġgl ory
Ġmess age
Ġke en
Ġfam ous
Ġfrequ ently
he m
Ġa im
Ġgrad ually
Ġoce an
ic ation
am ing
Ġdes per
Ġent hus
Ġel sie
Ġsle pt
Ġinv ol
aw s
Ġappro ached
Ġconscious ness
Ġenthus i
m other
Ġn ap
Ġst ern
Ġloo se
Ġinde pend
Ġf ac
Ġmind s
Ġreco llect
r it
Ġa id
Ġs ang
Ġp ark
Ġthan ks
Ġprinci p
Ġk en
Ġkn ife
Ġdist r
Ġev ident
Ġcoll e
Ġfe ather
Ġun ion
Ġhy p
er ous
ing ing
Ġl amp
Ġpre cious
ian a
Ġabs ence
Ġcent ury
Ġaccept ed
Ġst age
um ents
Ġchar ming
Ġdet ect
ustom ed
Ġent rance
Ġind if
Ġwo ndered
Ġh ut
Ġme as
Ġgr im
Ġcap ital
Ġplay ing
Ġto t
Ġfact s
Ġobject s
Ġproceed ed
Ġmagn ific
o es
er al
on ly
Ġex ceed
Ġcap able
Ġpur su
Ġsy lv
Ġconst ant
Ġexpl an
Ġneighb or
Ġinqu ired
Ġextraord inary
Ġt ar
or ious
ll a
Ġle vel
Ġfriend ship
Ġbeh old
Ġfight ing
Ġbask et
b id
y e
Ġa rose
Ġd ig
pe lled
Ġrem oved
Ġclose ly
Ġh orn
ad d
Ġa ck
Ġha le
Ġany one
Ġthr ust
Ġind ign
Ġadm it
Ġje alous
Ġburn ing
Ġu g
Ġwhen ever
Ġret reat
Ġlar ger
Ġvirt ue
Ġthro at
i able
Ġm our
Ġpl ant
Ġforg ot
Ġwis hes
Ġpop ular
Ġmam ma
ous ed
Ġqu al
ign ed
Ġhig hest
Ġcloud s
Ġsympath y
r ation
Ġun ex
iz ing
Ġack now
Ġas semb
ch ar
Ġcont empt
Ġem p
Ġkind ness
Ġale x
Ġa head
Ġh ind
Ġst retched
us hing
Ġcho ice
oo ps
Ġk at
ive red
Ġqu eer
Ġstri ke
Ġkiss ed
i ber
Ġnot es
Ġfr ag
Ġrec all
og raph
Ġincre ased
Ġimpress ion
Ġwhe el
Ġch oose
Ġtre asure
b b
om s
Ġmis erable
anc hes
Ġass ured
Ġeight y
Ġmil itary
Ġgh ost
n es
Ġp ressed
Ġwa ves
Ġhar ry
Ġsla ves
Ġa ra
Ġre ward
ons cious
row s
Ġgovern or
Ġnur se
Ġman age
Ġacquaint ance
Ġtremb ling
Ġexper i
Ġdiv ine
Ġinno cent
l ook
he ld
Ġl y
Ġin formed
st airs
Ġse ll
est ic
ak er
Ġjo in
Ġvis ible
Ġbe w
Ġst ories
Ġfe ver
ast ic
Ġgr ant
Ġmar ked
Ġevery where
Ġbeg ged
Ġend ed
Ġaw a
Ġrus s
ham ed
Ġhung ry
Ġfly ing
Ġas hamed
ac hes
ab eth
Ġarri val
Ġsome body
Ġmu d
Ġrem ind
Ġind ust
Ġbar on
Ġforg ive
Ġb ought
Ġgrand father
Ġmyster ious
Ġwe ary
Ġrest r
Ġadv ance
Ġdelic ate
Ġdign ity
ld om
Ġhad n
Ġbl ank
Ġdis h
Ġtem ple
Ġjud gment
Ġbecom es
Ġth om
Ġgood s
Ġsc ream
Ġadvent ure
Ġsh ock
il st
Ġsound s
Ġimm ense
Ġune as
p her
Ġg ay
Ġst iff
Ġal as
Ġunhapp y
Ġsaf ety
Ġp ow
Ġpr ice
Ġbr idge
Ġrem ains
Ġlight s
Ġlist ening
Ġeld er
Ġparent s
Ġb os
Ġc aut
Ġf are
Ġpro ject
ang es
Ġho llow
Ġset tle
Ġadm itted
Ġunderstand ing
Ġwe ap
Ġsome where
ens ive
Ġhel en
Ġcomfort able
Ġhop es
Ġr ome
Ġal ice
Ġob t
Ġem otion
Ġcry ing
Ġb owed
Ġc her
or ous
Ġme al
Ġesc aped
ul ated
Ġkn ock
Ġcom r
Ġun us
Ġplain ly
Ġo x
oo ked
Ġv ic
Ġint ention
Ġro pe
Ġcont em
Ġconv in
Ġw ound
Ġher s
au d
Ġlight ed
Ġhelp ed
Ġinf inite
Ġfellow s
Ġintellig ence
Ġw ra
Ġh int
Ġp ushed
ir m
Ġsu p
Ġun able
Ġthink s
gy pt
Ġthorough ly
Ġstup id
Ġse ldom
th an
Ġfe m
Ġappe ars
Ġsec ure
Ġprom pt
Ġexc use
re es
Ġth under
Ġas h
Ġbecom ing
Ġe t
ott ed
Ġext ent
Ġpros pect
Ġvir gin
Ġf red
Ġfriend ly
Ġsk ill
Ġreturn ing
Ġche eks
Ġce ll
ache l
resp ond
Ġf ed
Ġthrough out
Ġmin ister
Ġpat ient
Ġmill ion
Ġmaid en
Ġorigin al
Ġconcer ned
Ġm ood
Ġe ase
Ġwas te
Ġex hib
cei ving
Ġfaith ful
Ġrelig ious
v ille
it ure
Ġha b
Ġbr ide
ick s
olog y
c ol
ink ing
oint ment
Ġpract ice
Ġarr anged
f fe
Ġt ale
Ġe gypt
Ġy ards
Ġcol our
Ġegg s
Ġfeat ures
Ġt ied
Ġr ank
Ġold er
Ġfair ly
mon y
p ed
Ġsupp ly
Ġeng age
Ġviol ent
Ġinhab it
p es
Ġt iny
Ġbr anches
Ġwo lf
Ġconstit ution
t w
Ġw es
Ġm ental
Ġat e
Ġam use
Ġje we
Ġs ons
Ġb ishop
Ġc ave
Ġg ain
Ġsl ipped
Ġeager ly
with out
Ġrom an
Ġsubst ance
k a
ver se
Ġfl ed
Ġconst antly
Ġport ion
Ġp ink
le ct
Ġe ating
Ġmore over
Ġprop ortion
Ġunc om
Ġrec om
Ġhast ily
Ġeliz abeth
r ated
Ġl aughter
Ġad op
Ġob tain
Ġunc onscious
Ġsign s
Ġgaz e
Ġstrugg le
Ġnodd ed
Ġlone ly
Ġc rew
Ġwas hing
Ġsh a
Ġwho lly
Ġacc ustomed
Ġcor respond
Ġconsider ation
Ġwhis per
it or
Ġn ut
Ġsp are
Ġam id
Ġcl iff
Ġlo g
ne ver
Ġsil k
Ġchrist mas
Ġeffort s
Ġd an
Ġbe aring
ur al
Ġme ad
Ġcl oth
Ġr ust
Ġv ague
Ġfe e
Ġtreat ed
Ġ ze
at ors
Ġto wer
Ġl est
ch an
Ġcons ent
Ġgre et
Ġhast e
Ġestab lished
Ġl ion
Ġg ained
Ġdo ct
Ġfe ast
Ġcl o
Ġmer ry
Ġdav id
Ġt ro
Ġwith d
Ġgl anced
Ġdeep ly
Ġbene f
Ġprinci ples
Ġvict ory
Ġcoun cil
Ġl ack
Ġex ha
Ġqu ant
Ġgl im
Ġem er
Ġaccord ingly
miss us
Ġconsequ ence
p se
Ġim age
av al
ou l
Ġd ared
Ġre semb
Ġrep ro
Ġinv est
Ġsav age
Ġh anging
Ġf ought
Ġn ay
Ġbe ard
out her
Ġtr oops
Ġpr im
Ġcons cience
Ġind ul
Ġpur ch
i ven
s m
Ġr ow
our se
Ġhand ed
ict ed
Ġwind s
Ġmer cy
Ġut tered
Ġbill y
Ġconcer ning
f ice
Ġp red
ci p
Ġsc ot
Ġsc ra
Ġact ive
Ġtra il
Ġprep ar
Ġprofess ion
Ġbrill iant
b or
Ġt a
ur d
ac les
ke ep
Ġfore head
Ġpat ience
Ġcirc le
Ġfe ared
Ġwar ri
Ġrel ation
n ce
o e
Ġs outher
ent ial
Ġr ab
Ġr age
Ġdisco very
Ġemplo yed
y r
Ġs ank
Ġb ree
miss ion
Ġmel an
Ġb ol
Ġmean while
Ġanx iety
Ġdistingu ished
Ġhe ll
as hing
Ġsome how
Ġbo ots
ather ine
Ġjo e
Ġmat ch
Ġprov ided
Ġobt ained
Ġro lled
Ġinst ru
Ġwa ist
Ġlu x
Ġbott le
Ġnerv ous
Ġh ans
Ġr ig
il ty
Ġcl ock
Ġjump ed
Ġp ig
Ġst ared
Ġcomp ar
Ġsw im
Ġre asons
Ġpr int
Ġappro aching
Ġprot est
Ġthe ory
er ves
ar r
Ġbe nd
Ġse ar
Ġfl ag
Ġob v
Ġgu ilty
f all
ut ation
Ġthr one
Ġpart ly
Ġmem ber
Ġadmir ation
Ġsuspic ion
Ġsty le
Ġug ly
Ġs ar
Ġlo ving
Ġnat ive
Ġset ting
Ġmon t
Ġmurm ured
g l
Ġm ing
Ġman aged
Ġrel ie
Ġsacri fice
Ġh ang
Ġpre ced
Ġfar mer
Ġsub s
Ġtroub led
ur ity
Ġex ch
Ġte ach
Ġinterest s
Ġgaz ed
he nd
Ġp ir
Ġkind s
Ġtri al
Ġninet een
Ġsylv ia
Ġw retched
Ġb ade
Ġk ings
Ġfl ung
Ġcons ult
Ġadd ressed
Ġi v
Ġd ancing
iv ity
Ġsw all
Ġshad ows
om en
se c
Ġsh one
Ġmis ery
Ġcur rent
Ġcond em
Ġwis dom
Ġn est
Ġr um
Ġde fend
Ġcon vent
Ġneed s
Ġthousand s
h ave
w in
Ġt is
Ġs her
Ġj ose
ol s
Ġamong st
at ory
Ġar rest
Ġbl ame
Ġfl ore
Ġwood en
Ġappro ach
Ġsens ible
cho ly
Ġprincip al
f ield
Ġc as
ve y
Ġman if
cl es
Ġvo y
Ġbring ing
Ġp ause
os en
Ġdescri bed
Ġmelan choly
Ġno vel
Ġen ergy
Ġpe ar
Ġref use
Ġprop osed
Ġprodu ce
ul se
Ġcl er
Ġgr ate
Ġcomp re
Ġsac red
Ġcred it
Ġexplan ation
Ġo d
Ġwh ist
Ġstand s
Ġsol id
Ġdepart ure
Ġnation al
Ġhouse hold
Ġeng ine
Ġuse less
Ġrequ ire
Ġnin ety
Ġappre ci
o ke
Ġh it
Ġre ven
Ġr ic
Ġman ners
Ġwor ship
Ġout l
Ġun l
Ġarm ed
Ġfollow s
Ġutter ly
Ġw ing
ic ate
Ġsp ort
Ġtri f
Ġresp ons
Ġextreme ly
stand ing
g en
Ġc am
Ġl it
Ġpro c
Ġdist ress
s ue
Ġch osen
Ġwhen ce
um ber
Ġro bert
Ġen orm
Ġad am
Ġhigh ly
Ġdelight ful
Ġvict im
Ġbrit ish
Ġmyst ery
Ġw ard
Ġfor ces
Ġde ce
Ġco ach
Ġte acher
Ġpre cise
Ġcomm ission
Ġvis ion
Ġmount ed
Ġdri ft
Ġconc ern
Ġagree able
Ġpi pe
Ġcorre ct
own ed
Ġill ust
Ġrequ est
Ġfig ures
Ġexer cise
Ġa ven
Ġg est
Ġres umed
Ġend s
umb led
Ġrecogn ized
k i
Ġth ri
ch ie
Ġma x
Ġsent ence
con om
ut ions
il ities
Ġal oud
Ġsupp l
Ġcontin ue
Ġcent re
Ġrus h
Ġknight s
Ġslight ly
ac c
Ġat m
Ġsh owing
em ed
Ġsent iment
Ġpar li
Ġdire cted
Ġprof ound
Ġmed ic
Ġer r
Ġemplo y
Ġassist ance
Ġange l
Ġunex pected
Ġby e
Ġno b
Ġint ense
Ġfl ood
Ġche ek
Ġmist aken
Ġtor n
Ġaffect ed
Ġatm osp
Ġst ret
Ġso vere
Ġbr ow
Ġstra w
Ġb ud
Ġb ath
Ġsh ade
Ġfe ed
Ġle ap
Ġpo ison
Ġobser ve
Ġrob in
Ġcheer ful
at ched
al t
Ġatt itude
Ġrest ed
Ġconf usion
Ġprev ious
Ġconnect ion
Ġhorri ble
Ġs ighed
Ġyoung er
Ġph r
Ġabs urd
Ġreco vered
Ġimmedi ate
Ġha lt
Ġe cho
Ġe conom
Ġdis e
Ġsubject s
Ġrid ing
Ġwed ding
l ot
r ison
Ġha w
Ġsp ark
su ch
b our
Ġw ake
Ġgu ide
bo ard
Ġabs or
Ġlu cy
Ġincl ined
Ġmark et
Ġmagnific ent
Ġconvin ced
Ġst air
Ġun p
Ġsing ular
Ġcomple x
Ġsens es
Ġrevol ution
is ions
Ġpro ble
Ġhand ker
Ġgen ius
Ġdut ies
Ġloc ked
Ġunfortun ate
Ġa x
Ġp our
Ġlo ves
Ġcomp osed
Ġsw ept
Ġfle et
Ġcolle ge
Ġhandker chief
Ġb ark
is p
Ġre le
the ir
Ġim pl
Ġcur tain
Ġpol ic
Ġbos om
Ġsouther n
Ġf il
Ġg own
ri l
Ġfr ame
Ġstr ict
Ġut most
Ġstay ed
Ġtrans p
Ġid ent
Ġa ust
ed y
Ġn urs
Ġpl ate
Ġpl ans
Ġbr id
Ġbo nd
Ġbre aking
Ġhor iz
Ġread er
Ġreal ity
Ġsoul s
oun ce
Ġsuffic iently
Ġpra ise
Ġsurr ounded
Ġf aced
Ġp age
em s
Ġsp ar
Ġper mitted
Ġevery one
Ġnor ther
Ġaw ake
Ġadm in
Ġmid night
Ġpray er
Ġban ks
Ġjose ph
Ġc ath
Ġl ing
Ġor n
Ġpr on
Ġpart ies
Ġphil ip
Ġarg ument
Ġmerch ant
l ong
Ġtr ad
Ġro ll
ud ing
Ġdev oted
Ġmach ine
Ġaccompan ied
Ġjes us
a ult
b orn
Ġthe at
Ġc ities
Ġch ap
Ġcount ess
Ġinst it
Ġconnect ed
Ġlou is
Ġaston ishment
Ġparli ament
b ury
d id
ll e
Ġse es
Ġsh aking
Ġpr ud
Ġgl o
Ġnight s
Ġdel ay
Ġadd ition
Ġsound ed
Ġru in
Ġcra w
Ġneg ro
Ġinhabit ants
c le
n al
Ġre be
Ġr ib
Ġde mon
Ġsc en
Ġincre ase
ffe e
in ent
Ġget s
Ġsleep ing
Ġgun s
r s
Ġp il
le cted
Ġsu gar
Ġapp ointed
Ġgu ests
Ġconcl usion
f ied
Ġp ian
Ġch at
Ġwh ilst
Ġas cend
Ġint ent
Ġgu est
Ġra ise
Ġdeg rees
Ġacquaint ed
p ent
Ġre nder
ons ense
Ġdel iber
Ġann ounced
Ġdiv ided
Ġpriv ile
Ġdestro yed
Ġalar m
Ġignor ant
b re
l iness
Ġc atherine
Ġbe held
le br
Ġfor bid
and er
Ġso il
Ġwonder ing
Ġcra ft
Ġfol k
Ġris k
Ġfis her
re y
Ġme chan
Ġstri king
Ġcommand ed
Ġestab lish
Ġdar ling
in ate
qu is
u able
at ives
Ġwas h
ur ies
Ġso b
Ġqu ality
pl ess
ab out
Ġcont ract
Ġcr ack
Ġste ep
Ġthir st
Ġpract ical
Ġshar ply
i ation
Ġe aster
se y
Ġco ffee
Ġafter ward
Ġquar ters
Ġrag ged
w ed
Ġb ul
Ġli br
Ġsc orn
Ġdes ir
Ġconcl uded
Ġpu zz
h as
m ber
Ġto ss
Ġret ired
Ġass ure
Ġref er
Ġca uses
Ġlea f
Ġrefle ction
ut en
Ġst at
Ġbl ock
Ġrefle ct
Ġtrave ll
Ġlean ing
Ġc ig
Ġch in
Ġch im
un ning
Ġimpro ve
nt on
Ġcont ained
Ġem ph
Ġchar m
Ġreal ized
Ġce lebr
Ġbelong ed
Ġatmosp here
Ġs cient
Ġb ones
an ch
om p
unt ed
Ġpun ishment
Ġdistr ict
it ate
ar se
Ġre n
Ġsh ake
Ġcon ven
Ġag es
per haps
Ġphys ic
Ġintellect ual
Ġw ave
Ġar ist
Ġsp l
Ġpre c
Ġtroub les
Ġunivers al
c ertain
d s
l ie
s es
Ġm c
Ġf id
ic ip
Ġlo ft
Ġsuccess ful
h ouse
i ved
Ġde fe
Ġtr ack
Ġche ck
Ġpol ite
Ġinv ited
Ġcand le
g u
Ġt ables
Ġj ac
Ġle is
Ġpl un
Ġover t
ud es
Ġcomp ass
Ġfirm ly
Ġsepar ate
Ġprotect ion
Ġsurr ound
Ġb ase
Ġd ir
id s
Ġan no
Ġex tended
Ġsm ell
Ġjo b
Ġobs c
Ġmove ments
Ġcre pt
Ġdifficult ies
Ġloc al
Ġpier re
Ġrecom mend
Ġn ations
Ġg as
Ġr ange
Ġun if
Ġany where
Ġdr unk
Ġleis ure
r im
Ġst or
Ġj une
Ġbus hes
Ġviol ence
Ġproper ly
Ġaston ished
Ġunus ual
id ay
Ġr out
Ġwe pt
Ġso re
Ġab o
Ġcl os
Ġsim pl
Ġnum erous
Ġsort s
Ġfat al
Ġdesert ed
Ġdescend ed
f o
Ġl ately
Ġcomm er
Ġsun sh
Ġvis ited
Ġoffic ial
r is
Ġp ub
Ġg ates
Ġre ndered
th us
Ġne arest
ag ger
Ġent ering
Ġide al
Ġdoubt less
Ġkat y
Ġfem ale
Ġenorm ous
u ch
ct ure
Ġli ber
Ġrep ublic
Ġact ions
Ġhum ble
Ġcal cul
Ġjul ia
Ġl ap
Ġre pl
Ġr ang
el ia
Ġte ar
Ġapp et
Ġlean ed
Ġmut tered
Ġpros per
Ġwes tern
j ud
Ġand rew
Ġinvest ig
Ġs ed
Ġr ays
Ġst amp
Ġle v
Ġfl ash
Ġour s
Ġlaw yer
Ġlear ning
Ġobser v
Ġnorther n
al es
Ġst out
Ġsh ows
ri er
Ġch anges
Ġper pet
Ġfour teen
Ġstart led
Ġstrong er
Ġtit le
Ġgloom y
b el
Ġre nt
ad s
Ġman kind
Ġbl oom
be fore
Ġfin al
Ġru de
Ġclim bed
Ġintrodu ced
Ġcontem pl
te enth
Ġsens ation
Ġapart ment
Ġcitiz ens
en ger
Ġth read
Ġcom pelled
Ġpl ants
Ġheart ed
ative ly
Ġfan ci
Ġhab its
Ġt ax
Ġc ared
ver ing
Ġst oop
ick en
Ġsc attered
Ġcar pet
Ġdet ails
Ġslight est
Ġburn ed
Ġ vers
Ġc oo
Ġit al
Ġr al
Ġfe ars
Ġthr owing
Ġbad ly
Ġemb arr
Ġgrat itude
Ġaccompl ished
Ġembarr ass
Ġd art
Ġn onsense
ay ing
Ġab road
Ġgi ant
Ġtri p
Ġnum bers
Ġeffect s
Ġvan ished
Ġweak ness
Ġas pect
Ġpain ful
Ġhung er
Ġprison ers
Ġlie uten
Ġconce al
on ies
qu et
Ġex ert
Ġlike wise
Ġob ed
Ġact ual
Ġter m
Ġcat tle
Ġsign al
Ġlab our
Ġreck on
Ġsour ce
Ġemp ire
c ast
r ous
Ġl am
Ġal t
itt y
Ġbl az
ff in
Ġcount ries
Ġest e
Ġve x
Ġdescri ption
Ġfranc is
Ġthom as
Ġsup reme
e enth
se e
Ġpar l
Ġfif th
Ġve get
Ġeat en
Ġresol ution
Ġbeat en
Ġinstr ument
in ated
ul ate
um es
Ġwar ning
Ġins ult
Ġinterv iew
f a
Ġof fend
Ġsh ud
ain e
Ġrid ic
Ġresult s
Ġwid ow
Ġt ad
is l
Ġp ist
Ġr if
Ġab rupt
Ġstr ing
Ġpur ple
Ġsmall er
Ġir ish
Ġhes itated
Ġpaint ed
Ġo il
Ġm ild
ri ved
Ġres c
Ġcomm itted
Ġhel pless
Ġlead er
Ġpen et
Ġoccas ions
Ġcoun ter
Ġshel ter
Ġcult iv
Ġqual ities
Ġsunsh ine
b on
Ġshe ll
Ġgr asp
Ġmo de
Ġgu ards
Ġtre m
Ġexcept ion
Ġsafe ly
Ġfurn iture
Ġvoy age
Ġt ent
Ġp ant
Ġl amb
ur ance
Ġste el
Ġexam ined
Ġrefle cted
Ġdepart ed
Ġexec ution
Ġspan ish
at t
Ġp oured
Ġkn ocked
Ġste ady
Ġobser vation
Ġspirit ual
Ġdest ruction
Ġdisp osition
istr am
b ow
in o
Ġf ulf
en gers
Ġr ay
Ġtr ick
Ġsc ore
Ġpart ed
Ġins pect
Ġmad am
Ġcrowd ed
s omet
Ġh oney
Ġp sy
Ġin ex
Ġne at
Ġch apter
Ġpre tend
Ġdes k
Ġcr ist
Ġpur sued
Ġsqu ire
Ġval uable
Ġwit ch
Ġwand ered
bur g
Ġquant ity
Ġfanci ed
w ick
Ġex cess
Ġsc he
Ġbel oved
Ġgrand mother
Ġhast ened
Ġborn e
Ġvent ure
Ġfol ks
Ġc aval
ri ly
Ġli qu
Ġun ple
ol as
Ġfl ame
Ġtell s
Ġatt ached
Ġans w
Ġoper ation
Ġali ke
c ence
Ġc ries
Ġst aring
Ġbar n
Ġdisp osed
Ġattend ed
het ic
Ġflore nce
Ġm os
Ġme lt
Ġch ain
ak s
Ġdis ci
Ġhapp ens
Ġcontin ually
Ġthor nton
Ġdom estic
Ġhither to
Ġlibr ary
Ġral ph
w ing
en c
Ġle ather
Ġab st
ol ic
Ġtr istram
Ġcomm itt
Ġser iously
Ġfore ver
Ġdri ving
Ġcreat ed
Ġrich ard
Ġmas ters
tw o
Ġpian o
a pped
Ġm ouse
Ġn av
Ġre ne
Ġgood ness
Ġoccasion ally
Ġpow der
Ġlieuten ant
y our
Ġb ern
ic o
st ep
ge on
ful ness
li est
Ġexped ition
ed ly
Ġd iana
ot es
Ġsh irt
Ġenjo yed
Ġdistur bed
Ġstead ily
c r
Ġt on
Ġs illy
Ġd ang
Ġint im
Ġar d
de rer
hen omen
Ġsus pect
Ġheaven s
Ġelect ric
m o
p o
Ġt ones
Ġv ac
Ġwhere ver
Ġact s
aught ers
Ġtre as
Ġdr ank
Ġrepe at
Ġisland s
Ġvent ured
col n
sm ith
s ed
in ity
Ġp ace
Ġp henomen
Ġcons id
less ness
ple x
Ġimag ined
Ġaud ience
Ġbe ings
Ġe ternal
Ġr uth
Ġst aff
Ġsu lt
Ġj u
Ġmar illa
ord er
Ġmiss ion
Ġread ily
Ġinc ident
Ġinf er
Ġsign ific
Ġconsequ ently
Ġsepar ated
Ġbeast s
Ġdestro y
Ġn ich
Ġshe d
Ġde arest
Ġco ck
Ġent reat
Ġass umed
Ġcond u
Ġfail ure
j e
o qu
w ork
Ġh ated
Ġp ine
Ġk ate
th r
Ġey ed
Ġdr am
Ġheav ily
Ġsad dle
Ġlin coln
Ġwashing ton
Ġsovere ign
n at
o y
Ġs ne
ou rage
on ce
Ġg il
Ġatt ent
Ġins isted
Ġdevelop ment
Ġd aughters
ver ty
Ġj ar
Ġpo verty
Ġcall s
Ġla un
Ġrel ated
Ġreg ion
Ġdisapp ointed
Ġcoun sel
a res
u f
Ġf und
ter y
Ġis abel
Ġgr anted
Ġmay be
Ġcar ol
ens ion
Ġtra ce
Ġwal ter
gr ound
Ġprob able
Ġclass es
Ġconce aled
war f
Ġdesper ate
Ġa ver
Ġd il
Ġd warf
Ġhe ap
Ġha y
Ġr achel
ers on
ie ce
Ġpo lly
Ġhundred s
Ġbur den
Ġattempt ed
Ġdescri be
Ġsail or
i pping
m ay
v ol
Ġsee king
Ġrem aining
Ġgener ous
Ġprop os
Ġpri ze
Ġje an
Ġmur derer
Ġann a
Ġdress ing
Ġboat s
Ġappl ied
l a
p ro
Ġd us
Ġl uc
Ġab und
ol a
Ġright s
Ġlight ning
Ġcol oured
Ġstrong ly
Ġcircumst ance
Ġfamil ies
Ġol iver
ve t
Ġsome one
Ġdra gged
Ġserv ices
Ġhuman ity
let s
Ġmot ive
Ġgree k
Ġaband oned
s ince
t ill
Ġp ool
Ġsh y
fe rent
um ble
Ġper ceive
Ġcons ist
Ġsince re
Ġest ate
Ġchief ly
Ġdirect ions
Ġant icip
Ġphilosop her
r am
in ations
Ġex tend
Ġho ll
Ġhead ed
Ġdel ivered
Ġgra v
Ġsum mon
Ġdef inite
Ġdrink ing
Ġleg isl
Ġdistur b
Ġmanif est
u er
Ġl an
an ed
ad o
Ġj en
Ġno on
Ġapp le
Ġcol ored
Ġdisapp ointment
Ġw ig
Ġp ony
Ġan ch
Ġte aching
Ġser ies
Ġmon te
Ġinf ant
Ġtown s
Ġdin ing
umb ling
Ġacknow led
Ġexha usted
l ict
z ed
Ġ vel
Ġc unning
Ġhe ed
Ġgo ver
em ber
Ġstr angers
Ġatt ribut
Ġprop ri
Ġfree ly
Ġsus pected
Ġsad ly
Ġquar rel
Ġview s
Ġess ential
Ġdir ty
Ġital ian
Ġm ant
Ġto mb
Ġp ars
Ġn ed
Ġe ve
Ġst uck
Ġwr it
Ġfast ened
oura ble
Ġplat form
Ġenthusi asm
i qu
i pe
Ġch ose
Ġout er
Ġtr ot
Ġshould n
Ġact ed
Ġmort al
Ġwh it
Ġnot ion
Ġover come
wh ose
app ing
Ġdem ocr
Ġprodu ct
Ġmeant ime
Ġgrow th
Ġexer c
Ġcrit ic
Ġnewspap er
iven ess
r ate
Ġa chie
Ġo ath
Ġf ount
Ġsa iled
Ġch ann
ie l
Ġmo ck
Ġsim on
Ġartic le
Ġdrag on
or ing
or ation
Ġre aching
Ġtim id
Ġmar ble
Ġturn s
Ġkne e
Ġdel iver
Ġcut ting
Ġfat ig
Ġfare well
Ġvirgin ia
Ġa pt
Ġm ac
Ġwas hed
Ġle aped
Ġdis ag
Ġper mit
ress ion
Ġcont ribut
Ġown er
Ġend ure
Ġbri g
fort une
Ġopp osition
Ġrul es
Ġdoct r
o ff
s ing
Ġbr anch
Ġlight ly
Ġfind s
Ġbus h
Ġself ish
Ġhist or
Ġexperi enced
keep er
Ġl un
ic a
Ġch uck
Ġgl orious
Ġappe al
Ġtra p
Ġvar iety
Ġpock ets
Ġbitter ly
Ġdise ase
l est
n et
in ction
Ġw re
Ġwe aring
Ġen ch
Ġcl ay
Ġsl ip
Ġrep utation
Ġs om
at ch
Ġp ound
Ġg al
Ġbe ach
Ġwe eping
Ġdes ires
Ġsat ur
Ġcol umn
Ġfall s
Ġbelong s
Ġhid ing
Ġvol ume
Ġwand ering
u ine
Ġt ick
Ġhe d
Ġn on
Ġr oses
os ure
Ġsl ain
Ġtremb led
Ġdepth s
Ġindif ferent
Ġp ed
Ġr ud
Ġfl ut
Ġsil ently
Ġrec on
Ġtreat ment
Ġdisg u
Ġgrate ful
Ġunif orm
Ġw ire
Ġo s
Ġto by
Ġre ar
Ġsh ield
Ġj un
Ġmis chief
Ġaf ric
Ġem ily
Ġmet al
Ġobject ion
Ġden y
Ġsuggest ion
Ġfrequ ent
Ġswift ly
Ġt in
he l
Ġit aly
Ġmis fortune
Ġbo ast
Ġtre mend
Ġless on
Ġinv itation
Ġfear ful
Ġrepres ented
Ġamb ition
Ġhosp ital
Ġin ner
Ġwh irl
um s
Ġstr ain
Ġem br
Ġbar bar
ash a
Ġeff ic
Ġgaz ing
Ġvessel s
Ġfet ch
Ġhoriz on
Ġunple asant
e ed
Ġth ine
Ġth ither
Ġbe ating
Ġso ot
Ġcons ol
Ġwr iter
Ġmon ster
Ġfur y
Ġbenef it
Ġclos er
g est
Ġf ired
Ġf asc
Ġtr im
urn ed
Ġmon arch
Ġma le
Ġmill ions
Ġl unch
al f
Ġshe et
Ġint imate
Ġele g
Ġenter pr
Ġthreat ened
Ġartic les
m al
Ġto w
Ġp up
st ill
Ġwo nd
Ġmag istr
Ġben ch
Ġresp ond
Ġmajor ity
Ġignor ance
Ġneighbour hood
Ġsult an
re p
Ġm ars
ol ate
Ġro lling
Ġcan n
Ġpre tended
Ġpurp oses
Ġmir ror
worth y
Ġgest ure
Ġcrist o
l ord
Ġto ler
Ġst able
Ġsh akes
ol en
Ġco al
Ġper plex
Ġcomm unity
Ġsmo king
Ġconv iction
ha ving
Ġappre hens
Ġmix ed
Ġbern ard
Ġro d
Ġconf ident
Ġbed s
Ġpri ests
Ġshort ly
Ġacqu ired
Ġaut umn
Ġcere mony
Ġd ate
Ġhe els
Ġg ig
Ġch ina
Ġv ivid
co at
Ġwar n
Ġdu ches
Ġopin ions
Ġcontr ast
Ġfurn ished
Ġpoet ry
Ġphilosop hy
Ġcommitt ee
Ġn et
ir ing
Ġsu st
Ġconf used
Ġred uced
Ġcat s
Ġroad s
Ġhat red
Ġearl ier
Ġwag on
Ġmax im
ac on
Ġinc red
Ġabs ent
Ġru ff
Ġtou ching
Ġdiscuss ion
Ġbew ild
Ġscient ific
Ġsche me
Ġs way
Ġl ament
ot ions
Ġse as
all ed
Ġj an
if ying
Ġpro cl
Ġsm art
Ġmiss ed
with standing
Ġcharac ters
Ġvisit or
Ġenc oura
Ġming led
Ġst om
Ġde ed
Ġj ap
Ġman s
Ġwor ry
Ġgr in
Ġdis miss
Ġstir red
Ġproble m
Ġnich olas
n el
p ri
ed er
an qu
Ġn aked
ic ing
Ġbut ton
Ġpo le
Ġcomp et
Ġche ap
Ġsle nder
Ġunc ertain
Ġdec ision
Ġsch ol
cri pt
Ġthir teen
Ġformer ly
a ving
c ase
Ġh arsh
st ead
Ġmar ks
Ġposs ibility
Ġph ot
Ġwis hing
Ġfranc s
Ġd az
Ġint r
el t
act ory
Ġpoint ing
Ġport ra
Ġpress ure
Ġpsy ch
a ved
g ood
Ġl ust
Ġin ch
ic ity
Ġre ign
al though
Ġher bert
ro g
Ġbr ush
Ġpe asant
Ġmar ve
Ġapp ly
Ġapp lic
Ġspe cul
Ġsw ung
Ġreg iment
Ġadm ire
Ġswe ar
Ġstart ing
Ġbat t
Ġexper iment
Ġven ge
Ġmult itude
l ow
Ġt ide
Ġo t
Ġb un
Ġf est
Ġf ires
Ġd ale
Ġshe pher
ak ened
ap t
not hing
Ġche ese
Ġground s
Ġve il
Ġty r
Ġcontr ad
Ġmotion less
Ġdistinct ly
Ġshoot ing
Ġfee ble
Ġc eter
is k
Ġsu l
Ġtr unk
Ġpers ist
Ġact ivity
Ġmer c
Ġchr is
Ġprov isions
Ġsecret ary
Ġdecl are
Ġdisg race
Ġprecise ly
Ġc ream
as per
om ed
st ers
th os
Ġdis char
Ġper formed
Ġgard ens
Ġcommand er
Ġcler k
Ġceter a
i h
Ġt un
Ġf ant
Ġnot ed
Ġli ly
Ġun re
ag on
Ġmar vel
Ġpre jud
Ġstate ment
Ġt ub
Ġf itted
is y
an ny
Ġag ony
Ġwr ath
Ġvict or
Ġnar r
che ster
Ġguess ed
Ġtender ness
Ġearnest ly
Ġcow ard
Ġinterp ret
Ġindepend ent
u ish
Ġw ives
is ible
Ġcl ergy
ink led
Ġdeep er
Ġvisit ors
Ġfashion ed
Ġwra pped
Ġmedic ine
Ġduches s
Ġstom ach
a e
a el
m es
Ġm ast
Ġst ag
gg ing
iver se
Ġland ed
Ġele ment
Ġnecess arily
Ġrespect able
Ġclim b
Ġbless ed
Ġyo nder
Ġjewe ls
Ġclo ak
Ġabsor bed
Ġjap an
g ie
he w
Ġwhe els
Ġcomp ared
oth y
Ġter rit
Ġarri ve
Ġsend ing
Ġsacri fic
Ġd uck
pe are
Ġal bert
Ġcent ral
Ġgrave ly
Ġcoll ar
Ġur ged
Ġpersu aded
Ġing en
Ġscot land
Ġpuzz led
c ould
l ars
re ls
Ġi dle
at a
Ġal ter
Ġheart ily
Ġwa x
Ġsur re
Ġinc hes
unt il
Ġdro ps
Ġjohn son
Ġmoon light
Ġpursu it
Ġrab bit
Ġp all
it ating
il i
Ġch ase
Ġbr ook
Ġfl ow
Ġrem ote
Ġbre ed
Ġins ist
Ġdec ide
Ġsto le
Ġbuild ings
Ġlim bs
Ġfortun ate
Ġwithd ra
Ġeaster n
Ġd oub
Ġin ev
Ġbe th
th ose
if ully
Ġthen ce
Ġper il
Ġbeg ins
Ġchild hood
Ġrep ent
Ġfeel s
Ġins p
Ġmod est
u its
Ġw ol
Ġo ct
Ġi re
Ġto b
am m
Ġun m
Ġbo il
pl ace
Ġfl ashed
Ġpre y
Ġmer it
Ġtem por
Ġlive ly
Ġsol itary
Ġlin en
Ġaband on
Ġobey ed
Ġreven ge
Ġs ink
nd y
Ġm ich
Ġd amp
an ing
Ġch amp
Ġup stairs
el ess
Ġco in
Ġcont ents
Ġpass ions
Ġdist inction
Ġcap acity
k ward
m et
u ary
Ġb ert
Ġf ow
Ġad vert
Ġper mission
Ġpre cip
Ġfo lly
ail ing
iet h
Ġbed room
Ġsus an
Ġintellig ent
Ġuneas y
Ġbree ze
Ġscen es
Ġb und
is hes
Ġp uff
Ġch all
um ption
Ġdep os
Ġdut ch
Ġenc oun
Ġliter ature
Ġwarri ors
e ys
Ġm oss
Ġc ake
Ġas hes
Ġwe ep
Ġsa le
Ġsle e
Ġbu ff
Ġreason able
Ġbelong ing
Ġinquir y
Ġvenge ance
l ers
z ing
Ġd anced
Ġp ains
an z
Ġj est
ation al
Ġmar ian
Ġpres erved
Ġsur v
Ġfin ish
Ġra ising
Ġpray ers
Ġgri e
Ġmess enger
Ġble w
Ġf aded
Ġe ag
ri e
Ġag ed
Ġag ent
Ġgl ac
Ġcont ented
Ġcare er
Ġprin ces
Ġaw oke
Ġce ase
Ġconst ru
Ġenc ourage
Ġhom es
je an
Ġdisag ree
b ack
Ġb ind
Ġb ars
Ġl osing
Ġre ference
os ha
Ġpe pper
Ġmar ched
ren ces
Ġimp ulse
Ġwant ing
Ġnor man
Ġconf eder
Ġcontin u
Ġaw kward
Ġmus k
Ġriver s
Ġgall ery
Ġengage ment
Ġabrupt ly
Ġconsid ering
Ġt ip
Ġf ence
Ġex ternal
Ġfl ock
Ġpe as
Ġconf lict
Ġele ments
Ġsla very
Ġruss ian
Ġcomr ades
Ġcompre hend
p ers
Ġl ane
Ġr av
Ġch airs
Ġar row
Ġpass engers
Ġsupp orted
Ġprep are
Ġgall op
Ġpor thos
Ġgerman y
Ġrepro ach
Ġtheat re
Ġappet ite
i ving
Ġt our
Ġp ile
Ġn ic
pe l
Ġal tern
Ġhand le
Ġatt acked
Ġact ing
Ġexp ense
Ġswe ep
Ġmeas ures
Ġplun ged
i ke
i que
o ise
Ġa ly
Ġo we
ur a
Ġat h
il ight
Ġdoor way
Ġdream ed
Ġprep aring
Ġshout ing
Ġbless ing
Ġsong s
Ġfavor ite
Ġdevelop ed
ole on
Ġire land
c est
in te
Ġha l
ri g
Ġday light
Ġcont aining
Ġbar b
Ġstrange ly
Ġregard ing
Ġexam ination
Ġhun ter
Ġdim in
Ġgather ing
Ġweap ons
Ġcondem ned
Ġt ap
in th
Ġin her
ad a
Ġtw ilight
whe l
Ġind ia
Ġhapp ily
Ġref uge
Ġbreat hing
Ġpull ing
Ġsail ors
Ġgar ments
Ġcalm ly
Ġdom in
Ġreve aled
Ġloft y
Ġu lt
Ġcon gress
Ġany how
Ġen cl
Ġpo nd
ang le
Ġkeep s
Ġcross ing
Ġtal es
Ġstro ke
Ġarrange ment
Ġexceed ingly
Ġadop ted
Ġrelie ved
Ġtremend ous
Ġbe e
Ġr oused
if ted
Ġbr ings
Ġcl ut
Ġlong ed
Ġem otions
Ġpres ents
Ġcount y
Ġwa ved
Ġcle ared
Ġdec or
Ġsto pping
Ġglad ly
Ġwild er
Ġscar let
Ġcry st
olog ical
Ġfeather s
Ġexch ange
Ġsatur day
y l
Ġs ire
ir med
Ġst ated
Ġsp ain
el ing
cc a
Ġart ist
Ġfun ny
Ġvirt ues
Ġmurm ur
Ġattract ed
Ġamaz ement
Ġgift s
Ġfold ed
Ġindust ry
Ġrif le
c ar
Ġme x
ro s
Ġv ul
Ġany way
ink le
Ġres our
Ġcomm enced
Ġgen uine
there fore
Ġbur nt
Ġflo ating
Ġer ror
Ġremar ks
Ġcard inal
Ġindign ation
Ġadmin istr
Ġcath olic
Ġdemon str
Ġwh ip
Ġre form
Ġre ceiving
Ġtr ump
Ġthan ked
Ġgl it
Ġneighb ors
Ġincre asing
Ġmass es
Ġcommun ication
Ġdiamond s
Ġara b
Ġorn ament
m ight
r ain
Ġt ig
Ġc ub
Ġd ed
it z
Ġin se
Ġha z
Ġbr ut
Ġgr acious
man y
Ġrel uct
Ġlord s
Ġconc ent
Ġsatisf y
Ġgall ant
Ġphysic ian
g ent
Ġto day
an a
Ġe cc
se en
Ġso lic
Ġtr anqu
Ġgr an
Ġlong ing
Ġcont act
Ġpen ny
Ġrom ans
Ġinterv als
r ors
Ġf anc
Ġman uf
Ġfo g
Ġjo ke
Ġir r
Ġstrugg ling
Ġcrim son
Ġaly osha
Ġw ilt
Ġb ible
se qu
Ġde er
us ions
Ġro ast
Ġover whel
Ġpe ep
Ġsc ri
Ġexp osed
Ġsec ured
Ġru ined
Ġsum m
Ġperfect ion
Ġcent uries
ov itch
Ġalar med
Ġmead ow
Ġemph as
Ġshepher d
Ġt ie
Ġb one
Ġto re
Ġre b
Ġre ject
Ġr ival
am ation
Ġme nd
Ġlo vers
Ġser ge
Ġrest ing
Ġinc ome
Ġpat ch
Ġsec urity
Ġdri ver
how ever
Ġclot hing
Ġpor ch
Ġcivil ization
Ġenjoy ment
Ġow ing
Ġmour n
Ġth ief
ro v
Ġcon ception
ind eed
Ġus ing
ab led
Ġsc re
Ġdist ribut
Ġcent er
Ġfro st
Ġlod ge
h and
p ass
in ous
Ġs ke
Ġm arsh
Ġd oth
Ġfl ushed
Ġper f
Ġbar g
Ġsn ake
Ġanx iously
Ġpop ulation
Ġpor ter
Ġnap oleon
Ġglim pse
Ġc ree
or able
Ġnot withstanding
ag o
Ġpur se
Ġsun k
Ġje ff
Ġexam ine
Ġglass es
Ġfright ful
l ar
Ġd ried
Ġg oose
Ġwh ither
Ġsa uce
ul ating
Ġex quis
Ġun like
Ġab ility
ag ain
Ġspe ll
ens ity
sh ould
Ġrec ent
Ġhen ri
Ġfun eral
Ġconsequ ences
Ġlou ise
Ġpos itive
Ġze al
Ġpron ounced
Ġb ust
Ġm ould
Ġm ul
or row
as hes
Ġk itty
Ġso fa
ck s
Ġmo ist
Ġsl op
int s
whe ther
Ġmin or
Ġopp osed
Ġrecogn ize
Ġobv ious
Ġconvent ion
Ġto ps
Ġd aring
st on
Ġst u
Ġis sue
Ġgo ss
Ġapp ar
Ġacc ur
Ġla wn
Ġnat asha
Ġkeep er
Ġinv isible
Ġexpect ing
Ġmur dered
Ġexist ed
Ġcompl aint
Ġnewspap ers
Ġshakes peare
as ked
Ġat l
us ive
Ġper man
Ġgl ow
Ġrest ored
Ġbeh av
Ġfin est
Ġaw akened
Ġir res
Ġca pe
Ġsens itive
Ġjack son
Ġstream s
Ġremind ed
Ġweap on
Ġdang lars
thr ough
Ġtob ac
Ġw ret
Ġp itch
it udes
Ġsh aw
Ġch ill
ant e
Ġtr amp
Ġro ot
Ġind icated
Ġart s
Ġreal ize
gr at
Ġsuccess ion
Ġbell s
Ġtrust ed
Ġcop y
a is
Ġhe ir
Ġso ber
Ġout ward
Ġro ots
Ġsp in
Ġrem ove
Ġchar ity
Ġlay ing
cri bed
Ġcorn ers
Ġmarg uer
Ġhide ous
Ġmethod s
Ġfavour ite
Ġprompt ly
Ġarist ocr
Ġmarguer ite
a ves
n ie
t te
u le
Ġb red
Ġb ald
Ġf ame
Ġse ren
Ġj am
Ġle nd
Ġcom ment
ap ing
Ġadv ised
Ġtrans l
Ġsol itude
Ġdet ail
Ġtor ment
Ġav ail
Ġloud ly
Ġeld est
Ġmix ture
Ġmart in
Ġdetect ive
oise lle
Ġexquis ite
w art
th a
Ġqu it
Ġqu iver
Ġinc on
Ġdead ly
Ġrus hing
Ġtrave lling
Ġsuit able
Ġadvant ages
Ġluck y
Ġhol es
Ġess ence
Ġdistingu ish
Ġprepar ations
a ign
c ular
i ency
o is
w r
in ery
Ġf ain
ly le
ri a
Ġgo at
Ġtr ained
Ġro ar
pl ed
ang led
Ġdef ence
Ġplan et
Ġdisg ust
Ġconqu er
Ġamuse ment
Ġprivile ge
Ġcondu cted
Ġmanuf act
ar i
Ġis sued
Ġsh aped
Ġel oqu
Ġste al
Ġland ing
Ġless ons
Ġsan cho
i ated
Ġf ishing
Ġse pt
Ġcon grat
Ġj uly
Ġpl ot
Ġqu ix
ress es
Ġthr ong
Ġcar lyle
Ġyoung est
Ġnat ured
Ġdif f
Ġmon k
Ġsun light
Ġfoot step
Ġdeterm ination
Ġbox es
Ġincl ination
Ġbetr ayed
Ġcomr ade
l ance
ing er
Ġn ancy
ve yed
id ents
Ġlo aded
Ġcont ain
Ġres ent
Ġpass es
Ġret orted
ract ed
Ġcomple ted
Ġhes itation
Ġjealous y
Ġp ud
ll o
Ġn aught
Ġsh ill
Ġde ceived
Ġbl oss
Ġpres erve
Ġconf ined
br idge
Ġpal m
Ġval jean
Ġprov in
Ġvi o
Ġund oubt
Ġpolit ics
bes ides
Ġimper fect
Ġpill ow
Ġresist ance
Ġuncom fort
Ġlan tern
Ġchall en
e ous
Ġc ards
Ġd ivers
Ġl av
le ton
Ġk id
ap h
Ġthought fully
Ġchar ged
Ġfort night
Ġdev otion
Ġmill er
Ġresol ute
Ġdepart ment
Ġcott on
Ġdeb t
Ġdwell ing
Ġobed ience
a ire
l ock
s is
Ġc ure
Ġd umb
Ġin ward
Ġbe es
Ġshe lls
Ġso ph
the w
Ġar ise
Ġlo ad
Ġapp les
Ġbel t
Ġmind ed
Ġpat ri
Ġmus ical
Ġenglish man
Ġforest s
Ġaut om
Ġbor row
Ġindif ference
Ġarrest ed
Ġchim ney
Ġw ick
Ġb a
Ġm ate
om in
Ġst olen
Ġan cest
Ġall ah
em oiselle
ag ues
Ġfl or
Ġpo pe
Ġed ith
Ġsign ed
Ġeas ier
Ġange ls
Ġwil son
Ġdor othy
Ġholl and
e ach
Ġs ie
Ġd re
Ġp ages
Ġu mb
ri ous
Ġdis ple
Ġfl ames
Ġem ma
Ġaccount s
Ġtom orrow
Ġpay ing
Ġlim ited
Ġleg al
Ġgro ve
Ġrejo ined
Ġjew s
l eness
u x
Ġst im
Ġch ances
Ġun will
Ġim ages
Ġco pper
Ġlast ed
Ġatt ain
Ġfather s
Ġsub d
Ġdr owned
Ġadm ired
Ġlad der
Ġvan ity
Ġid iot
Ġexcell ency
Ġbrand on
Ġfred er
Ġcelebr ated
Ġdisagree able
Ġtobac co
e ur
v est
in ence
Ġw ip
or se
Ġbe ef
Ġsh ag
Ġch anging
Ġqu oth
Ġgr ows
Ġsc are
Ġpart ing
Ġlet ting
Ġtre acher
Ġcor rid
Ġpray ed
Ġcre ep
Ġlim it
Ġauthor ities
Ġwarm th
Ġstick s
Ġrub bed
Ġtele ph
Ġprefer red
Ġcitiz en
Ġash ore
Ġsar ah
Ġeste em
d uring
p ut
Ġp acked
Ġn erves
ic able
se ll
Ġas certain
ul ations
Ġj ones
Ġun iverse
Ġpl ains
Ġbl ows
Ġinter ior
Ġsun set
Ġfle e
Ġrob ber
Ġinqu ire
Ġrom antic
Ġdisappe ar
Ġadvent ures
Ġris en
Ġliter ary
Ġmaint ain
Ġalex and
Ġpist ol
i ents
Ġb ess
om on
Ġr h
Ġde eds
Ġins ol
Ġappro pri
Ġprov ince
Ġlands c
Ġresc ue
Ġinfer ior
s ir
u ously
Ġt um
Ġm ail
Ġth orn
Ġre in
Ġthere by
Ġlo yal
Ġsc ale
Ġsl id
Ġrel ative
Ġaff l
Ġelse where
Ġann ie
Ġstud ied
Ġang rily
Ġgrace ful
Ġoper ations
Ġmut ual
Ġinno cence
pir ation
Ġhosp it
Ġrig id
Ġtoss ed
Ġpub lished
Ġridic ulous
nat ural
o en
Ġm ic
Ġd ad
Ġp ip
Ġin k
Ġg n
Ġg ang
Ġbe ars
th ree
Ġj os
Ġun just
Ġcount ed
Ġpract ically
Ġcamp aign
Ġindividual s
Ġdepend s
Ġgrou ps
Ġaccompl ish
Ġyield ed
Ġinstr uments
Ġinvol unt
Ġjac ob
Ġfount ain
Ġrespond ed
Ġencoun ter
Ġt il
Ġb ost
Ġm ap
Ġto il
it ively
Ġin e
Ġre ception
Ġde w
Ġor ange
Ġun b
Ġbr on
Ġstand ard
Ġext rem
Ġfur ious
Ġsecond s
Ġreco ver
Ġtor rent
Ġcollect ed
Ġprocess ion
Ġtele g
Ġcrim inal
Ġstair case
Ġquix ote
o ided
r ont
Ġh ood
Ġd ru
Ġp ac
om an
Ġbe ck
ver ted
Ġde af
ig s
Ġbr isk
Ġbo ot
Ġbo iled
Ġreg ions
Ġsix th
Ġart ific
Ġhold s
Ġill ness
me an
Ġsatisf actory
Ġcharacter istic
Ġrat t
Ġiv an
Ġadministr ation
ar n
Ġsh ru
ind er
Ġab be
um ing
Ġmis er
Ġam used
Ġco ffin
Ġad orn
Ġimp ressed
cul es
Ġconv ict
Ġoccup ation
Ġpun ish
Ġprevent ed
Ġrail way
Ġinstru ctions
e g
Ġh ook
Ġf acing
Ġp ush
or ter
an im
Ġse ize
Ġne p
Ġor ch
Ġbr ass
Ġres ign
Ġjo lly
Ġsw ar
Ġgener ation
Ġcur iously
Ġsk irt
app e
Ġstep hen
Ġrich mond
Ġexist s
Ġden ied
Ġmach inery
Ġros y
Ġassemb led
Ġsear ching
Ġaver age
Ġacknowled ged
Ġvel vet
Ġt id
Ġh u
Ġd angers
Ġli kes
Ġsp ur
Ġen er
Ġoff ering
ber ry
Ġimp art
Ġimp rison
Ġfollow ers
Ġcontin ent
Ġspeak er
Ġav oided
Ġcand id
Ġcomb at
Ġere ct
Ġcapt ured
Ġfortun es
Ġspan i
Ġtot al
Ġneighbor hood
Ġbend ing
Ġpir ates
Ġdus k
Ġcann on
Ġbost on
h ire
l ay
p ing
Ġc ush
Ġf aster
on er
Ġp ave
Ġre vel
we lt
Ġspe ar
Ġass ume
Ġprop osition
Ġcor por
Ġdoubt ful
Ġflo ated
Ġmot or
Ġball s
Ġprev iously
Ġbal ance
Ġstore s
Ġarch ite
d ed
m ans
Ġc u
Ġl il
Ġe tern
ut or
Ġcon ceived
Ġind ic
Ġsum mit
gr am
Ġfro g
Ġfaint ly
Ġsolemn ly
enc ies
Ġnep hew
Ġl es
Ġse ats
Ġv est
Ġare n
ach ment
Ġcr ou
for th
Ġmat thew
Ġhor rid
Ġph oen
Ġsent iments
Ġprop ose
Ġtri be
Ġmad emoiselle
Ġprof it
Ġcommon ly
Ġameric ans
Ġimm ort
Ġshore s
Ġimpat ient
Ġphr ase
Ġsummon ed
Ġchann el
Ġvul gar
r ay
Ġa pr
Ġw ont
Ġo y
Ġc ars
ir st
Ġfr own
for ce
int o
Ġrep ose
Ġhelp ing
Ġassemb ly
Ġdoctr ine
Ġmich ael
a i
f old
i our
Ġh ull
Ġb ou
Ġd ine
ce lot
Ġwhe at
Ġup ward
Ġpr ow
ag ing
Ġdis hes
Ġdes erve
Ġsl ope
Ġwar ned
ru p
Ġpleas ures
Ġill um
Ġtrans fer
Ġsevent h
Ġincl uding
Ġcompl iment
Ġemb ro
Ġhealth y
Ġassist ant
Ġerr and
Ġintent ions
Ġsurround ing
Ġshud der
Ġlaun celot
Ġd welt
Ġre se
Ġr and
Ġdo c
Ġtr am
Ġtr aining
Ġcl asped
Ġbl own
Ġrep orted
Ġmon key
uck y
Ġlat in
Ġcor rupt
Ġap ril
ern al
Ġspec im
Ġspect acle
Ġperform ance
Ġrare ly
Ġfatig ue
Ġeag le
Ġcree k
Ġfootstep s
it ute
Ġr ings
ad el
art s
Ġle on
Ġar oused
Ġdown stairs
te ll
Ġstr uct
Ġgl owing
ath an
Ġrun s
Ġblood y
Ġpen cil
gr im
Ġsol omon
Ġdelic ious
Ġconfess ion
Ġaffection ate
Ġfan ny
Ġrail road
l on
Ġsh alt
ke ys
Ġup right
Ġj ury
Ġbr ood
Ġbl ast
ab ell
Ġres idence
Ġreg ards
Ġhum our
Ġsus pend
Ġsens ations
Ġbreat he
Ġbreat hed
Ġschool s
Ġmed ical
Ġver se
Ġprud ence
Ġconven ient
Ġsept ember
Ġshag gy
c ame
r ical
r ane
Ġt ed
Ġd ashed
Ġth resh
Ġg w
Ġwas ted
Ġno ve
Ġthought ful
Ġback ward
Ġass urance
Ġterri bly
Ġge or
Ġdesp ite
Ġviol ently
Ġsail s
Ġkill ing
Ġsword s
Ġtrave lled
Ġaccompan y
Ġinj ured
Ġdispl ay
Ġacknow ledge
Ġrecall ed
Ġprosper ity
Ġgil bert
Ġportra it
d ig
j ac
Ġd ug
Ġn aut
Ġr asc
Ġbo iling
Ġhas n
Ġmiss ing
ens es
Ġinst ances
Ġnor mal
Ġsub mit
Ġeight h
Ġquestion ed
Ġdemand s
Ġpress ing
Ġpersu ade
Ġvig or
Ġpolic em
Ġsimpl icity
Ġterrit ory
Ġwilder ness
Ġthresh old
a us
a unt
l ady
Ġan aly
ct s
Ġal tered
Ġsp ots
cept ible
Ġwo e
Ġtra ged
Ġadv ancing
Ġpar ish
Ġfa wn
Ġap ost
Ġsecret ly
Ġtur key
Ġjim my
Ġsteam er
Ġpurch ase
Ġswall owed
Ġtravell ers
Ġafric a
Ġfreder ick
Ġlandsc ape
Ġtum ult
i ate
p ort
Ġd ense
as ion
Ġli ver
Ġv ine
Ġtr ous
ity a
Ġbr ains
ress ing
Ġpart ner
Ġown ed
ned y
Ġrid ge
Ġcheer fully
Ġinj ury
reg ular
Ġdispl ayed
look ing
Ġsear ched
Ġcomplex ion
Ġoffend ed
b an
Ġa y
Ġl ace
as y
ap es
Ġag itation
Ġcan v
ft s
Ġoff ence
Ġser pent
Ġhard er
Ġhum or
Ġhope less
Ġru ins
Ġexpect ation
Ġann ounce
Ġtor ture
Ġhop ing
Ġfro zen
Ġstir ring
Ġpot at
Ġenv y
Ġmaint ained
Ġsuppl ied
Ġcurtain s
Ġestablish ment
b et
Ġd ot
Ġst all
ore s
Ġwho ever
Ġtheir s
Ġpr ime
Ġpo ets
Ġcons ented
land s
Ġcare less
Ġdec ent
Ġra w
Ġran ks
Ġchur ches
Ġheaven ly
Ġfun ction
Ġstrugg led
Ġmagic ian
Ġpos itively
Ġimpat ience
Ġstrict ly
Ġcompass ion
Ġgoss ip
Ġundoubt edly
Ġt u
Ġc rest
Ġc ents
on ic
it a
Ġl ic
Ġha re
Ġha ired
Ġre nd
Ġfor s
Ġfl ies
Ġpre m
iz z
Ġacc ess
Ġsupp osing
Ġcat ching
Ġdro pping
Ġspr ings
Ġtor t
Ġsho e
Ġcre ation
Ġneg lected
Ġhurry ing
Ġaddress ing
Ġdish on
Ġprec aut
Ġwre ck
at ically
Ġst ove
Ġk in
Ġsa ving
Ġal ight
Ġfe lic
um ps
Ġbr ick
Ġen qu
Ġover head
Ġgu ilt
Ġsub l
Ġrest less
Ġinc ap
Ġang uish
Ġjour nal
Ġemb race
Ġsym pt
Ġspeed ily
Ġtest im
Ġcell ar
Ġragged y
Ġanch or
Ġuncomfort able
a wn
b oth
g reg
k h
Ġw oo
Ġto ols
st e
Ġre cei
all a
Ġli p
Ġro be
ose tte
Ġco arse
Ġad just
Ġnat ives
Ġjohn ny
Ġlead ers
Ġlim its
Ġpun ished
Ġven us
Ġbag s
Ġendeav our
Ġaven ue
Ġdisci pl
Ġhed ge
o ber
t r
Ġm ou
ar ation
Ġse m
ch io
Ġbut t
Ġbut ler
Ġfr iday
Ġdo st
ra ham
Ġfl owing
Ġwhere as
Ġel bow
Ġhigh ness
Ġdream ing
Ġlead s
Ġrequ ires
Ġmot ives
Ġbill s
Ġswim ming
Ġengine er
Ġric hes
Ġdaz z
Ġbarg ain
c ourse
m ie
Ġg orge
Ġr ice
Ġan ton
Ġam bit
Ġam iable
Ġgr ain
Ġdis d
Ġsc ott
Ġfound ed
be ing
Ġcertain ty
Ġconf irmed
Ġsk et
Ġtri bes
Ġrec ently
Ġpen n
ov na
Ġpain ting
Ġpolit eness
Ġadmir al
Ġtemper ature
Ġder ived
Ġimpat iently
Ġindepend ence
Ġpeas ants
u z
Ġb ret
ly ing
Ġse al
Ġj ail
Ġyour selves
ount ed
Ġwhere in
Ġjust ified
Ġcons pic
Ġnight ing
Ġke ys
Ġneed le
Ġpar ad
Ġspeak s
Ġir regular
Ġobser ving
Ġjud ged
Ġdiv ision
Ġunfortun ately
Ġemploy ment
Ġliber al
Ġalt ar
Ġmagistr ate
Ġr ows
Ġk ick
Ġfr anz
Ġcon ceive
un ken
Ġwill ingly
Ġpl anted
Ġtw isted
Ġfound ation
Ġbelie ving
Ġste ward
Ġwal ks
Ġstay ing
Ġlift ing
Ġtender ly
Ġmagn et
Ġwand er
Ġimpress ions
Ġlock s
Ġwithd rew
Ġpropos al
Ġw ounds
Ġc ens
Ġc ash
Ġsh rew
ri an
Ġsa iling
ul a
Ġv ote
Ġper sec
ount ered
wh om
Ġlord ship
Ġca vern
Ġsuper st
bur gh
Ġassoci ation
Ġobsc ure
Ġachie ve
Ġmans ion
Ġbund le
Ġwret ch
h ic
n ic
Ġl ur
Ġn an
Ġbe a
Ġe ust
Ġse ed
Ġsh an
il us
Ġpro dig
Ġam end
Ġbl owing
Ġdis cl
Ġmu se
Ġres erve
ps on
ib ilities
uc ked
Ġrock y
Ġmem ories
Ġplan ned
Ġcruel ty
Ġgle am
Ġcaut iously
Ġgreet ed
Ġpil grim
Ġenterpr ise
Ġapplic ation
b able
c ow
Ġb apt
is er
Ġr ational
Ġher cules
am ents
Ġse ction
Ġsu llen
Ġch a
Ġv ap
Ġex agger
Ġbr ist
Ġcons isted
oth s
Ġarm ies
Ġche cked
Ġins ens
Ġsy mb
Ġcou ch
Ġrom ance
Ġball oon
Ġbow l
Ġpassion ate
Ġpra ir
Ġbold ly
Ġvig orous
Ġimprove ment
Ġabo ard
Ġeleg ant
Ġglit tering
Ġumb re
Ġm un
Ġc osette
Ġshe er
Ġv iz
Ġpl ed
Ġpro sec
ink s
Ġpo em
Ġsm e
Ġdes cent
Ġbeg gar
Ġret ire
Ġmad ness
Ġsqu e
Ġjud ges
Ġenc ountered
Ġmoder ate
Ġcollect ion
Ġrecollect ion
Ġsher iff
Ġhalt ed
Ġlev in
Ġperpet ual
Ġinsp ired
g re
Ġa we
Ġw ages
Ġm itya
Ġch au
Ġfe ature
Ġag ric
Ġfl ora
Ġback s
Ġmo b
Ġmo nday
Ġform ing
Ġwo ke
Ġsmall est
Ġinter course
Ġdr um
Ġmor gan
Ġreason ing
Ġremem br
Ġce iling
Ġlad s
Ġval ent
Ġattempt s
Ġwel com
Ġarrange ments
Ġcaut ion
Ġcliff s
Ġsuppl ies
fo ot
Ġunwill ing
m ade
o ft
he ard
Ġs ins
Ġp av
Ġl id
Ġch op
Ġcl am
Ġpre l
Ġmust n
Ġcar ved
Ġacc used
Ġend less
Ġcle aring
Ġland lord
Ġprot ested
Ġproceed ing
Ġconfess ed
Ġsuffer ings
Ġtempt ation
Ġsevere ly
Ġcere mon
Ġmour ning
Ġrefer red
Ġcommer ce
Ġobserv ations
Ġvers es
Ġinspect or
Ġembr aced
u ity
ut ing
th ren
Ġen able
Ġmu le
Ġoff ices
Ġstr icken
Ġcont ri
Ġcons ists
Ġwa ving
Ġinter fe
Ġcor pse
Ġrespect s
Ġpeace ful
Ġdiss ol
Ġhyp not
Ġpolic y
Ġbond s
Ġincon ven
Ġnove mber
Ġnaut ilus
a ur
in tend
Ġth umb
Ġre ass
Ġnow here
Ġsm iles
Ġent it
Ġatt ained
Ġsw am
Ġbre thren
Ġpleas ing
Ġcol ors
Ġtem p
Ġforget ting
Ġhurried ly
Ġbid ding
Ġtight ly
Ġmead ows
Ġprepar ation
Ġpropri et
Ġbewild ered
c ried
f ish
l oc
n ay
t ake
y a
in ating
Ġs inking
Ġd ict
Ġl ions
ce l
Ġr hy
ro ll
Ġv ice
Ġbr ute
Ġdis order
ile t
Ġret ain
Ġind uced
Ġmon ot
Ġgod d
Ġsou p
Ġinc om
Ġbest owed
Ġhar mony
Ġprov idence
Ġcra zy
Ġneg lect
oon ful
Ġcover ing
Ġeduc ated
Ġbas in
Ġbrit ain
Ġfierce ly
Ġken nedy
Ġlux ury
Ġstret ch
Ġteleg raph
e lf
Ġo st
Ġb ows
en a
on a
Ġp ul
Ġg asped
Ġsh aken
all el
Ġfr uits
Ġsc old
Ġfo e
Ġfo gg
Ġseem ing
Ġmon str
Ġinter val
Ġprop he
Ġprop het
Ġconc ert
Ġsecret s
Ġneighb ours
Ġcomb ined
Ġtend ency
Ġdism ay
Ġobv iously
Ġproc ure
Ġrebe cca
Ġparl our
Ġmos cow
Ġdisgu ise
Ġirres ist
Ġvio let
Ġtrous ers
k o
o ch
v ag
y ard
Ġb ite
Ġf oul
Ġli ken
ul ars
Ġj ason
our t
Ġar rows
Ġgl ancing
Ġcr ushed
Ġcur se
Ġinde f
Ġgra ham
Ġadv ise
Ġhear th
Ġca es
Ġca res
Ġdest iny
Ġmeas ured
Ġax e
Ġmarve ll
Ġsurre nder
Ġserge ant
g ue
h in
k ers
Ġt enth
he rent
Ġw ars
ing e
Ġth ie
it ious
Ġl ent
an or
an other
Ġe c
st ri
Ġbr ows
Ġdis like
Ġrem edy
Ġdes erved
Ġmother s
Ġass ault
Ġaw aken
Ġcommand s
Ġdress es
Ġmed ium
Ġeager ness
Ġdecided ly
Ġpick ing
Ġclaim s
Ġcompar ison
Ġtrad ition
at isf
ar ly
Ġr am
Ġwhere fore
ud ge
Ġsl ipp
Ġform al
Ġrest ore
Ġhar mon
Ġpat ron
Ġdoubt s
Ġjack et
Ġadmir able
Ġextra vag
Ġwealth y
Ġintrodu ce
ett a
Ġinquir ies
Ġfac ulty
Ġdece mber
Ġabo de
Ġtreas ures
b urn
l or
n ut
Ġw its
an ia
Ġde fect
Ġall an
Ġcon j
Ġcon vey
ab or
iz es
ne ys
Ġlar gest
Ġopp ress
Ġir re
Ġmag gie
Ġsqu ir
Ġequ ality
Ġexist ing
Ġterri fied
Ġstren g
Ġfill ing
Ġrepresent ative
Ġentertain ed
Ġdur ation
Ġexperi ences
Ġawa iting
Ġanno y
er ving
Ġc ows
Ġst ub
ard ed
Ġpl ague
Ġcl ung
Ġcl osing
ass ad
Ġpe er
Ġcomp osition
Ġimp uls
Ġsub tle
Ġtre ad
Ġed itor
Ġpol ished
Ġrob bed
Ġcompl ain
Ġmaterial s
Ġruss ia
Ġrout e
somet imes
Ġmelt ed
Ġnighting ale
l ine
m od
Ġs ack
Ġf ern
es y
Ġg y
Ġha ul
Ġha ught
Ġsh ine
Ġup set
Ġen s
Ġen abled
Ġcl ad
Ġcont est
Ġmost ly
ne cess
Ġbeaut ifully
Ġadd ing
Ġname ly
Ġlarge ly
Ġplay s
Ġele ph
Ġhus h
Ġpret t
Ġest r
Ġjul ius
Ġfortun ately
Ġbetr ay
Ġpear ls
Ġrele ased
Ġrebe ll
Ġtravell er
Ġcig ar
Ġteleph one
Ġparad ise
b ru
he us
Ġw y
Ġb its
Ġd iver
Ġwh im
Ġk ent
ri al
Ġam using
Ġcl over
Ġte xt
Ġsc and
Ġcr u
Ġform id
Ġmin isters
Ġinv al
Ġdoubt ed
Ġmus cular
Ġap olog
Ġdisp ute
ex cept
Ġtur tle
Ġsick ness
Ġsav ages
Ġhost ile
Ġreport s
Ġglo ves
Ġnav ig
c row
l ast
t es
in ter
Ġp ag
us al
Ġcon ject
Ġle mon
Ġtw as
aps ed
Ġbeh alf
Ġbig ger
Ġoccasion al
Ġrecogn ised
Ġlou der
Ġpure ly
Ġfier y
Ġadop t
Ġunconscious ly
Ġpreced ing
Ġcommer cial
Ġtrem ble
Ġphot ograph
Ġcorrid or
Ġpave ment
d es
o x
Ġb ub
at ter
Ġg ames
ad em
am ong
Ġsh ir
Ġsh iver
il ton
Ġde emed
ant ial
um m
Ġam elia
Ġgr ind
Ġres erved
Ġchild ish
Ġheart y
Ġsk il
Ġvis its
ines e
Ġoccup y
Ġsitu ated
Ġamb assad
Ġrele ase
Ġphenomen a
Ġgrav ity
Ġliken ess
Ġformid able
c ap
r ise
r idge
s p
t a
u ated
u ction
z il
Ġb unch
ing ton
Ġd ame
Ġp aces
Ġn ails
Ġst ained
Ġk et
Ġch amb
Ġv ib
Ġv ale
Ġkn elt
Ġcar r
Ġatt orn
Ġcol on
Ġprom ises
Ġra oul
Ġlear nt
Ġprov ide
Ġhast y
Ġve ins
Ġstud ent
Ġsand y
Ġinvent ion
Ġhorn s
Ġawa ited
Ġprofession al
Ġtransp ort
Ġrene wed
Ġresour ces
b ot
Ġo ven
Ġh an
Ġb ough
at us
it ors
Ġe llen
Ġst ool
Ġan the
Ġsu nd
ct ive
Ġgo s
Ġab raham
Ġsc ent
Ġwhere upon
Ġcr umb
Ġser ving
Ġwr ought
Ġwork men
Ġdear ly
Ġele ction
asp ing
Ġclim bing
Ġprev ailed
Ġcook ing
Ġfault s
Ġdav y
born e
Ġstoop ed
Ġcaval ry
Ġansw ers
Ġansw ering
abell a
a ired
c ons
g ins
j i
o cc
er o
Ġst al
Ġat hen
Ġshe lf
th or
Ġtr acks
Ġcl ust
ci an
Ġmar ius
Ġrem orse
Ġmay or
Ġhouse keeper
Ġind isp
Ġfa ire
Ġdisc ourse
Ġsurpr ising
Ġpet ers
Ġring ing
Ġapart ments
Ġarg uments
Ġreve rence
Ġcord ial
Ġrespons ibility
Ġglo be
Ġforbid den
Ġgig antic
Ġencoura ged
Ġjapan ese
Ġconspic uous
Ġm ol
Ġm are
on str
Ġp ad
ar in
Ġn om
Ġg ulf
om b
im er
al og
Ġr ash
if orn
Ġgr asped
Ġfir ing
Ġcont ains
Ġsle w
Ġsn apped
Ġhar ness
Ġdep rived
cri ption
Ġvill ain
Ġsuper intend
Ġconv uls
ann a
Ġenjo ying
Ġincl uded
Ġdoll s
Ġguard ed
Ġrecogn ition
Ġhero es
ik ov
Ġlod ging
Ġundert ake
Ġtempt ed
Ġfed eral
Ġapr on
Ġremembr ance
Ġmonstr ous
i en
m aid
o dy
w ind
Ġo ars
Ġc akes
Ġn un
Ġn igh
ic an
Ġr ider
and a
ri ages
qu est
Ġj aws
Ġno is
Ġqu art
Ġbl ade
Ġgreat ness
Ġsl ay
Ġla ura
Ġind uce
Ġdra ke
Ġcol ours
Ġsun ny
Ġdr own
Ġdr unken
Ġspo il
Ġlow est
Ġest im
Ġappear ances
Ġeye b
Ġwild ly
Ġsweet ness
Ġrefle ctions
Ġdread ed
Ġthank ful
Ġfrag ments
Ġprint ed
Ġrespons ible
Ġeconom ic
Ġdismiss ed
Ġnarr ative
Ġinev itable
Ġtig er
Ġtraged y
Ġinterfe re
Ġm ask
Ġf itting
ing ham
Ġd ub
Ġp ushing
Ġhe el
ly m
se ver
Ġse lect
ge nd
Ġv ault
Ġle cture
Ġle agues
Ġun necess
Ġpass ages
Ġwind ing
Ġche m
Ġdr oop
Ġfair ies
Ġexpl os
Ġcal iforn
Ġeffect ive
Ġguard ian
Ġhol iday
Ġcompre hens
Ġecho ed
Ġspark ling
Ġdeliber ately
Ġscre en
Ġperman ent
Ġgodd ess
Ġcaes ar
r ating
z es
ar ian
Ġch inese
Ġmis fortun
Ġbr u
Ġfl owed
Ġimp ert
ph ia
Ġra ven
Ġdest ined
Ġremain der
Ġpath s
just ice
Ġrub bing
Ġexec uted
Ġbrief ly
Ġuncom mon
Ġwarri or
Ġstamp ed
Ġpars on
Ġbatt les
o ked
p ense
ot hes
Ġr ot
Ġdo d
Ġpro long
Ġag itated
ine as
Ġper ish
Ġear liest
ens ions
Ġearth ly
oc chio
Ġlow ered
Ġsqu ee
Ġbright ly
Ġremember ing
Ġbene vol
Ġgri ev
Ġtail s
Ġalex ander
Ġresemb lance
Ġabst ract
Ġoct ober
Ġbret on
v ial
he art
Ġc el
Ġp el
ot hed
Ġre cess
Ġr ou
Ġr ue
Ġle e
Ġar k
Ġfl u
so ever
Ġopen ly
ane ously
ific ations
Ġtail or
Ġcand les
Ġafford ed
Ġtrif le
Ġliqu id
Ġpac ific
Ġcorpor al
Ġstruct ure
Ġentit led
Ġmisfortun es
g le
h or
m un
t ime
Ġf ert
Ġhe m
Ġl ud
Ġin justice
Ġn iece
Ġha unted
Ġe h
Ġse lected
Ġde gr
Ġex pend
Ġno d
ant ing
Ġint ently
Ġsp y
Ġper ch
Ġpo ly
Ġapp ointment
Ġset s
be ar
Ġass ass
Ġsk ull
Ġbar r
Ġbar rel
Ġsy n
Ġele anor
Ġclose t
Ġmus cles
Ġthy self
Ġfurn ish
Ġbull et
isc illa
Ġconqu ered
Ġshri ek
Ġbon net
Ġcondem n
Ġwond ers
Ġvalent ine
Ġec st
g ence
i as
m aster
w ent
Ġ x
Ġw aking
Ġb art
ed ing
Ġd ix
Ġl ung
Ġn ick
Ġe ll
Ġsu ited
us cript
Ġman uscript
Ġle gend
Ġpl ates
Ġus es
Ġmar tha
Ġgl ances
Ġnew ly
ne ath
Ġnor a
ret ion
Ġrel ate
Ġpat iently
Ġmer r
Ġstrong est
Ġang le
Ġgarden er
Ġvill e
Ġfrench man
Ġdoll ar
Ġdelic acy
Ġmod el
Ġagre ement
Ġunivers ity
Ġscream ed
Ġnut s
Ġcompar atively
Ġpear l
Ġspar go
Ġinstit utions
Ġdesir able
Ġdemocr atic
Ġconsol ation
Ġpatri ot
Ġartific ial
Ġshrew d
Ġp ang
Ġp smith
Ġl ots
ic he
ir s
Ġwe ighed
Ġch ate
Ġv ital
Ġpl acing
Ġtr out
Ġbl uff
Ġrem onstr
Ġcont rived
Ġbet ty
Ġsl umber
Ġchar ms
Ġcol umb
Ġmil ton
Ġra ft
Ġaff irm
Ġmouth s
zz ie
Ġdam sel
Ġcustom s
Ġimpro ved
Ġbod ily
Ġnob ility
Ġpour ing
Ġapprehens ion
Ġwol ves
Ġdiscipl ine
m ble
r ained
s ud
Ġw ool
Ġh oof
Ġst if
am is
Ġch or
Ġch icken
ist ered
Ġpro str
Ġown ers
Ġjust ify
Ġsl im
Ġcr is
Ġcomp are
Ġright eous
Ġsw amp
Ġsw inging
Ġsur m
Ġext ensive
Ġele v
Ġtem ples
Ġcal am
Ġexam ining
Ġprob ability
go ing
Ġsan ct
Ġfrank ly
Ġthreat ening
Ġdur ham
Ġassert ed
Ġexhib ited
Ġpir ate
Ġsport s
Ġfisher man
Ġdefe at
adel phia
Ġumbre lla
Ġthie ves
u a
Ġs ant
on se
Ġin it
Ġg au
ro ft
ge red
Ġmu ff
Ġsc ul
Ġho arse
Ġstill ness
Ġmat hem
Ġgener ations
Ġdra ught
Ġcat hed
Ġopp on
Ġstud ents
Ġant iqu
Ġvol can
Ġcous ins
Ġrag s
Ġsuspic ious
Ġrejo iced
Ġdun bar
acc ord
somet hing
Ġwrit ers
Ġemphas is
Ġcanv as
sud den
g ive
in ement
Ġare a
Ġtw ist
Ġad vers
pt on
ink ling
Ġunder neath
Ġback ground
Ġacc um
Ġple aded
Ġpers isted
ph y
Ġref resh
Ġev ol
Ġsn atched
Ġstart ling
Ġclot hed
Ġphil adelphia
Ġmarry ing
Ġsepar ation
rer s
Ġbare ly
Ġbrave ly
Ġbas is
Ġeurope an
Ġimper ial
Ġassoci ated
Ġcult ure
Ġnob les
Ġnurs ery
Ġcig aret
Ġfow l
Ġglac ier
Ġcryst al
Ġorch ard
Ġspani ards
Ġetern ity
rane an
Ġtestim ony
Ġeust ace
Ġcaliforn ia
Ġscul pt
a way
d a
d ra
d led
g ate
p res
v ant
Ġa ught
Ġd um
Ġd ash
ot ing
Ġfor d
ur re
ill s
Ġch oo
Ġch ains
Ġex h
Ġtr oop
Ġcl ara
Ġpo ems
Ġsm ote
Ġspe cially
Ġput s
Ġgu ided
bo y
Ġhar bour
Ġhat s
Ġdisp os
Ġcre eping
Ġmaid ens
Ġhes itate
Ġfavor able
cher s
Ġattract ive
Ġrul er
Ġbrand y
Ġentertain ment
Ġmanage ment
Ġinstit ution
Ġsignific ance
Ġclergy man
Ġseren e
Ġattorn ey
d own
f ly
l ace
o de
r us
Ġt ull
re plied
Ġb other
Ġc ad
it an
Ġg ab
Ġwe lf
ad le
Ġsh ocked
res a
Ġwho les
Ġsp ared
Ġam y
Ġad ams
Ġsc ared
Ġsw ore
Ġel abor
Ġsub sequ
Ġrel ax
Ġcare lessly
Ġcur t
Ġbar rier
Ġtri but
ane ous
Ġdisc ont
Ġexpress ions
Ġcustom ary
Ġamid st
Ġlux ur
Ġcoach man
Ġscare crow
Ġphoen ix
Ġincap able
sudden ly
Ġwelf are
g od
h ar
v in
re et
Ġh ud
Ġm it
Ġm oses
Ġr ises
Ġsh ared
Ġso ap
ra el
Ġpl um
Ġpr iscilla
Ġtim ber
Ġcl aimed
Ġacc ent
Ġcomm end
Ġla zy
Ġrel atives
Ġph ant
Ġbeh aved
ale m
Ġspo on
Ġperson ally
Ġperson ality
Ġhorse back
Ġcirc ular
Ġve hic
Ġstud ying
Ġdecl ined
Ġdecl aration
Ġvol unt
Ġshop s
Ġrough ly
Ġcapt ure
Ġjer ry
Ġamaz ed
Ġrecord s
Ġsen ator
Ġjewe l
Ġscot ch
Ġbol t
Ġdart ed
Ġjan uary
Ġwip ed
Ġsubl ime
Ġchate au
d in
l ittle
in stead
Ġs id
Ġm all
Ġm ice
Ġj ung
Ġthere in
Ġint ol
Ġab ol
Ġro aring
Ġqu aint
Ġtw ent
Ġam ple
Ġen light
Ġsc ant
Ġwr ites
Ġac adem
Ġreturn s
Ġpur sue
Ġfact ory
Ġpat tern
Ġpat sy
vers ion
Ġjoy ous
Ġdeterm ine
che on
Ġspread ing
Ġresp onse
Ġlam ps
Ġfanc ies
Ġsuspend ed
Ġpolicem an
Ġsympt oms
Ġestr alla
g ic
m ust
y ss
Ġh ired
at hetic
ld er
Ġst are
ur able
Ġis ol
Ġse aled
Ġj asper
un ities
Ġcr ust
Ġent r
ult ies
Ġchar lot
und ers
Ġgener osity
Ġvis iting
Ġpartic ulars
Ġquar re
Ġbreath less
Ġcivil ized
Ġhunt ed
Ġinvol ved
Ġappreci ate
Ġconstru cted
Ġhu gh
Ġdisd ain
Ġagric ult
bru ary
b led
m ary
o ll
Ġo un
en ch
Ġto oth
ll or
Ġin cess
Ġsa x
Ġfe min
Ġun worthy
Ġbl ush
Ġper t
Ġper ceiving
Ġpe op
Ġold est
Ġcr ash
Ġcar pent
Ġvo c
Ġter min
Ġdef in
Ġda res
Ġkiss ing
Ġmach ines
Ġtriumph ant
Ġsettle ment
bre ak
Ġench anted
Ġgran ite
Ġatl antic
Ġville fort
p en
x ter
z a
Ġg amb
ut ive
Ġk ar
th ou
Ġv ary
ist on
Ġab yss
Ġsp here
Ġpro hib
Ġlo af
Ġdes olate
Ġacc us
Ġrep air
Ġbur g
Ġcir cles
Ġexc urs
Ġpast e
Ġdisc om
Ġprov ision
Ġfool s
Ġscr ut
Ġdiscuss ed
Ġmerch ants
Ġassert ion
bor ough
Ġvex ed
Ġpup ils
Ġincred ible
Ġtempor ary
Ġscri pt
Ġpotat oes
Ġprair ie
Ġanthe a
b rew
f irst
Ġt une
in er
Ġc ass
Ġd irt
an ne
om y
Ġj ude
Ġfe bruary
Ġwor m
ak ers
itt ered
Ġaf ore
Ġper ception
Ġmar ching
Ġstr ained
Ġcomm ons
Ġgre gg
Ġneed n
Ġcourt esy
Ġprodu ction
Ġpun ct
Ġconcl ude
Ġcomb ination
Ġappre hend
Ġregular ly
Ġpin occhio
Ġchristian ity
Ġrestr aint
Ġprim itive
Ġwaist coat
Ġpig s
Ġanno yed
Ġsie ge
Ġsubd ued
Ġalexand rov
Ġmarvell ous
Ġunnecess ary
g on
w a
Ġh oop
Ġb our
Ġb achel
Ġm ute
Ġwh ir
Ġr ipe
Ġwe igh
Ġst ake
Ġst ately
Ġse am
Ġshe ets
Ġso bs
Ġde ceive
Ġde xter
ul ously
Ġch ape
Ġex ult
un less
Ġwor ried
ol k
we l
Ġob li
int ed
Ġgu y
Ġass isted
ins on
Ġwonder fully
Ġstri kes
Ġstud ies
Ġvill ages
Ġver d
Ġmir acle
Ġprotect ed
Ġdign ified
Ġfac ulties
ograph y
Ġabund ance
Ġmusk et
Ġwelcom ed
g iving
Ġt us
Ġt act
Ġp ic
Ġe ug
Ġst er
Ġsa g
us alem
Ġkn ot
Ġpl ac
Ġtr aces
ci ble
Ġmar ie
Ġstr ings
Ġsc rew
Ġmat t
ne ither
Ġind icate
Ġcond es
Ġcommand ing
Ġsad ness
Ġcomfort ed
Ġcomfort ably
Ġrob es
Ġattend ant
Ġscr amb
Ġfalse hood
Ġinvent ed
Ġdism al
Ġexha ust
Ġaddition al
Ġembarrass ment
Ġcultiv ated
Ġpud ding
Ġbron ze
i ary
Ġs ledge
Ġb ased
er a
Ġand y
Ġhe brew
it ations
Ġl um
Ġg ross
Ġg ird
Ġbe au
ic ious
Ġy awn
Ġst ump
Ġis rael
Ġsh ower
Ġdo lly
Ġch ic
ant es
Ġal ert
Ġun acc
Ġun seen
Ġqu itted
Ġbl iss
Ġfl ashing
Ġsc out
Ġsur pass
Ġbeh ave
Ġread ers
Ġread iness
Ġinc ons
Ġcontin ual
Ġfur iously
Ġbra ce
Ġdef ined
Ġsol ution
erv ation
Ġdread fully
Ġnin th
Ġmir th
Ġham m
Ġrevol ver
Ġliter ally
Ġcher ished
Ġgreet ing
Ġrelie ve
Ġswall ow
Ġident ity
Ġphenomen on
Ġinher it
Ġquiver ing
Ġcris is
Ġcathed ral
Ġcharlot te
d les
at ching
Ġn a
Ġse l
Ġme ek
Ġro st
Ġqu ad
Ġag ents
Ġag nes
Ġbr im
Ġte am
Ġmo ves
Ġcr imes
Ġke ith
Ġass ent
ru de
Ġexc iting
Ġcold ly
Ġappro ve
Ġcast ing
Ġconsider ably
Ġpain ter
Ġrob bers
Ġcrowd s
Ġgar ment
Ġsen ate
Ġmult i
Ġstern ly
add in
Ġegypt ian
Ġspl it
Ġmul es
ari ably
f are
s ky
w ater
Ġt art
Ġm ike
ll er
id ity
st ood
ur g
ur red
ac iously
Ġpro ver
au gh
Ġfl av
Ġhand ful
Ġgl en
Ġla ure
Ġpleas antly
vel in
Ġunc on
Ġswe ll
vers ed
Ġvar ied
Ġshout s
Ġhy mn
Ġfit z
Ġintellig ible
Ġjim mie
Ġjer usalem
Ġfarm ers
Ġspect acles
Ġga unt
Ġcrit ical
Ġinterp osed
Ġfis hes
Ġpark er
Ġexch anged
Ġcalcul ated
Ġparl or
Ġgover ned
Ġcontrad ict
Ġtull iver
e qu
Ġp oo
Ġn our
Ġis le
ch n
qu es
Ġj on
un te
Ġgo in
Ġint ensity
Ġout s
Ġun ch
Ġen velop
pl ing
Ġjust ly
Ġimp et
Ġpres ume
Ġwork ers
Ġel m
Ġconf ront
Ġadv oc
Ġhast en
Ġimag in
Ġexper iments
Ġwis er
Ġattend ants
Ġbitter ness
Ġgle aming
Ġeliz a
Ġwhist le
Ġdesir ous
inte rest
Ġappar atus
Ġchallen ge
Ġtemp est
Ġa pe
Ġa while
in arily
nd e
Ġf ist
Ġp ump
or ial
Ġme als
Ġsu ck
th y
ind a
Ġun kind
if ies
Ġmis under
Ġro ger
Ġcan e
co pe
Ġcomm it
Ġph ara
Ġcol ony
Ġhar ris
Ġhon ourable
Ġele cted
Ġmag az
Ġaccom mod
Ġsorrow s
Ġwitness ed
Ġorgan ization
Ġcabin et
Ġcorrespond ence
Ġdoct ors
Ġrepl aced
Ġju ice
Ġpip es
Ġchamb ers
Ġchic ago
e re
g one
v id
Ġw are
Ġb isc
Ġf ug
at ical
an ks
Ġy er
Ġon ward
Ġr ans
ess ion
Ġdo om
Ġch ast
Ġor g
ie u
Ġqu e
Ġimp r
Ġimp osed
Ġend ured
Ġdist ressed
Ġrep uls
be ll
no x
Ġdra wer
od or
Ġdeep est
Ġbat tery
Ġexpress ing
oun cing
Ġtal ent
Ġcre ate
Ġwarm ly
Ġdepend ent
Ġpier ced
Ġwitness es
Ġfold s
Ġcy ril
Ġoutl ine
Ġfund ament
Ġexerc ised
Ġcu ps
Ġlung s
e ked
l ist
in qu
Ġw ist
Ġbe fall
Ġha unt
Ġr aces
and s
Ġli king
Ġj a
Ġfe aring
ol ph
um erable
Ġar amis
Ġcl inging
Ġover fl
Ġoff ers
Ġsl aughter
Ġcour te
Ġhapp ening
gg s
cept ions
Ġlady ship
Ġmor ality
Ġinv ariably
Ġdef iance
Ġresol ve
Ġthick et
do es
com ing
Ġproud ly
Ġcapt ive
Ġbob by
Ġpictures que
Ġbul k
Ġslee ve
Ġtrump et
Ġprovin ces
Ġtid ings
b les
e ches
g ings
l ooked
Ġb oss
er ation
Ġf ab
Ġg ale
Ġha il
Ġbut cher
il ian
Ġthere upon
Ġpl ough
Ġpl uck
Ġpo nder
Ġapp oint
Ġdon key
Ġhapp ier
Ġexp ert
Ġste aling
Ġsk ins
Ġref res
Ġbar ric
Ġpar allel
Ġhur led
Ġexpl ore
Ġpen c
Ġaffect ions
Ġyouth ful
Ġneg ot
Ġvol umes
Ġvol unte
Ġhun ters
Ġtast ed
Ġham mer
Ġbutter fly
Ġintrodu ction
Ġmart yr
Ġgh ast
Ġdistr ust
Ġstret ching
Ġencourage ment
Ġbehav iour
b ows
u pt
w oman
Ġo z
Ġb order
Ġto ast
Ġher d
am a
oo ge
Ġall en
Ġcon veyed
Ġup ro
itt e
Ġtr icks
Ġspe eches
Ġback wards
Ġcr ooked
Ġwr ist
Ġconf irm
Ġcur ate
Ġinter nal
vel ope
Ġchrist ians
Ġrequ is
Ġfav ourable
Ġinqu is
Ġrev iew
Ġfashion able
Ġtemper ament
Ġthro b
Ġow l
Ġreck oned
Ġshri ll
Ġwhisper ing
po or
Ġchau velin
Ġcrumb s
Ġeyeb rows
Ġdix on
Ġtwent ieth
Ġphara oh
b ation
c ont
f ur
p art
r ons
Ġ eric
re a
Ġb i
Ġm ent
Ġf ost
Ġp omp
Ġl ined
am ble
ill ery
ro l
Ġv ag
ie nd
Ġtr un
Ġcl aws
Ġloo s
Ġdis li
Ġad jo
Ġpe ered
Ġsc ound
Ġcomm ence
ix t
Ġsupp ressed
Ġma h
Ġbelie ves
Ġref ined
jo hn
Ġlad en
Ġstra it
Ġpen al
Ġdef ense
Ġtreat y
Ġty pes
Ġconse il
Ġproceed ings
arer s
Ġbank er
Ġsubst antial
Ġham ilton
Ġdepend ed
Ġcrown ed
Ġow ed
Ġinn umerable
Ġenthusi astic
Ġpurch ased
Ġtrif ling
Ġleap ing
Ġascend ed
Ġdil ig
Ġanticip ated
Ġcolumn s
Ġtow ers
Ġpup il
Ġcoin c
Ġextrem ity
Ġles lie
Ġfemin ine
Ġchape l
b a
w al
Ġs ic
Ġb ake
Ġm aker
ou ch
it ched
le g
Ġe th
ion ed
Ġli able
Ġal addin
un ting
Ġdis o
Ġey el
Ġcar ries
Ġcar go
Ġatt achment
Ġsun rise
Ġed ison
Ġswe at
Ġdec re
Ġconst ance
Ġconst ruction
Ġrespect ed
Ġprodu cing
Ġdiv ide
Ġfaith fully
ues day
Ġsubst ances
Ġhonor able
Ġpra ised
Ġband s
Ġhunt s
Ġhyp othes
Ġtot ally
Ġindign ant
Ġstat ue
Ġinvestig ation
Ġintim acy
Ġvac ant
Ġresent ment
Ġimmort al
Ġirresist ible
b ird
h ur
i pper
Ġa ye
Ġc ooked
Ġf uss
Ġl akes
Ġas ks
all ing
Ġen lar
Ġover p
Ġpre f
Ġright ly
get ic
Ġmoment ary
Ġwa iter
Ġhard ship
Ġmin es
Ġhigh way
Ġchance llor
Ġpet t
Ġcho ked
Ġven erable
Ġvall eys
Ġdar cy
Ġhero ic
Ġinstinct ively
Ġrad iant
Ġuneas iness
Ġemer ged
Ġvictim s
Ġteacher s
Ġling ered
Ġmechan ical
Ġliqu or
Ġabund ant
Ġinfant ry
Ġcritic ism
Ġfant astic
Ġdre ary
Ġleon ora
Ġskil ful
d ro
n ings
o ly
y on
re c
Ġhe ars
it ably
ir on
Ġch ick
Ġwor sh
Ġun gr
Ġro ared
Ġsp ake
Ġen velope
are n
Ġmar ia
Ġeven ings
Ġres ort
ip h
Ġcomp act
Ġret ained
gg er
Ġhum ming
Ġcur sed
Ġcor ps
Ġbat ter
Ġdesp ise
Ġtal ents
Ġbell e
Ġpost s
Ġattend ing
cell a
Ġtrave ling
Ġopport unities
Ġbaby lon
Ġheight s
Ġdig ging
Ġpil ot
Ġdischar ge
Ġbuff al
Ġgrie ved
Ġreb u
Ġambit ious
c us
r in
v is
Ġh ub
Ġp ious
Ġn erve
ut ter
Ġr ip
Ġis abella
ri el
Ġmy th
os is
Ġpl ane
Ġlo b
Ġco ve
Ġte aring
ert ed
Ġpre st
ild a
Ġpart ial
Ġcour ty
iv ities
Ġconf er
ason able
Ġart istic
Ġext ract
Ġpri or
Ġir rit
Ġappro ved
Ġexcl amation
Ġsal vation
Ġdeal ing
Ġacqu ire
Ġbab ies
Ġhy ster
Ġcommun ic
Ġere cted
Ġshr ub
Ġreck less
Ġendeav oured
Ġga ily
Ġconsult ed
Ġdrift ed
Ġbud d
bour ne
Ġbrid le
Ġrecommend ed
Ġblaz ing
Ġancest ors
Ġfelic ity
Ġghast ly
e z
Ġc yn
Ġf y
Ġto es
Ġd ial
Ġd ora
Ġp iled
Ġhe ath
it imate
Ġbe er
Ġre action
Ġr ack
ain ty
Ġsu ng
Ġcar riages
ia h
Ġmon ks
Ġcur led
Ġhar p
Ġaw fully
Ġpat ty
Ġprom ising
Ġarri ving
Ġanim ated
Ġdisapp ro
Ġmill s
Ġcompl icated
Ġremark ably
zz le
Ġcho pped
Ġdim ly
Ġjul ie
Ġstock ings
Ġsam uel
Ġinhab ited
nes day
Ġard ent
Ġschol ars
Ġhospit ality
Ġshru gged
Ġjung le
d ers
f ar
o bs
Ġo mn
Ġp onies
Ġhe ated
Ġl or
Ġl ame
Ġg ret
Ġmy les
Ġor ph
Ġex ting
ast y
Ġun w
ort ions
Ġfl ush
Ġsc ru
so on
Ġem inent
int on
Ġac id
Ġform ation
sh all
Ġspo iled
Ġlat est
Ġinv ite
Ġmeet ings
Ġexc ite
Ġsleep y
Ġast ron
Ġconv ince
Ġbound s
Ġant agon
Ġpolit ic
Ġdam n
Ġjump ing
Ġdiss ip
Ġcraw led
Ġsob bing
bel ie
Ġlun cheon
Ġpag an
b all
b ling
f red
g ard
Ġt i
Ġt uesday
Ġw ren
er ity
Ġc ul
Ġc age
Ġto ad
Ġd ined
or al
Ġl ac
id a
ir k
Ġall owing
pp ers
ul us
Ġout rage
Ġun ity
Ġpl ump
Ġbr y
Ġbefore hand
Ġsc or
Ġac ute
Ġappe aring
Ġkind red
Ġhar bor
Ġexpl o
Ġrespect ful
Ġrespect fully
Ġprincess es
Ġgar rison
Ġgro aned
Ġvirt uous
Ġsin ister
Ġscr ooge
Ġcommun icate
Ġdust y
Ġsuperior ity
Ġobst in
Ġsex ual
Ġfever ish
Ġdan iel
Ġproc ured
Ġfeed ing
Ġsob bed
h an
m ates
u v
Ġh anged
Ġh ann
Ġb ib
Ġc ant
Ġc rop
Ġf ren
Ġst ur
ri pp
us ively
Ġcon verse
Ġdo omed
Ġup wards
Ġex ter
Ġthere of
Ġtr ay
Ġtw ins
Ġte chn
ab by
ci ences
Ġdown ward
Ġwat son
Ġsur geon
Ġmet aph
Ġru gged
Ġest ates
Ġhusband s
Ġtor ch
Ġdesp ised
Ġcompl ained
Ġmass ive
Ġtur k
sy lv
Ġsole ly
Ġtast es
Ġoper a
Ġdam age
Ġsuspic ions
any ard
Ġhyp ocr
Ġcommission er
Ġthri ll
certain ly
Ġpolite ly
see ing
cr ates
Ġpropri ety
Ġbarb ara
Ġecc les
g ot
i antly
p oonful
r ants
Ġc ough
Ġf ret
Ġd ainty
Ġp yr
Ġg inger
ic it
id ences
ent ially
Ġre ver
Ġtr act
pl om
Ġbeg ging
Ġcomp rom
Ġrest aur
Ġass igned
Ġgener als
Ġbu zz
Ġprom inent
Ġearth qu
Ġver loc
Ġspect ators
every thing
Ġgree ce
Ġelder ly
Ġprud ent
about s
Ġstor my
Ġembarrass ed
Ġshud dered
Ġgover ness
Ġtyr anny
might y
Ġeloqu ence
Ġshill ings
Ġpeters burg
Ġbachel or
b ons
l ings
u ate
Ġw reat
Ġc os
Ġhe aps
ar med
Ġy or
and y
Ġse asons
Ġsh apes
Ġall ies
Ġro lls
ag ers
el ity
Ġpe g
Ġmar quis
Ġimp ud
Ġexp enses
Ġste alth
Ġsn uff
Ġopp ressed
jo y
Ġrid den
Ġrepe ating
Ġbott les
Ġgrow led
che t
Ġstick ing
Ġcost ume
Ġtong ues
Ġaugust ine
Ġinfinite ly
Ġta vern
Ġdefe ated
Ġnav y
Ġsincere ly
Ġmant le
Ġsul ph
Ġgorge ous
g age
i ge
u ing
er ies
Ġc elia
Ġf iend
is en
Ġp add
ly n
ent ric
ad vant
ch us
us hes
Ġch anced
pe ople
Ġex al
if ting
Ġco ats
Ġpe nd
Ġcons umption
Ġdif fer
Ġtra gic
Ġgra vel
Ġswe eping
Ġobject ed
Ġdiv or
Ġhig gins
Ġsaint s
Ġspring ing
Ġwest ward
str ong
Ġpan ic
Ġwed nesday
Ġdi plom
Ġmyster ies
Ġundert aking
Ġretreat ed
Ġblank ets
Ġtransp arent
Ġnegro es
Ġrepublic an
Ġfulf il
Ġstag gered
Ġbrut al
Ġappropri ate
Ġembro idered
fur ther
Ġcourty ard
d ened
v ous
Ġt ank
Ġw rest
Ġm es
Ġf erv
Ġd iet
Ġp ans
Ġp ulse
ot he
Ġwh ale
Ġcon form
Ġab use
ak able
Ġsp otted
Ġbr uce
Ġbl ushed
Ġim itation
ff ic
Ġjo ve
Ġcount ing
Ġsw ing
Ġmon aster
Ġph ill
Ġdra gging
Ġins ign
Ġinc omp
Ġsim ult
Ġbar ren
Ġspr ung
Ġdev ice
Ġstri p
Ġesc ort
Ġwhis kers
Ġarr ay
Ġmaid s
Ġcost ly
Ġhes itating
Ġshadow y
Ġrul ed
Ġrecord ed
Ġkeen ly
Ġneighbor ing
Ġrestr ain
Ġunus ually
Ġvic ar
Ġvague ly
Ġcontempl ation
Ġtreas ury
Ġattent ively
Ġexerc ises
Ġprejud ice
Ġadvert is
Ġmanufact ure
Ġrasc al
Ġchor us
urre ction
Ġfundament al
Ġfy odor
Ġeccles i
b ro
s pr
w all
y ers
Ġt ack
Ġt umbled
re hens
Ġm oo
Ġm abel
Ġc ed
Ġf its
Ġd yn
Ġn ail
Ġg ild
Ġre igned
Ġwe ndy
Ġde ject
Ġv it
Ġman ager
ist ry
ol es
Ġtr aced
Ġcan oe
ord ers
Ġrem o
Ġgl or
Ġpass ive
Ġarm our
Ġworld s
Ġsub mitted
Ġinc ense
Ġbest ow
Ġed ges
Ġfin er
Ġtri b
az a
Ġreal m
Ġdisc ern
Ġest her
Ġwin chester
Ġcourt s
uff ic
Ġlim b
Ġlim p
Ġattract ion
Ġox ford
Ġsha ft
Ġtables poonful
Ġpant ing
Ġlegisl ature
Ġsust ained
Ġoverwhel med
Ġadorn ed
Ġanaly sis
Ġhaught y
Ġadjo ining
m ad
o ons
Ġt et
Ġb acked
is ive
Ġp int
ic y
im ble
Ġr ipp
Ġst ing
Ġal mighty
ra ft
os a
Ġtr ades
ag in
Ġper ce
Ġdes erves
Ġcr acked
Ġcons erv
Ġever last
Ġpleas es
bo d
Ġsn ap
Ġsn iff
Ġut tering
Ġtom my
Ġpray ing
Ġlab ore
Ġtal ks
Ġneg ative
Ġnice ly
Ġarg ue
ipp i
Ġfet ched
Ġninet eenth
bl est
Ġdetect ed
Ġresemb led
Ġprotest ant
Ġunexpected ly
Ġthirst y
Ġsurround ings
Ġeste emed
Ġsignific ant
Ġphilosopher s
Ġextend ing
Ġwig g
Ġingen ious
Ġorg ans
d ri
Ġh ounds
Ġof t
Ġd ou
Ġd ins
Ġd agger
Ġl yn
Ġl umber
Ġre appe
Ġwe gg
ur ous
her s
Ġso crates
Ġall iance
Ġar bit
Ġbl unt
Ġper cy
Ġear ned
Ġac res
Ġcap it
Ġcur ls
Ġsent ences
Ġpar r
Ġsy ll
Ġpol es
Ġexcl aim
Ġconsider ations
Ġtou ches
Ġequ ip
Ġsal uted
Ġty rant
Ġlangu id
Ġadmir ing
Ġid ol
Ġclim ate
Ġorigin ally
Ġspec ific
Ġburst ing
Ġgree ks
Ġappl ause
Ġblank et
Ġknock ing
Ġstor ms
Ġdram atic
Ġperplex ity
Ġencl osed
Ġarchite cture
Ġbough s
Ġdins more
e es
r ich
Ġb ann
er on
Ġm im
Ġi g
Ġc ate
Ġre ct
im ately
Ġse cl
ers ed
Ġle ague
um an
Ġro pes
Ġlo gs
Ġdis advant
ire ct
Ġunder ground
Ġhere after
Ġcons pir
ens ed
Ġcount less
iv able
Ġlight er
Ġsent in
Ġhar vest
Ġadm ission
Ġcor p
Ġexpl aining
Ġdisc oura
Ġbreak s
Ġpract ised
Ġwide ly
Ġmess ages
Ġgro an
Ġhost ess
Ġdescend ing
Ġroof s
Ġindust rial
Ġobtain ing
Ġindul gence
Ġeconom y
Ġfulf illed
Ġnaught y
Ġinvolunt arily
Ġmuse um
Ġsymb ol
Ġpav l
Ġgos pel
Ġathen ians
Ġdispos al
Ġacadem y
Ġpenc roft
i age
i ations
p ool
r at
in n
Ġb ot
en et
Ġd ome
Ġd antes
Ġl anyard
as er
Ġg ust
Ġg ert
om er
al so
Ġnot ions
am in
Ġsh ots
Ġde em
Ġne ut
un ned
fe ll
ol o
Ġstr ang
Ġgl are
co vered
Ġple ad
und ered
Ġexp and
Ġcle ment
Ġeight eenth
Ġhar old
Ġfin an
Ġsound ing
Ġopp ose
Ġbur y
Ġtem pered
Ġhorse men
Ġcal f
Ġdisc retion
Ġsus pense
Ġfre ck
Ġsoft ened
Ġdecl ine
Ġgri p
ring ton
Ġwear iness
Ġmam my
Ġrejo ice
Ġshr ank
Ġharm less
mar g
Ġproof s
Ġbirth day
Ġproble ms
Ġsoot hing
Ġwond rous
Ġdepos ited
g ra
m outh
p ress
Ġh art
Ġh ark
Ġf uel
Ġand rea
Ġd al
it ous
Ġnot icing
and ers
Ġk icked
Ġsh attered
Ġch ip
Ġj ess
Ġv iv
op h
Ġbo red
ass ed
Ġbl ushing
Ġad j
Ġmar gin
Ġpre acher
Ġmiss iss
Ġmo le
Ġsat in
Ġconf ounded
Ġinter ven
Ġdep ri
Ġcor oner
Ġje lly
Ġsal ute
Ġstud io
Ġport ions
Ġver ily
ann ie
Ġstro kes
Ġsymp athetic
Ġcrown s
Ġdesign ed
Ġdor is
Ġneighbour ing
cer ity
Ġvig il
Ġrab b
Ġpreced ed
Ġconcern s
Ġorn aments
Ġton ight
ado k
Ġinterpret ation
Ġecc entric
Ġhenri etta
Ġtransfer red
Ġviz ier
Ġintol erable
Ġrost ov
c a
Ġt as
Ġa us
Ġw i
Ġh ue
Ġb acon
an ning
Ġher mit
the l
the ned
Ġinto x
Ġfl int
Ġres igned
Ġcr adle
Ġhapp iest
Ġarm or
gg y
Ġwar rant
Ġunt r
Ġfire place
Ġfif teenth
Ġwall ace
Ġbat hed
Ġexam ples
Ġfro ck
Ġoccur rence
Ġrain bow
Ġpack et
Ġrejo icing
Ġaud ible
Ġrepresent atives
Ġhence forth
Ġnodd ing
Ġnap les
Ġrust ling
Ġscra ps
Ġillust ration
Ġreflect ing
Ġblaz e
Ġneat ly
Ġeffic ient
Ġath os
Ġshaw l
Ġsuperintend ent
Ġexal ted
marg aret
e le
r as
Ġb ounded
ic ular
Ġnot ary
Ġsh ift
ro d
Ġfr y
pp y
ul ent
qu al
Ġv ass
ist ics
Ġle ve
el ed
ine a
Ġmar cella
Ġwhere by
Ġsl ipping
Ġcar n
Ġop ens
Ġinst ruction
Ġworld ly
Ġsub ord
Ġexp ensive
Ġma z
Ġhard y
Ġele vation
Ġcirc uit
Ġdifferent ly
Ġstri ving
Ġesc aping
Ġfail ing
Ġthor pe
Ġlangu ages
Ġmod esty
Ġga it
Ġobst acle
Ġaust ral
Ġling ering
Ġreject ed
Ġmourn ful
Ġbess y
Ġdad dy
Ġeleph ant
Ġket tle
Ġmississ ippi
d ling
in ald
at o
it he
ac inth
Ġse eds
Ġde an
Ġfr ail
Ġwere n
ag ne
Ġdis reg
Ġfo am
Ġspe ck
Ġcr ue
so le
omet er
Ġend owed
Ġgu ar
Ġste pping
Ġins piration
iet ies
Ġmor als
hen ka
Ġquestion ing
Ġmist akes
Ġdev our
Ġforg iven
Ġrequ ested
Ġpossess ions
Ġled ge
Ġshad es
Ġauth ors
Ġwit hered
Ġbread th
Ġpassion ately
Ġjul iet
Ġpit ched
Ġhonest ly
Ġble eding
Ġox en
Ġcontem por
Ġquant ities
Ġveget able
Ġhistor ical
Ġench ant
Ġslee ves
Ġbrisk ly
Ġceremon ies
Ġindef inite
Ġscand al
Ġupro ar
f our
l ain
m ah
Ġb ery
en ched
Ġd ul
Ġn ig
id ious
Ġre ef
Ġre aches
Ġfor k
Ġk il
ill es
Ġfr owned
Ġli zzie
Ġcon verted
Ġman ly
Ġpl under
Ġsp ed
Ġdid st
Ġad el
Ġlet ty
Ġshall ow
Ġdist ract
Ġdel ayed
Ġfore most
amp ed
Ġperson age
Ġpol ish
Ġsuff rage
fic ial
Ġje h
Ġappro val
Ġwin ning
Ġcra b
Ġtur f
Ġacquaint ances
Ġven ice
Ġrub y
Ġsplend or
Ġlod gings
Ġdesper ately
Ġalex ey
Ġhaw k
Ġplun ge
Ġexert ion
Ġveget ables
Ġchuck led
Ġchamp ion
Ġtreacher y
Ġbutt ons
Ġambassad or
Ġhoof s
Ġgab riel
Ġvehic le
Ġcondes cend
Ġperce val
f in
f ig
v an
Ġb in
Ġm ord
ing le
Ġd ow
Ġp est
Ġp aw
Ġl ink
le by
Ġre cl
Ġas yl
ch ild
ke red
us henka
ard ier
Ġj aw
Ġun natural
Ġho b
Ġcr ush
Ġsw ed
Ġsur vey
Ġhel m
ial s
Ġcol onies
Ġref usal
Ġlaw yers
Ġvis ions
Ġpat ent
oc ation
Ġru g
Ġdisc on
Ġgovern ments
Ġrich ly
Ġbright er
Ġpain fully
Ġsuccess fully
Ġaccord ance
Ġhall s
Ġlu ke
Ġfright en
vere nd
Ġrapid ity
urs day
Ġattack s
Ġfol iage
Ġcommun icated
Ġdiscuss ing
Ġunf old
Ġdeb ts
Ġendeav ored
Ġshel tered
Ġrad iance
Ġgrim ly
Ġly nde
Ġfem ales
Ġillust rious
Ġgest ures
Ġintense ly
Ġdram a
Ġattent ive
Ġcarol ine
Ġirr itated
Ġrebell ion
Ġpeop les
Ġeverlast ing
h alf
p re
r ice
t ook
t ical
in ently
Ġb ast
Ġb owing
es cri
Ġe b
Ġwh ipped
Ġre ared
Ġr iv
Ġwe b
Ġst amm
Ġsa ge
th ink
Ġcon tend
Ġcon greg
Ġch ival
Ġex asper
Ġfe l
un ci
Ġkn it
ound ing
ol is
Ġpe ak
Ġpe aks
ft on
Ġem an
Ġwr inkled
Ġind isc
Ġrep et
Ġmon op
Ġmon keys
Ġhome ward
Ġcur ve
Ġsuff ice
oc ity
Ġobser ver
Ġflo at
Ġterri fic
Ġchief s
Ġsevent eenth
Ġdam ned
Ġstro de
Ġnoble man
Ġaston ishing
Ġpeculiar ly
Ġpit iful
Ġreve al
Ġcy l
Ġsour ces
Ġcaut ious
Ġcorrespond ing
Ġdisturb ance
Ġmarvel ous
Ġcontinu ing
Ġinse cts
Ġslop es
Ġtil ney
Ġpul p
d am
m ain
m uch
Ġt ac
in or
Ġthe od
Ġs ly
Ġh ug
Ġc oss
Ġf u
Ġf ou
Ġto ken
Ġg aw
Ġas cent
Ġan k
Ġan th
Ġde mean
Ġdo ve
Ġno ises
Ġno isy
Ġno stri
ra p
ra ged
Ġle w
Ġbr ushed
Ġcl aw
Ġcl apped
Ġus ur
Ġover board
de ar
Ġsc hem
Ġcr isp
ens ation
be lla
Ġrel ating
Ġhum ph
Ġref rain
Ġround ed
Ġdisc reet
Ġbright ness
Ġsmo ked
Ġoccasion ed
Ġthick ness
Ġsorrow ful
Ġstro lled
Ġvain ly
Ġpit cher
Ġhol mes
Ġess entially
yn pl
Ġrat tle
Ġara bella
Ġvic inity
Ġlack ing
Ġemer ald
Ġscra p
Ġiv ory
Ġfil m
Ġrib bon
Ġschol ar
Ġhaz ard
Ġspin ning
Ġresolute ly
Ġgn aw
Ġcigaret te
Ġcarpent er
Ġtrun ks
Ġnostri ls
p a
in c
Ġs i
Ġs ill
re qu
Ġc ured
Ġp uss
Ġth ursday
Ġin fect
Ġbe llow
Ġe go
Ġy an
Ġwh ar
Ġre verse
Ġst umbled
Ġher ald
Ġse lling
Ġsa lly
Ġfr antic
Ġv ices
Ġor le
Ġman hood
ast rop
Ġle op
Ġun im
Ġun su
Ġcl ar
op s
Ġgr otes
Ġcomm od
Ġkne eling
Ġref using
Ġgre ed
Ġgra b
Ġgra ves
Ġart ists
Ġsec re
Ġchr onic
Ġfoot man
aw are
Ġpast ure
Ġdev ils
cri be
Ġap ology
Ġcourt iers
Ġbab e
Ġsouth ward
Ġhy acinth
Ġevil s
Ġpet ty
Ġwise ly
Ġsett ling
Ġmal ice
Ġur ge
Ġamaz ing
Ġdesign s
Ġpos itions
Ġspend ing
Ġhind er
Ġdefend ed
Ġcas ual
Ġtroubles ome
Ġprosper ous
Ġstoop ing
cast le
Ġexcess ive
Ġot ter
Ġdoub led
Ġaffl icted
Ġmonot on
Ġsant a
Ġplac id
Ġpyr am
ynpl aine
b ra
e ight
e ither
f et
g ia
i ors
j ah
s ure
Ġt ang
Ġs ciences
Ġb aff
Ġb aked
Ġi cy
Ġp ont
Ġl ance
Ġl ime
Ġg id
al ways
Ġdo ings
fe rences
Ġpl ent
Ġpro ves
Ġcan ad
ry ing
Ġco ax
ans wered
Ġye a
Ġye ll
anc het
Ġjo int
Ġind ist
Ġchar iot
Ġpur ity
Ġinc idents
Ġdark ened
Ġpar as
Ġtri vial
Ġart illery
Ġcat astrop
Ġsecond ly
Ġstri pped
Ġmot ions
Ġforth with
Ġdiscover ing
Ġali en
Ġregret ted
Ġundert aken
Ġsubs ist
Ġwhist ling
Ġsentiment al
Ġfid elity
Ġeffic iency
Ġsacrific es
Ġtranqu il
Ġpeep ed
Ġhenri ette
Ġdazz ling
Ġannoy ance
Ġinval id
Ġtribut e
Ġinsign ific
Ġwigg ily
b ably
g om
g il
g reat
g ency
m ons
m ont
t ic
Ġt iss
Ġt ents
Ġs its
at ics
Ġl ag
Ġl ark
Ġg ap
om ing
Ġbe am
Ġe lf
ic ide
Ġwh ites
st ra
Ġse wing
Ġsa ul
Ġfr amed
Ġall ison
qu ar
Ġv ind
Ġal b
Ġpl aint
Ġbo ards
Ġpe ering
ick ing
Ġcar av
Ġcons umed
Ġind escri
Ġrep orter
Ġsw orn
Ġel bows
Ġmon ument
Ġhor ace
Ġsix teenth
Ġair ship
Ġpar aly
Ġmil an
Ġdec ay
Ġbes ie
Ġmount ing
hen ce
Ġspr ay
br ay
Ġgrand eur
Ġfail s
Ġcompl iments
Ġmir acles
Ġyo ke
Ġendeav or
Ġstuff ed
Ġindign antly
Ġcher ry
Ġexhib it
gl as
Ġofficial s
Ġvex ation
Ġattribut ed
Ġsom bre
Ġbarbar ous
Ġtub e
Ġtranqu ill
Ġcomplaint s
Ġborrow ed
Ġspecim ens
Ġalight ed
Ġconfront ed
Ġbarric ade
Ġscound rel
Ġbery l
Ġorle ans
c ut
f rey
i ac
m at
p oint
s en
w est
Ġb umble
Ġd itch
Ġd ata
ad ays
Ġse izing
Ġsh ivered
Ġsa unders
il ess
Ġv ow
em ents
ap art
Ġcan al
are th
Ġad equ
Ġper ched
Ġgl ist
Ġsl ack
Ġrest s
Ġhum bly
Ġair s
Ġreco very
Ġdev out
ls on
Ġcommon place
Ġjoy ful
Ġden is
Ġrap t
Ġcab b
Ġinflu ences
oon er
Ġphilosop h
Ġyield ing
Ġhom er
Ġconqu est
Ġrelations hip
Ġobst inate
Ġpursu ing
Ġscream ing
Ġlog ical
never theless
Ġunl ucky
Ġscen ery
Ġsway ed
ih il
Ġduck s
Ġdecor ated
Ġconcent rated
Ġconvention al
Ġbloss oms
Ġener getic
Ġoy ster
Ġannounce ment
Ġsquir rel
Ġelabor ate
Ġjon athan
Ġecclesi ast
Ġcrue lly
gom ery
d ler
l ig
l orn
m el
r an
u ation
Ġt an
Ġw ires
Ġo jo
Ġb ump
Ġc au
Ġf iction
ing es
Ġbe ams
ct ic
th ought
Ġun anim
Ġdis aster
ci le
wh atever
Ġgl ided
Ġimp osing
Ġsupp le
Ġpers ian
Ġwa ver
ss es
Ġass ented
Ġdark er
Ġtri es
Ġdep ressed
Ġunderstand s
Ġdisapp oint
Ġtrans formed
ask a
Ġlab ors
Ġsend s
Ġleg itimate
Ġneck lace
Ġfun ctions
pic ious
Ġoblig ation
Ġflat ter
Ġsubst itute
Ġtravel s
Ġgle e
Ġexceed ing
Ġprospect s
Ġexhib ition
Ġappreci ation
Ġwing ed
Ġpist ols
Ġpenet rated
Ġpars ley
Ġflut tering
Ġwithdra w
Ġrepent ance
Ġautom ob
Ġrevel ation
Ġstub born
occ up
Ġprolong ed
Ġfert ile
Ġprover b
Ġhypothes is
d ney
h oun
Ġt s
Ġt ons
Ġs ession
Ġb ount
Ġd ies
Ġhe aped
ll ie
Ġha ck
ot ic
Ġre ins
Ġst ab
Ġgo al
Ġgr ushenka
Ġfl ick
Ġpre ach
Ġlight ing
Ġrep aired
Ġcap s
Ġhum ili
Ġter race
Ġed win
Ġsn ar
Ġsn akes
Ġmer rily
Ġdev ote
Ġeffect ed
Ġrespect ing
Ġty p
Ġsand s
Ġstar ved
Ġprev ail
Ġintend ing
com be
Ġscr ub
Ġscr atched
Ġcup board
Ġearnest ness
Ġshr oud
Ġinvent or
Ġhint ed
Ġresemb ling
Ġsar c
Ġdrift ing
Ġrevolution ary
Ġdeliber ate
Ġbun ny
Ġdischar ged
Ġunm ist
Ġult imate
Ġpled ge
Ġprel im
Ġextravag ant
thor pe
Ġbuffal o
uffic ient
Ġgrotes que
m aking
t urned
v o
Ġa j
Ġm um
Ġc ask
Ġp ines
Ġp iles
Ġl onel
le ction
Ġe jac
ut able
st retched
Ġst alk
Ġan on
Ġk ins
Ġsu its
ro y
Ġab ide
Ġsp aces
Ġnow adays
Ġfl aming
act or
Ġrem n
Ġsl ide
for ward
Ġrep rodu
Ġsat an
aint ed
Ġappe aled
Ġgot ten
Ġinf all
Ġreal ised
Ġmist s
Ġsal ary
Ġmaj estic
Ġcre ed
Ġoccur s
Ġfal tered
Ġfurn ace
Ġdam on
Ġhabit ual
Ġperiod s
Ġmal ign
Ġorgan ized
Ġinstinct s
Ġcontract ed
Ġblock s
Ġcoo lly
Ġdisci ples
Ġperplex ed
Ġprocl aimed
Ġsacrific ed
Ġmex ico
Ġresign ation
Ġoy sters
Ġrecei pt
Ġnois eless
Ġdisli ked
f ive
Ġt ies
Ġt ab
Ġthe ories
Ġw iz
Ġw ither
Ġg aining
Ġso f
Ġal oft
Ġthem e
Ġen sued
urn ing
Ġad ap
act ions
Ġfo es
cl ing
for ced
ne xt
Ġlove liness
Ġchar lie
Ġcle arer
Ġhor rors
Ġmin er
ock s
uth bert
Ġpar cel
Ġpat ches
Ġhon esty
Ġill usion
Ġcut s
Ġest imate
Ġsever ity
Ġjud ging
Ġrus hes
Ġrus sell
Ġdeal t
Ġnorth ward
Ġconcl usions
Ġfaint ed
Ġban ner
Ġur gent
Ġsin cerity
Ġalar ming
Ġpill ars
Ġplat o
Ġnerv ously
Ġawa it
Ġwhist led
Ġdece ased
Ġrib bons
Ġprivile ges
Ġrecon c
Ġconfident ial
Ġwithdra wn
Ġloyal ty
Ġimprison ed
Ġgw ynplaine
Ġvigor ously
Ġbea ver
Ġinsens ible
Ġsme lling
Ġindisp ens
Ġexting u
Ġtac it
e w
e ers
t aking
Ġt ay
Ġb ard
Ġm ow
is ons
is ms
es pecially
Ġl ore
Ġl ump
Ġbe ver
al most
Ġr he
Ġst an
ke e
Ġv ile
Ġex ile
ast on
Ġgo ats
Ġar isen
Ġthen ardier
Ġcl a
Ġcl are
ish ly
ish ness
Ġper ceptible
Ġye lled
Ġcr om
Ġseem ingly
Ġmat ches
Ġend ing
Ġsw o
Ġhel met
Ġdel ir
Ġgra pes
Ġinf irm
Ġcontin uous
Ġsign or
Ġbig gest
Ġpal aces
Ġdest ination
Ġdet est
Ġattempt ing
Ġgar ret
Ġpet ition
Ġmel od
Ġpier cing
Ġdiss atisf
bb les
Ġmechan ically
Ġdemocr acy
Ġfasc inating
Ġprejud ices
Ġmarian ne
Ġsumm ons
Ġmoist ure
Ġaristocr atic
Ġavail able
Ġspecim en
Ġmou st
cap tain
Ġti pt
Ġdou glas
Ġsecre cy
b u
c ill
d ie
d ens
k ash
u pp
y le
Ġw ider
Ġo lym
Ġb ure
Ġp am
Ġp ite
Ġl ain
Ġl ones
le aving
ly sses
Ġu lysses
Ġr im
Ġr ats
am ations
Ġse qu
Ġsh abby
th ank
Ġch alk
Ġj em
Ġj up
Ġal ph
Ġwhat soever
Ġpl aster
Ġaf ar
Ġbr icks
Ġcan ada
Ġcl ue
Ġcr ick
anc he
Ġcomp osure
Ġhead long
Ġimp ass
Ġpres ervation
Ġjo ys
Ġel inor
Ġreg ained
Ġlat ch
Ġhar ri
Ġcor al
Ġca using
Ġmus lin
Ġobject ions
Ġexpress ive
Ġsweet est
Ġdef ar
Ġpublic ly
Ġcre v
Ġpost p
Ġsnow y
Ġger mans
Ġkiss es
Ġrepeated ly
Ġgrat ification
asm uch
Ġep is
Ġfrag rant
Ġuneas ily
Ġindul ge
Ġmont gomery
Ġod ious
Ġobsc urity
Ġtax es
Ġmission ary
Ġproduct s
Ġlav a
Ġinvolunt ary
Ġcrou ched
Ġrese mble
Ġprecaut ion
Ġwholes ome
Ġdefin ition
Ġremo ving
Ġig no
t om
Ġt ough
Ġb ang
Ġb ully
Ġb lend
Ġm ason
Ġc ale
is le
Ġp ane
Ġg ord
Ġbe f
Ġon ion
Ġre verend
et ies
Ġfor lorn
ur bed
Ġsh ah
ri end
Ġcon ference
Ġj ur
Ġv amp
Ġthere with
ra ble
Ġint rig
Ġun ique
um sy
Ġaf resh
ass es
Ġhand led
Ġpo ll
Ġstr and
ix ed
ne w
Ġchar med
Ġact ors
Ġel ph
Ġposs ibilities
Ġfore s
Ġpar ag
Ġcontin ues
Ġdiffe rences
Ġexpect ations
Ġmed iter
par able
Ġproceed s
Ġpick wick
Ġdisg usted
Ġsplend our
Ġexec utive
Ġconstit uted
Ġshr ink
Ġwicked ness
Ġber th
Ġros al
pir ing
Ġshri eked
Ġmud dy
Ġrust y
Ġinstru cted
Ġachie ved
Ġchann els
Ġtimid ly
Ġwhirl ing
Ġot to
Ġclut ched
Ġske leton
Ġbehav ior
Ġdisappear ance
Ġprecaut ions
Ġshir ley
Ġdares ay
Ġwhir led
Ġcourte ous
Ġdivor ce
rehens ible
Ġdiscoura ged
Ġasyl um
Ġschem es
Ġmediter ranean
f ound
h ard
i ots
m itting
p ie
p ence
p iece
w ixt
Ġs led
Ġf ath
at hed
Ġn ib
Ġre ce
Ġr on
Ġst ables
Ġher ds
Ġde fic
Ġch ich
the st
Ġun a
Ġcan st
Ġcl umsy
Ġco vers
Ġte resa
ount able
Ġpart ially
Ġrem ov
Ġser mon
Ġwork man
Ġchar ley
Ġins in
Ġbeaut ies
Ġinc or
Ġsk ies
Ġprop ortions
Ġcountry men
Ġsy dney
Ġcal houn
Ġsqu ad
Ġequ ipped
Ġsal oon
Ġpossess es
Ġexcept ing
Ġsweet ly
Ġda isy
Ġbab a
Ġaccept ing
Ġcompl ac
Ġvan qu
Ġban ished
Ġham let
Ġdestro ying
Ġheat hen
Ġpin ch
Ġassoci ations
Ġclub s
Ġplant ation
Ġghost s
Ġindul ged
Ġnovel ty
Ġerr ors
Ġveget ation
Ġflut tered
Ġinsol ent
Ġabbe y
Ġsem i
Ġpropriet or
Ġmuff led
Ġsubsequ ent
Ġearthqu ake
Ġmonoton ous
Ġindispens able
Ġjup iter
b al
g a
Ġt am
Ġm ack
Ġm used
Ġc able
Ġc ripp
is ation
Ġp aws
Ġg it
Ġg an
il iation
th m
Ġv in
Ġv otes
ous ing
ra w
Ġbr un
Ġbo ffin
Ġbl ake
Ġday break
Ġfl anders
Ġper ished
Ġthr ice
Ġpart ners
Ġcomp art
Ġcar bon
Ġlast ing
Ġass ail
Ġoh io
Ġinter ference
Ġtra ps
Ġless er
Ġalong side
Ġdep ression
Ġson ya
Ġspr inkle
Ġsch ooner
Ġcaptain s
Ġimag inary
Ġshad ed
Ġsuper b
Ġlu cian
Ġfirm ness
Ġbless ings
Ġempt ied
Ġbal in
Ġinterrupt ion
Ġol ive
Ġber ries
fl ies
Ġken n
Ġwheel ed
Ġreward ed
Ġbree ches
Ġpretend ing
Ġcarol ina
Ġtick et
Ġinev itably
Ġrav ine
Ġperf ume
Ġshill ing
Ġskirt s
Ġsket ch
Ġconject ure
Ġsyn ony
accord ing
Ġscramb led
Ġinherit ance
Ġmonaster y
Ġcanad ian
b ishop
c ony
d al
d em
g us
m ark
o or
r ates
z o
z an
Ġm ig
Ġm ung
Ġf ult
on ing
Ġd at
Ġp itt
Ġn ought
Ġn aval
Ġg ill
Ġre de
Ġr iot
Ġst em
Ġsh orter
Ġall usion
Ġch ant
pe cial
Ġun in
Ġar c
Ġqu oted
Ġtw elf
Ġcl own
Ġco de
ber g
ber ries
Ġem ig
Ġatt ire
Ġmat rim
ced ed
Ġsub ur
Ġche ering
Ġbu ying
sh ire
Ġinf ancy
Ġcompan ies
Ġsign ature
Ġconst itu
Ġsight s
Ġcal iph
Ġdisc ord
Ġhair s
Ġfine ly
Ġpen it
Ġdecl aring
Ġenglish men
Ġsuccess ive
Ġlen nox
Ġmem orable
Ġpract ise
Ġwatch ful
Ġattend ance
Ġmir ac
Ġmut ton
Ġutter ance
Ġbal cony
Ġwilliam s
Ġfrank lin
Ġgle amed
Ġtele gram
Ġwag ons
Ġoak s
Ġfee bly
Ġpoison ed
Ġascend ing
Ġconsist ing
Ġjen ny
Ġsust ain
Ġsway ing
Ġtun nel
Ġvictor ia
Ġreluct antly
Ġmarsh al
Ġprodig ious
Ġcalam ity
Ġisol ated
Ġexcurs ion
Ġlum inous
Ġmagaz ine
Ġbry ce
Ġadel a
Ġlew is
Ġlonel iness
Ġcrom well
Ġdefar ge
Ġtwelf th
b us
n s
p at
t ies
Ġc ert
Ġp y
Ġg ir
al m
Ġas ia
Ġr otten
ac ies
Ġsu e
all s
Ġli vel
Ġli fet
Ġman or
un ction
Ġkn ives
Ġab omin
Ġpl anchet
Ġcan oes
Ġcan yon
Ġbl ot
pt y
Ġpe pp
Ġpre te
Ġpre ference
Ġgl aring
Ġcr ut
Ġsub mission
Ġgi ants
Ġtre ason
Ġter med
Ġide als
Ġopp ression
Ġcreat or
Ġchurch yard
Ġstri fe
Ġjoy fully
Ġdu ly
Ġver ge
Ġrev ived
Ġrecogn ise
Ġpun ch
Ġphys i
do ctor
Ġstrugg les
Ġrub ber
Ġmain ly
Ġgrat ified
Ġpack ing
Ġtit o
Ġhorri bly
Ġaim ed
Ġbishop s
Ġod or
Ġobed ient
Ġfrancis co
Ġcultiv ation
Ġexecution er
Ġattribut es
wr iting
Ġrobber y
Ġimprison ment
Ġrand om
bet ween
Ġfaire st
Ġcel est
Ġprostr ate
Ġantiqu ity
Ġvary ing
Ġrepet ition
Ġtranquill ity
Ġlifet ime
d is
l it
o ir
r ations
w alk
Ġt rop
Ġt ips
Ġa z
Ġs no
Ġh ire
Ġb aking
Ġhe y
Ġg ould
Ġbe lly
ut her
Ġr az
Ġsh ady
Ġj ug
fe llow
Ġout stretched
Ġab hor
Ġmis chie
Ġpl ank
au x
Ġbo oth
Ġim plied
Ġover heard
Ġfl ank
Ġhow l
Ġwat ches
Ġcar th
Ġimp ost
Ġhome ly
Ġsil very
Ġins ane
Ġtra versed
Ġdr ain
Ġbu cc
Ġbar ber
Ġdec isive
Ġfort ress
Ġmus h
Ġcirc us
Ġpartic les
Ġsuper natural
Ġvict orious
Ġsucceed ing
Ġpot ent
Ġsan ction
Ġconstit ute
Ġbas il
Ġcompanions hip
Ġtravel er
Ġlog ic
Ġtrad itions
Ġphysic ians
Ġgrasp ing
Ġwrit ings
Ġrud dy
Ġwhirl wind
Ġgrin ned
Ġcontrad iction
Ġperil ous
Ġdimin ished
Ġmex ican
Ġdistribut ed
Ġrecei ves
Ġsuperst ition
Ġslipp ers
Ġadvers ary
Ġrequis ite
Ġungr ate
Ġbann ers
Ġstamm ered
b ish
d ale
g ory
l aid
n one
s im
s il
Ġa version
ou ched
Ġi on
Ġc uthbert
Ġf ib
at tering
Ġto ilet
Ġd anc
Ġp ork
it o
Ġre eds
Ġr ak
Ġst ain
Ġme ets
Ġsu icide
th row
qu ite
Ġar cher
Ġsp ont
Ġsc ales
Ġcr us
ign eur
Ġwork er
vent h
Ġma ur
iss y
Ġinter rog
Ġed ition
Ġhon ors
Ġmer its
Ġhur st
Ġtruth s
Ġve ter
Ġdelight s
Ġang les
Ġpay ment
Ġthick ly
ugg ed
Ġfro gs
Ġcost s
Ġeast ward
bur st
Ġmart ian
Ġsen ior
Ġexped ient
Ġrestr ained
Ġprompt ed
Ġnovel s
Ġhoriz ont
Ġpenet rate
Ġingen uity
Ġflock s
Ġtreacher ous
Ġdru g
Ġvale t
Ġgird le
Ġsimult aneously
Ġfult on
g ave
l ishing
Ġc em
en cer
Ġe thel
Ġy ach
Ġre bel
Ġfor bear
Ġst ages
Ġan ew
ch in
Ġall e
Ġch il
Ġle gged
itt ens
Ġqu er
Ġover coat
Ġhand y
Ġper v
Ġpe ll
Ġoff ensive
wh ilst
Ġspe ars
Ġcons cient
Ġser ves
Ġsupp osition
Ġrel ics
Ġste ed
Ġbed side
Ġreason ably
Ġele venth
Ġrec ru
Ġstate ments
Ġdri pping
Ġreco vering
Ġann ihil
Ġdraw s
Ġtrans form
Ġgrace fully
Ġobl iv
Ġgro om
Ġpop ul
Ġtrave led
Ġarg ued
Ġrevol t
Ġgrat ify
Ġrul ers
Ġlod ged
Ġcool ness
Ġentertain ing
Ġros a
Ġpaul a
Ġbaron et
Ġconsult ing
Ġphr ases
Ġecho es
Ġsingular ly
Ġelectric ity
Ġfasc inated
Ġmagistr ates
Ġdisple asure
Ġrhy thm
Ġenvelop ed
Ġeyel ids
Ġfren zy
Ġstur dy
Ġrestaur ant
Ġindist inct
Ġtay lor
Ġswo llen
kash ka
Ġcem eter
l an
t ieth
ing ed
it ching
ar m
ar th
an ter
Ġn athan
Ġon ions
Ġon to
Ġr acing
Ġwe eds
Ġher od
Ġall ey
Ġun av
ab et
Ġhand ling
Ġmo or
Ġsl ice
Ġem inence
Ġgu id
Ġel apsed
Ġgod frey
Ġass uming
Ġsk im
Ġtra itor
Ġland lady
Ġmor land
Ġbur ton
Ġwal es
Ġpret ence
Ġbad ger
Ġdev oured
Ġval ued
Ġfav oured
Ġview ed
Ġden om
Ġsuggest ions
su pp
Ġevent ually
Ġtur ret
Ġban quet
Ġbag gage
set t
Ġdeb ate
Ġsupport ing
Ġchest nut
Ġsex es
Ġphr onsie
Ġident ical
Ġspar ks
Ġcoo per
Ġinspect ion
Ġentreat ed
Ġdus ky
Ġselfish ness
Ġflut ter
Ġencoura ging
Ġspecul ation
Ġconfeder ate
Ġaccur ate
Ġillum inated
Ġcomprehens ion
Ġecst asy
Ġcolumb ia
Ġdiscom fort
Ġwreat h
Ġcatastrop he
Ġchich ikov
Ġbucc ane
l u
o cious
y ne
Ġo pt
Ġb out
er p
Ġf en
Ġf ists
Ġp ou
Ġha gg
ow ered
se igneur
Ġst ress
Ġne mo
Ġno ah
Ġwill ow
Ġpr ick
Ġsc al
Ġsc iss
Ġgl owed
ach use
Ġcr ude
Ġpass enger
Ġjo ining
Ġlast ly
Ġmat ure
Ġmat ilda
Ġfar ms
Ġste er
Ġgre edy
Ġair y
pr om
Ġten n
Ġru gg
Ġdev ices
Ġexcl usively
ov ah
Ġann ual
Ġstri ve
Ġstri ped
Ġrock ing
ham med
Ġprodu ces
Ġtop ic
Ġconse c
Ġviol in
Ġant ip
Ġflat tered
Ġblind ed
Ġcontro lled
Ġarch bishop
Ġfer ocious
Ġwid th
Ġunivers ally
Ġstead fast
Ġbew are
Ġthom pson
Ġta pped
Ġflore nt
Ġfisher men
Ġperpet ually
Ġeloqu ent
Ġcush ions
Ġlil ies
Ġmagnet ic
quest ion
Ġphant om
Ġarbit r
Ġfinan cial
Ġadap ted
achuse t
h im
i ences
m ering
r un
w ich
Ġa ching
Ġs ized
Ġb ail
Ġb ower
Ġb rew
Ġb aza
Ġb icy
Ġc ot
at ures
Ġn asty
Ġg or
Ġg ore
Ġg ren
Ġwe arily
Ġan te
Ġan alog
Ġsh ifted
il ion
ore al
Ġfr ances
Ġall eg
Ġfe ud
Ġkn itting
Ġpl ung
Ġpro gram
Ġtw in
Ġcl ump
Ġte asp
Ġad o
Ġres isted
Ġcar roll
Ġbel g
Ġlove liest
Ġrest oration
Ġhard ened
Ġconf inement
Ġhum iliation
Ġbar ry
Ġblack ness
Ġlaw rence
Ġinf am
Ġmil it
Ġtri als
Ġinv iting
Ġspir ited
Ġstep mother
Ġworth less
ric ate
Ġdet ained
Ġrob inson
Ġlu gg
Ġpriv ately
Ġund o
mit ri
Ġcho king
Ġsubst it
Ġmort als
Ġspeed y
Ġcontro vers
Ġfer ry
more over
Ġdiam eter
Ġaccident al
Ġbuck et
Ġassured ly
Ġcler ks
Ġric hest
Ġward en
Ġridic ule
Ġmant el
Ġdisgu ised
Ġprocl aim
Ġaltern ative
Ġhaz el
Ġbrood ing
Ġcontri v
Ġimpuls es
Ġoppon ent
Ġvolunt ary
Ġverd ict
Ġpenal ty
hur st
Ġsulph ur
Ġphill ips
Ġguar ant
Ġjeh ovah
Ġinsignific ant
Ġindescri bable
Ġharri et
Ġpopul ace
achuset ts
h ound
h ol
i ard
l ier
p ole
t ow
Ġthe r
Ġs ate
Ġs cept
Ġw ipe
Ġb aker
Ġm aud
ou x
Ġl l
ar ked
Ġg ul
Ġg asp
Ġbe et
Ġbe ech
Ġst am
Ġsh uff
Ġthere after
os o
ough by
ig nt
Ġpro se
Ġtw inkling
Ġover h
Ġsc ow
Ġsc our
Ġbet wixt
cl oth
Ġdes ol
Ġres ume
Ġear le
Ġind ication
Ġchar ges
Ġsur veyed
Ġvo id
not e
Ġph ineas
oub led
Ġhum ility
Ġfore f
Ġtra ffic
Ġfact ories
Ġhon ored
Ġran ch
Ġval iant
Ġprov oked
Ġforward s
Ġsuper fl
Ġpost ed
Ġprofess ed
Ġund ist
Ġant i
Ġweak er
Ġstream ing
Ġboard ing
Ġlou ng
Ġmal es
Ġmel ody
Ġsuf fe
cer f
Ġing red
Ġdawn ed
Ġobst acles
Ġsmooth ly
Ġcurrent s
Ġbrid ges
Ġmechan ism
Ġovert ook
Ġcondu ctor
Ġattent ions
Ġcontribut ed
Ġcompet ition
Ġgallop ed
Ġbloss om
Ġunb ro
Ġdoc ument
Ġted ious
Ġhaul ed
Ġevol ution
Ġscrut in
Ġobli ge
Ġja vert
sylv ania
Ġrabb its
Ġextingu ished
Ġlones ome
Ġlugg age
b ble
b ie
b ted
c un
f ax
t oo
w right
in als
Ġw ailing
Ġo min
on ne
Ġto y
Ġd ing
Ġhe red
Ġn ile
Ġg ut
Ġha iled
Ġe ames
im o
al as
ac re
Ġbut tered
ight ed
Ġwor ms
Ġtr uck
Ġpr ices
Ġgr ated
Ġbl and
Ġim pelled
Ġfl ask
Ġpe w
Ġmo hammed
Ġcr uc
Ġent ers
Ġent ry
Ġbre ach
oub les
Ġinde bted
Ġfin n
Ġhope ful
Ġes pecial
Ġmor cerf
Ġsec uring
Ġmus cle
Ġquick er
Ġexc used
Ġsight ed
Ġsubject ed
Ġglad ness
Ġpartic ip
Ġdest ru
umb ered
Ġacqu ies
Ġlab ours
Ġden ial
Ġshut ting
Ġstar ving
Ġoper ate
Ġoper ator
Ġallow ance
Ġscr atch
Ġpack ard
Ġcro s
Ġdism ounted
Ġhate ful
Ġcorre cted
Ġproject ed
Ġtro d
Ġprofound ly
Ġsovere ignt
Ġleap t
Ġrout ine
Ġresc ued
Ġtrem ulous
Ġmerc iful
Ġunre asonable
Ġbreed ing
Ġult imately
Ġdemonstr ation
Ġaffl iction
Ġchop in
Ġexplos ion
pres ently
Ġchick ens
Ġfreck les
Ġdiscon c
Ġfou quet
Ġwaver ley
Ġbure au
Ġalph abet
Ġremov al
Ġsciss ors
i ating
m ake
n ets
n orm
p iers
s ay
v ard
Ġt ut
Ġt ess
Ġt ame
Ġt el
Ġh ipp
Ġb ass
Ġb omb
Ġf ried
Ġp ots
an th
Ġn ie
Ġe u
Ġre ly
Ġr ouse
Ġr oubles
Ġwe ars
Ġat hens
Ġk itten
ch amp
Ġj et
Ġv ines
Ġcom te
Ġwill oughby
ap se
Ġsp ider
Ġsp encer
Ġqu ivered
Ġbr ink
Ġbr oth
Ġcl ou
Ġgr ub
Ġbl amed
Ġco als
Ġstr ay
Ġho pped
Ġfri vol
Ġind irect
be y
Ġeng ines
Ġcur ly
Ġbar red
Ġblack smith
with in
Ġgent leness
Ġmag dal
Ġexc uses
Ġfoot ing
Ġve iled
Ġaccount ed
Ġdest itute
Ġbra very
Ġdu el
Ġwis est
Ġjour ne
Ġemb arked
Ġstar light
Ġblind ly
Ġcustom er
Ġimpro per
Ġcommun ion
Ġtest ament
Ġep och
Ġsigh ing
Ġcy rus
Ġmagnific ence
Ġappreci ated
Ġfulf ill
Ġafric an
Ġpersist ent
Ġinher ited
Ġdomin ion
Ġdistribut ion
Ġaristocr acy
Ġbeck oned
Ġratt led
Ġscott ish
Ġcha os
Ġprophe cy
Ġexhaust ion
Ġque ens
Ġfost er
Ġorph an
Ġgild ed
Ġaus picious
quar ters
Ġolym p
Ġcelest ial
Ġunbro ken
m ate
s at
Ġt ires
Ġt angled
Ġw ines
er by
Ġc hes
Ġd ipped
or ph
Ġl ull
ar ath
Ġin land
Ġe cl
Ġr amp
Ġwe ird
Ġst unned
Ġher bs
Ġse lection
ri gg
Ġne lson
Ġdo l
qu iet
Ġal mah
ust ra
Ġsp urs
Ġam mun
Ġpe ac
ord s
Ġmiss y
Ġsl iding
Ġcr ushing
ip sy
Ġdist racted
to ld
Ġgen ie
Ġmon seigneur
bo at
Ġblack s
Ġred uce
Ġsn apping
Ġdep ut
Ġhon oured
Ġfear fully
Ġnecess ities
Ġforg iveness
Ġbra zil
Ġterri er
Ġdisp ersed
Ġpa using
Ġdrink s
su ing
Ġsand ford
Ġdelic ately
Ġones elf
Ġstro ve
Ġstation ed
Ġdespair ing
Ġjer sey
Ġfrag ment
Ġly d
Ġconstitution al
Ġtro y
Ġdece it
Ġadmin istered
Ġbloom ing
Ġpenet rating
Ġjar vis
Ġdeliver ance
Ġdoctr ines
Ġfest ival
Ġinse ct
Ġbust le
Ġdisple ased
mean while
Ġprem ises
Ġawaken ing
Ġstreng thened
Ġdroop ing
Ġnick leby
Ġchoo sing
interest ed
Ġparr ot
Ġneut ral
Ġreconc iled
Ġrhe um
Ġparag raph
arath ustra
Ġammun ition
f it
g room
n ish
r ather
u ating
Ġt utor
Ġc ust
Ġto ys
Ġd mitri
Ġth wart
Ġhe ather
Ġhe ark
an o
Ġn u
ut uz
Ġst ony
Ġk o
Ġfr itz
Ġli z
Ġch art
ge ons
Ġor th
Ġno blest
Ġman e
Ġwould st
Ġun self
Ġar ises
Ġcl ing
Ġcl ark
Ġgr aces
Ġbo hem
Ġco gn
Ġad ored
Ġhow ling
Ġpe ers
ert on
Ġob e
Ġmen ace
Ġcr ater
Ġind o
Ġend urance
Ġact ivities
Ġwar fare
Ġsil ken
Ġdel usion
Ġconf ided
Ġche val
Ġbu g
Ġpat ted
Ġpat hetic
Ġswe lling
Ġbur gl
Ġorder ly
Ġstra p
Ġbat hing
Ġsqu at
Ġheav ier
Ġhen s
ov a
Ġcharacter istics
Ġdraw ers
Ġquar rels
Ġbra ke
Ġlu kashka
Ġrap ture
Ġburn s
Ġaccept ance
Ġfix ing
Ġgar b
Ġsick ly
Ġcand y
Ġclean ed
Ġhero ine
Ġkingdom s
Ġinj ure
Ġthreat s
Ġdwell ings
Ġenv iron
Ġobst ru
Ġcath ol
Ġwhit eness
Ġmock ing
Ġjun ior
Ġgrie ve
Ġencl osure
Ġratt ling
Ġpenn sylvania
Ġoppress ive
Ġchem ical
Ġhud son
Ġsax on
Ġapprehend ed
Ġalexandrov itch
Ġeug en
Ġpett ico
Ġworsh ipped
Ġlor ry
Ġanth ony
Ġvin cent
Ġmush room
Ġungrate ful
Ġclou dy
utuz ov
c ies
g ies
s w
v ir
he ment
Ġb orders
Ġf ile
at ches
en er
Ġp au
Ġhe t
Ġl ass
Ġg ull
Ġbe ads
Ġst ations
Ġan at
Ġde pl
Ġcon cess
ra z
ra pher
Ġun ce
Ġab norm
Ġsp un
Ġbr oo
Ġgr ains
Ġus age
Ġpe ck
Ġsm ashed
Ġpre aching
Ġstr at
ect ed
Ġhead quarters
Ġmon ton
Ġeng aging
Ġhard ing
Ġche ered
Ġfull er
od ox
Ġswe lled
Ġbur ial
Ġir ony
Ġstre wn
Ġfort s
og ue
Ġje well
Ġjud ic
Ġve hement
gr ad
Ġmill y
Ġaffect ing
Ġcomfort s
Ġwit ches
Ġshut ters
che ll
Ġben ches
Ġice land
Ġmart ial
Ġdistur bing
Ġbull s
Ġaccident ally
Ġemotion al
Ġspark led
Ġbark ing
Ġlouis a
Ġsore ly
Ġreckon ing
Ġray mond
Ġmock ery
Ġos borne
Ġmonarch y
Ġprocl amation
Ġlust re
Ġcoward ly
Ġcongrat ulate
Ġwick er
Ġmic hel
Ġcandid ate
Ġwhim s
Ġshiver ing
Ġelev ated
Ġster ling
Ġimpr ud
Ġgert rude
Ġcemeter y
Ġdestru ctive
Ġsovereignt y
Ġmonton i
g row
l ud
o nder
s ix
v y
y m
Ġt ire
Ġa u
Ġthe ater
Ġh ound
ed ed
Ġd ances
Ġp ia
Ġn i
Ġg um
om a
Ġe un
Ġu m
ad ig
Ġk er
ro b
Ġch oc
Ġv on
Ġv as
ra ved
ak ov
Ġtr otted
Ġsp acious
Ġgr am
Ġbo ar
Ġco b
Ġover looked
Ġpre cept
air y
co ck
Ġcar ter
Ġlife less
Ġpres by
Ġind ies
Ġdist ances
Ġrep ay
Ġsw ine
Ġrel ent
Ġche es
Ġter ry
Ġread s
Ġcol oss
Ġmet rop
Ġlaw ful
Ġinv ested
Ġra ff
Ġspr inkled
Ġpal ms
Ġsto red
Ġcast les
Ġtrans cend
Ġord inarily
Ġrid ers
Ġdesp ond
Ġtal bot
Ġhop kins
Ġimposs ibility
zz a
Ġstar ve
Ġsitu ations
Ġrub bish
Ġbutter flies
Ġrag ing
Ġdiscover ies
Ġrepresent ing
Ġbask ets
Ġtend ed
Ġundert ook
Ġemp ress
Ġara bs
Ġstupid ity
Ġhab itu
Ġbride groom
Ġhell o
Ġric her
Ġthri lling
Ġnurs ing
Ġnurs es
Ġchat ter
Ġprecip ice
Ġresour ce
Ġtrump ets
Ġstu art
Ġrein force
Ġdoc uments
Ġtort ured
Ġgrind ing
Ġmerr ick
Ġrefresh ment
Ġbefall en
Ġobstin acy
Ġturk ish
spr ing
Ġdepri ve
apart e
Ġautomob ile
Ġpepp ino
Ġmaur ice
Ġguid ance
e rer
j or
j an
o ot
Ġb ah
Ġm ak
Ġto k
Ġp s
or ic
Ġg ipsy
Ġy on
Ġas p
Ġst ature
Ġan ci
Ġk ite
Ġsh ifting
ct ing
Ġfr aud
Ġch anning
Ġv rain
Ġal ma
lf ord
Ġle ct
em per
Ġab ilities
if ice
Ġpl ucked
Ġtr u
au g
we nd
Ġad ieu
ious ness
Ġsc aff
Ġunder go
Ġgl ittered
Ġmo ld
Ġmo lly
Ġcar b
av ia
Ġmat ron
Ġnat ures
sel s
ower ing
Ġwa z
ret t
Ġsub ter
Ġwar med
Ġboy hood
Ġreg iments
Ġhard est
Ġche ery
Ġter rors
Ġtra v
Ġfact or
Ġpresent ing
Ġmor ris
Ġcor k
Ġinv asion
Ġce lls
br ick
Ġut ility
Ġfav ored
Ġbra zen
Ġdisp ose
Ġjoy ce
Ġpict ured
Ġwrong s
Ġarr anging
Ġer rant
Ġmass achusetts
Ġz arathustra
Ġgate way
Ġimpress ive
Ġcustom ers
min ster
Ġtit les
Ġjer ked
Ġassoci ates
Ġvig our
Ġjew ish
Ġfold ing
Ġlit ter
umber land
Ġaust ria
Ġcraw ling
Ġrib s
Ġrepl ies
Ġinex press
Ġconsist ent
Ġruff ord
ndy ke
Ġirr itation
Ġascertain ed
jac ent
Ġexagger ated
Ġinconven ience
Ġslipp ery
Ġstif led
Ġrighteous ness
Ġscant y
Ġagricult ure
Ġmulti plied
Ġfab ric
Ġhann ah
Ġcomprom ise
Ġsentin el
Ġdisreg ard
Ġfel ix
Ġecclesiast ical
Ġcathol ics
Ġscaff old
c as
h all
r ick
s a
s c
s us
in cl
nd a
Ġb ool
Ġf res
Ġf ared
Ġto e
Ġto ll
Ġd ashing
Ġp uls
ar oo
Ġn ik
Ġg ems
Ġbe ak
Ġbe ans
ic ane
se emed
id ers
Ġfor b
Ġr ains
Ġr ites
Ġk ay
os itions
Ġam ory
Ġam ph
Ġcl asping
Ġlo an
Ġsee ks
Ġpart ition
Ġrem ed
Ġsl ices
Ġacc idents
dy s
Ġdist orted
ict ions
Ġrep ast
Ġsw oon
be gan
Ġph ase
Ġfour teenth
ib al
Ġneed les
Ġinf ernal
Ġadm on
Ġpol ar
Ġcat erp
Ġconst ern
Ġten ant
Ġpal p
Ġsoci eties
Ġmur ray
Ġve in
ug al
Ġsuccess or
Ġfront ier
Ġmouth ful
Ġresult ed
Ġincl inations
arch y
Ġgrow l
erv ille
Ġdescri pt
Ġori ental
Ġloc ality
Ġexcell ence
Ġven et
Ġblind ness
Ġspeech less
Ġunf it
Ġmas cul
Ġimper ative
pap a
Ġassoci ate
Ġinquir ing
Ġexplan ations
Ġmood s
Ġprim ary
Ġgown s
Ġdeliber ation
Ġleisure ly
Ġconceal ment
Ġrif les
Ġfount ains
Ġcontribut e
Ġmaxim ilian
Ġpsych ology
itz er
Ġreluct ance
Ġprovin cial
rup ulous
Ġvine gar
Ġrend ers
ste in
Ġrefres hed
Ġadvertis ement
fin ally
Ġbaza ar
Ġhet ty
Ġcaterp ill
Ġconstern ation
c op
r um
v able
Ġ vern
Ġt umbling
in i
Ġw ink
Ġm ace
is ance
Ġp ion
Ġhe res
Ġl ind
le m
Ġe ury
se x
Ġr owed
Ġr aced
Ġk ang
Ġso oth
ro lled
Ġcon sole
Ġup l
Ġv oted
ra h
Ġcom edy
ab ilities
Ġfl own
Ġfl ann
Ġpe cun
Ġsl ugg
Ġfound ations
Ġpers piration
Ġgen ial
Ġgu iche
Ġappe aling
Ġass ign
no body
Ġfew er
Ġdra per
Ġcur ved
Ġbus ily
Ġprom ote
Ġbes et
og rapher
Ġfear less
me as
Ġprof itable
Ġexcl usion
Ġrespect ive
oun ge
Ġfast en
Ġav ar
Ġenc ir
Ġdescri bing
Ġinflu enced
zz y
Ġz adig
Ġmod es
cil ess
Ġexec ute
Ġthreat en
Ġfamiliar ity
Ġbull ets
Ġunhapp iness
Ġexcited ly
Ġbelief s
Ġaugust us
Ġinvol ve
Ġenthusi ast
Ġtar get
Ġtar zan
Ġwinds or
Ġiv y
Ġreven ue
Ġtrif les
bour g
Ġovert ake
fo llow
Ġcontempl ated
Ġdefinite ly
Ġlegisl ation
Ġfow ls
Ġbind ing
Ġinsol ence
Ġcush ion
Ġbenevol ent
Ġexpend iture
Ġenlight ened
Ġkar l
Ġincons ist
Ġtechn ical
Ġmetaph ys
Ġpans y
Ġdyn am
Ġaustral ia
Ġpuss y
Ġtyp ical
Ġmoust ache
Ġrece iver
Ġkenn eth
oor oo
Ġhagg ard
Ġmagdal en
Ġcheval ier
Ġchoc olate
Ġbool ooroo
Ġkang aroo
c raft
f ull
h al
s ues
t is
x ion
Ġo dys
Ġb ates
Ġb iting
Ġc av
Ġp im
Ġp iety
an i
Ġbe aming
ot hered
ay e
Ġan ita
Ġk l
ch r
Ġch ased
Ġor che
Ġman n
Ġle ver
Ġun he
Ġro y
Ġqu ot
Ġim itate
Ġco ins
Ġte x
Ġad jacent
Ġhand writing
Ġper sever
Ġpe eping
Ġapp are
ick ers
co q
Ġcar ing
Ġcons umm
Ġser f
ne ar
man n
Ġac he
Ġgen ji
Ġeng ross
Ġprop ag
Ġadv ances
Ġfin ishing
Ġbes e
Ġbur dens
Ġsch oo
Ġap ert
Ġhat ter
Ġdiv inity
Ġinfl ict
Ġden zil
Ġincl ude
Ġneck s
Ġmagn itude
Ġlower ing
Ġcommun ities
Ġjer k
Ġsolemn ity
Ġdi ary
Ġvir gil
Ġsigh s
Ġflour ish
Ġdig est
Ġrust le
Ġpred e
Ġod our
Ġunl ocked
Ġcam bridge
Ġabsurd ity
Ġtheat rical
Ġtoss ing
Ġcaval c
Ġfund s
Ġtoler ably
Ġoverwhel ming
again st
Ġconquer or
Ġadjust ed
Ġnavig ation
Ġbenevol ence
Ġassass in
Ġoun ce
Ġincess antly
Ġaccus ation
Ġbeau champ
Ġhardship s
Ġincomp rehensible
Ġequip ment
Ġprelim inary
Ġwiz ard
Ġepis ode
Ġabomin able
Ġprete xt
Ġindo ors
f r
f olk
j im
m aker
p oss
s pe
Ġt at
Ġt ides
Ġt umble
Ġs ara
en ne
ing ley
Ġd uc
Ġp ension
it ory
Ġl aced
Ġl ounge
Ġg iles
st ru
Ġre ctor
Ġr anged
Ġst acy
am med
Ġk utuzov
Ġsh ines
Ġso aked
Ġal fred
os h
Ġun rest
Ġar ising
Ġtr ains
Ġsp ied
Ġam iss
Ġen act
Ġen raged
Ġgr ade
Ġpe bbles
Ġsm othered
Ġstr aining
Ġsc am
Ġsc ented
Ġcame l
Ġfo ll
cl aimed
Ġjo king
Ġple ading
Ġsk illed
Ġlar ry
Ġreal ise
Ġsign als
Ġill eg
Ġcirc ulation
Ġsum s
Ġprof its
Ġval or
Ġcross es
Ġpossess ing
Ġsol ve
Ġge ography
Ġthor ndyke
Ġtreat ing
Ġpost erity
Ġjour neys
Ġsac r
olog ist
Ġben j
Ġrepres ents
Ġprev ailing
Ġmotion ed
Ġpra ises
Ġmoder ation
Ġmort on
kn owing
Ġgrad ual
Ġmurm uring
Ġpi ke
Ġcord ially
Ġmyst ic
Ġcop ies
Ġrecollect ed
Ġken w
Ġcontempt uous
Ġfrag rance
Ġglim ps
keep ers
Ġhang s
Ġcam ps
Ġthri lled
Ġnob ler
Ġthread s
pro bably
Ġwire less
Ġbert ram
Ġdivers ion
Ġenqu ir
Ġanton y
Ġbapt ism
Ġkent ucky
sever al
Ġrou let
Ġhub ert
dri ver
Ġtas ks
Ġplent iful
Ġadequ ate
Ġvanqu ished
Ġtel es
Ġenviron ment
j a
p ath
Ġb ened
Ġth o
Ġha ze
ot le
se us
id ays
Ġat one
Ġsa ith
th ia
Ġall uded
ind le
Ġun se
Ġab ject
Ġsp it
Ġpro ving
Ġen ig
Ġte brick
ab ille
Ġfl ows
Ġmu zzle
orn e
Ġem bod
Ġimp le
Ġimp enet
pect ive
Ġind ol
Ġel astic
Ġwar like
Ġinte gr
Ġass umption
Ġconf idently
Ġev ans
Ġsim pson
Ġadv is
Ġpat ric
Ġhon ours
Ġrec ourse
Ġbat tered
Ġappro bation
Ġut il
Ġexcl usive
Ġfre ight
Ġsal mon
Ġrid dle
Ġdesp atched
Ġaccept able
Ġmess engers
Ġoccup ations
Ġoblig ations
Ġpeculiar ity
Ġsystem s
Ġdav is
Ġprocess es
Ġtravel ers
Ġble ak
Ġtriumph antly
Ġbuck ingham
Ġsecure ly
Ġmillion aire
tw enty
Ġemer gency
Ġprint ing
Ġcorrect ly
Ġimpl ored
Ġstat ues
Ġimprove ments
Ġdistrict s
Ġconven ience
Ġfasc ination
Ġtow ering
Ġapprehens ions
Ġmast ered
Ġreluct ant
Ġmiser ably
Ġener gies
Ġperch ance
Ġmerr iment
Ġment ally
Ġsic ily
Ġenlar ged
Ġdisadvant age
Ġcongreg ation
unci ation
occup ied
Ġstan ley
Ġcompart ment
Ġbicy cle
Ġanci ents
Ġpecun iary
b ad
d an
t ie
u cc
u ition
u gn
Ġt ren
Ġs ite
Ġb ingley
Ġd ante
Ġp on
Ġp airs
Ġg ables
Ġbe arer
ir ation
Ġr amb
Ġan ec
Ġse ctions
Ġshe w
ri ers
Ġso j
Ġsu ite
Ġde ity
Ġde ference
Ġmy ri
Ġcon vert
Ġch aff
Ġj erv
ant i
Ġsp raw
Ġag gress
Ġbr us
Ġcl air
Ġhow ard
Ġunder gone
Ġgl ove
co d
Ġacc use
Ġcomm iss
Ġatt ic
Ġsaw yer
Ġcour ses
Ġarm strong
Ġexp ose
Ġhum b
Ġfam ine
Ġsle igh
Ġpower less
Ġsn ug
Ġtri gger
Ġext ension
Ġmer ciless
Ġsign ify
Ġdri ves
Ġcut ter
Ġdisc rim
Ġstra gg
Ġequ ival
Ġsense less
Ġlen a
Ġstraight way
Ġplan ning
Ġneg lig
Ġconn iston
Ġtemper ance
Ġdisappe aring
Ġhost s
Ġprotect or
Ġpropert ies
Ġpit ied
Ġwear ied
Ġcollect ing
Ġpier ce
Ġshame ful
Ġpersu asion
every body
Ġshel ves
Ġsen or
Ġcord s
rem ember
Ġdesper ation
Ġstiff ly
Ġhint s
Ġstret ches
Ġaust in
Ġemph atically
Ġlaun ched
Ġextend s
Ġuncertain ty
Ġdaz ed
Ġportra its
Ġsurv ive
Ġbarb icane
Ġornament ed
Ġappar ition
Ġaccur acy
kh lud
Ġmaz arin
Ġenchant ment
Ġmascul ine
Ġprede cess
Ġanec d
khlud off
a ic
e a
j ack
r ity
t el
v oc
y d
Ġt ucked
in burgh
Ġo re
Ġb ac
en g
en n
Ġd ab
Ġd row
Ġp ins
Ġl oses
as se
an se
ve ying
Ġr oo
Ġwe ed
am an
Ġat om
Ġk adok
il iar
ge e
Ġj ol
Ġj ake
Ġv ot
ast e
Ġun pr
um er
Ġpl ight
Ġar rog
Ġsp ru
Ġbr ad
ag ged
Ġcl apping
Ġcl enched
Ġsm ugg
Ġsc ope
Ġwhere of
Ġsl o
Ġcomp ose
Ġnight fall
Ġret iring
Ġla z
ub en
ret urned
Ġsw itch
Ġgu inea
Ġmon sters
Ġass ailed
Ġbre nda
Ġste w
Ġste ven
Ġcur ves
Ġed inburgh
Ġmet als
sh aw
Ġneed less
Ġred d
Ġmil burgh
Ġmor bid
Ġcor inth
Ġinv aded
Ġrec re
Ġmer lin
Ġhur ts
Ġca ves
Ġclear ness
pend ing
Ġterri f
Ġthird s
Ġconvers ed
Ġbound ary
Ġimm at
Ġfut ile
Ġflat tery
Ġclean ing
Ġmal ady
Ġattack ing
Ġpoet ic
Ġhol iness
Ġrail ing
Ġune qual
Ġbir ch
Ġodd s
Ġprincip ally
Ġcontempt uously
Ġindust rious
Ġvic ious
Ġengage ments
Ġdise ases
Ġwake m
Ġident ified
Ġnurs ed
Ġpron ounce
Ġrender ing
Ġsed ley
Ġexception al
Ġshirt s
Ġeleg ance
Ġmerc ury
Ġaccur ately
ko ki
Ġprett iest
Ġdrown ing
Ġark ady
Ġdiscont ent
Ġluxur ious
Ġincess ant
Ġbesie ged
Ġpam ph
Ġforef inger
Ġsuperfl uous
Ġorth odox
Ġflann el
Ġjerv is
c ur
g ars
k now
m ot
m ine
u ber
Ġa ub
Ġs ane
Ġd ess
Ġp om
Ġp aced
it iveness
an ity
Ġn it
ot ent
Ġwh oop
Ġse mb
Ġsa fer
ul ity
Ġj ed
Ġal an
Ġpr icked
Ġaf t
Ġcan on
Ġen m
Ġbo g
Ġknow est
Ġco d
Ġover se
cc ess
Ġfl ashes
ci ly
Ġgood ly
Ġlong est
Ġsc ree
Ġgl oss
ren ched
ud ged
anc ourt
Ġjo ints
vent ion
Ġgen us
Ġkind led
Ġcle ve
Ġwater fall
Ġev ap
Ġmet all
Ġlay s
Ġsn ub
Ġreason ed
Ġrec ur
where as
Ġconst able
Ġcir cling
Ġmad man
Ġnum bered
Ġsleep s
Ġfellow ship
Ġeffect ually
Ġsal ad
Ġsens ibility
Ġhat ch
Ġdet ailed
Ġbear ings
Ġsuper ficial
Ġwinter bourne
Ġphys ically
Ġben net
Ġcalm ness
Ġhabit ation
Ġjudge ment
Ġhol idays
Ġfer gus
Ġgloom ily
Ġspect ator
Ġperform ing
Ġrepresent ation
Ġfox es
Ġep ist
Ġenv ious
Ġuns us
Ġdun can
Ġaim s
Ġpow dered
Ġsubs ided
Ġaven ge
Ġcraw l
gu ard
Ġcalcul ation
Ġexert ed
Ġinex pl
Ġanticip ation
Ġtoler able
Ġintr ins
Ġtyr ann
Ġaltern ately
Ġsolic itude
Ġgeor gia
Ġpersec ution
Ġdefect s
Ġsquee zed
Ġmit chell
Ġoun ces
Ġhunts man
Ġcorp oreal
Ġcla vering
Ġclare nce
Ġtrop ical
Ġfrivol ous
Ġkenw igs
m are
t own
t les
Ġt int
he nt
Ġa ided
Ġb ould
Ġb ung
Ġb aw
Ġi ro
Ġc air
on ge
ar act
ll ey
Ġin co
Ġg ains
Ġbe re
ut tered
id y
Ġas pir
Ġfor cing
Ġis a
Ġk ara
Ġse w
Ġse ct
Ġsa bb
Ġli ed
Ġli very
Ġdo le
qu ois
Ġal ms
art on
Ġcom pe
Ġout burst
Ġun ite
Ġar ched
Ġtw igs
Ġcan op
Ġcan als
Ġbl under
Ġim b
ment ed
Ġapp rent
Ġapp alling
Ġsc y
Ġsc an
Ġmo ll
Ġfar thest
Ġrep ugn
Ġgu ineas
Ġreg ister
Ġhel ium
Ġconf ine
ps y
Ġins ight
ond s
Ġsent ry
sh ad
Ġpar ch
Ġpat ients
Ġext inct
Ġsing er
Ġce as
Ġsum ter
Ġfoot pr
aw ares
Ġpal er
Ġcold ness
pend icular
Ġdem ons
Ġsmo othed
Ġdet ain
head ed
Ġstop s
Ġloc ated
Ġadmir ably
Ġdim ensions
Ġmal icious
ev itch
Ġpi geon
Ġfer din
Ġpack age
Ġrul ing
rid ges
hold ing
Ġamaz on
mar ried
Ġcro ps
Ġhorri fied
Ġconstant in
Ġassemb l
Ġconvin cing
Ġbol ts
Ġmanif ested
Ġoutl aw
Ġoutl ines
Ġling er
Ġchat tering
Ġsimpl est
Ġblaz ed
Ġscore s
Ġexcess ively
Ġjen ks
Ġattribut e
Ġjun ction
Ġvivid ly
Ġnet her
Ġgrin ning
Ġchamp agne
Ġtransl ation
Ġtransl ated
Ġarchite ct
Ġcrou ching
Ġfrown ing
Ġprow ess
Ġamend ment
Ġflu id
Ġhebrew s
Ġfitz piers
Ġhaunt s
Ġgret el
Ġconserv ative
Ġchival ry
Ġcoss acks
Ġgid dy
Ġcarav an
Ġphilosoph ical
Ġmischie vous
Ġpresby ter
Ġimmat erial
Ġiro quois
Ġferdin and
c ott
g al
g ering
m ith
n ame
Ġ ern
Ġt ense
Ġs ings
Ġw rigg
Ġh ive
en cing
Ġto ol
Ġd ia
Ġd iction
it ar
it ives
Ġl inton
Ġin ference
Ġn imble
Ġg in
Ġg wend
Ġe pic
ur ation
Ġnot able
ac rity
Ġse p
Ġsh ack
ri fied
ch al
Ġso ck
Ġfr at
fe it
Ġpl aus
Ġtr uce
Ġro oted
Ġbr ack
pt uous
Ġoff spring
Ġstr ata
Ġmo aning
Ġcomp r
Ġcar rie
Ġdon ald
Ġnew com
Ġend uring
Ġarm and
Ġac hed
Ġsupp ress
Ġmon ica
Ġexp osure
Ġpur itan
Ġmorn ings
Ġsk irm
Ġhigh land
Ġbar ley
Ġbar rels
Ġcat aract
Ġcor onel
Ġdoubt fully
ys er
me g
ah ad
Ġmus ing
Ġval ancourt
Ġbright ened
Ġlu fton
Ġinfl icted
Ġrom ola
Ġyouth s
Ġpost ure
Ġgall eries
gar ia
Ġreply ing
Ġemplo yer
Ġciv ility
Ġhost ility
Ġconce it
Ġconce aling
Ġfond ly
Ġfrank ness
Ġreve rent
Ġaccompl ishment
Ġow es
Ġinterp re
Ġretreat ing
Ġflag s
Ġtrad er
Ġarist otle
Ġrecommend ation
Ġcontempl ate
Ġmelt ing
Ġentreat ies
la us
Ġbewild er
Ġmarve lled
Ġalter ation
Ġsurre ndered
Ġstu pe
Ġflee ce
Ġreass ured
Ġoppon ents
Ġentr usted
Ġbisc uit
Ġrans om
Ġconfer red
Ġexter ior
Ġpulp it
Ġbaff led
Ġelph ick
Ġmirac ulous
Ġhorizont al
Ġyach t
Ġingred ients
Ġhered itary
Ġpeac ock
Ġpia zza
itzer land
Ġappare l
Ġsacr ament
Ġbenj amin
d ust
h o
h ouses
n ikov
v ie
y ll
y gen
Ġt inder
in ished
Ġc ore
en na
Ġd und
Ġd aint
Ġin asmuch
Ġn ett
Ġg our
Ġbe ats
Ġy ale
im a
ay ne
Ġhis sing
Ġnot hin
ac o
ro be
Ġde leg
Ġdo se
qu er
Ġch ir
Ġal acrity
Ġkn ots
Ġun it
Ġwill s
Ġar ctic
Ġcl asp
op ened
Ġlo ath
Ġdis se
Ġdis interested
Ġper pendicular
Ġlook out
ath y
Ġcomp ound
Ġcomp let
Ġimp ly
Ġsw an
Ġgi b
Ġreg inald
Ġma ze
Ġmin i
Ġmin istry
Ġins ufficient
xt on
Ġref inement
Ġinter fered
Ġmet ers
sh ot
Ġca ress
Ġwall er
br and
Ġobject ive
Ġdev ast
Ġflo ors
Ġstri ps
Ġregard less
Ġpay s
Ġresol utions
Ġsuggest ive
Ġbound ing
Ġbound less
Ġstream ed
Ġmut tering
Ġdesert s
Ġaccompan ying
Ġcro cod
Ġbetr othed
Ġbaron ess
Ġscra pe
Ġmedic ines
Ġcheerful ness
Ġren own
Ġjac ques
Ġexert ions
Ġinex per
Ġgal ahad
Ġphot op
Ġfant ine
Ġfain ting
Ġted dy
Ġjail er
Ġlur king
Ġfern s
Ġmathem atics
Ġspoon ful
Ġunacc ountable
Ġelm wood
Ġfug itive
Ġcoinc idence
Ġfyodor ovitch
Ġcyl inder
Ġwhar f
Ġtiss ue
Ġjur is
Ġther m
Ġimpenet rable
Ġsoj our
Ġequival ent
Ġenm ity
Ġconstantin ople
l ad
m ous
p eter
t urning
v il
Ġt ant
Ġt umb
Ġo mitted
Ġb ony
Ġd ip
Ġp ens
ow ay
ld ron
Ġre cip
Ġli ar
Ġli vid
Ġal co
un cle
fe eling
Ġun covered
Ġar b
Ġsp at
Ġbr ay
Ġcl ap
Ġgr aciously
other s
Ġad ore
Ġfl ing
Ġmar ine
Ġmu koki
Ġmo aned
Ġcr an
Ġcar l
Ġacc ost
Ġnight mare
Ġret ic
Ġmat er
Ġnor ah
Ġrel atively
Ġexp anse
ual ity
Ġsk iff
Ġfore seen
Ġinter n
Ġtra its
Ġbro om
Ġred oubled
pr it
Ġhar rington
Ġhope lessly
Ġcor on
Ġhorse man
Ġfort ified
Ġexpl od
Ġmist y
Ġrose mary
Ġap o
Ġdef y
Ġacqu is
Ġpa ved
iter ated
Ġstraight ened
Ġchair man
Ġsuggest s
Ġer a
Ġdemand ing
Ġmention ing
Ġcoll ins
Ġstar vation
Ġmir iam
Ġur ging
Ġmort imer
Ġsocial ist
Ġdescend ants
Ġregular ity
Ġow en
Ġunf av
uls ion
Ġfruit less
Ġcrim inals
Ġsylv ie
ograph ical
Ġimmense ly
Ġproject ing
Ġwes ter
Ġcorrespond ent
Ġbeard ed
Ġcompar ative
Ġillust rated
Ġdesir ing
Ġchim neys
Ġprec ision
Ġandrew s
Ġdart ing
Ġinsult ed
Ġoath s
Ġshield s
Ġsoot he
Ġtrim med
Ġsurv ived
Ġtorrent s
Ġindic ations
Ġapost le
Ġcens ure
Ġstreng then
Ġfaire r
Ġhoop driver
Ġdilig ence
Ġprest y
obs erved
Ġmoo re
Ġtet e
Ġreappe ared
Ġconspir acy
Ġdemean our
Ġplaint ive
Ġunmist akable
Ġigno red
Ġgord on
Ġhurst wood
Ġarbitr ary
Ġplung ing
Ġtires ome
Ġwaz ir
Ġtex as
Ġhatter as
Ġceas eless
Ġbewilder ment
b ook
g i
o king
r ac
s ays
s aying
u k
Ġt rench
Ġa ri
Ġthe ology
Ġs ash
Ġw ail
Ġo ar
Ġh ier
Ġh inges
Ġm oth
Ġc res
Ġd au
Ġth ur
or ms
Ġhe ster
Ġl ashes
ar ia
Ġg oth
Ġe aves
Ġwas ting
gh ai
ion ess
Ġr ick
Ġr oss
Ġwith al
am orph
Ġk laus
ke eping
th inking
Ġne khludoff
Ġv ouch
the d
Ġle coq
Ġcom pel
Ġwill is
Ġsp ade
Ġqu ote
Ġtw inkle
we alth
Ġgr umbled
Ġte aches
ab ove
Ġfl ound
Ġfl irt
Ġstr ains
Ġstr ayed
Ġrem in
Ġlet s
Ġcar leton
Ġpres cribed
Ġatt ach
Ġnor m
Ġform ula
Ġsub miss
Ġmin ing
Ġgener ously
Ġins urrection
Ġinc once
Ġinter medi
Ġstand ards
Ġlay er
when ce
Ġes qu
Ġcou rier
Ġmag ical
Ġcorn wall
gr and
Ġeat s
Ġsweet heart
Ġmed itation
Ġmary land
Ġforget fulness
Ġcoun sell
Ġund es
Ġund one
Ġgall oway
Ġvan ish
Ġant ique
Ġgar th
Ġweak ened
Ġpeter kin
Ġtall er
Ġpor ridge
Ġflat tering
Ġmir rors
Ġdom est
Ġadvent urous
Ġeld ers
Ġmarch ioness
Ġsimilar ly
Ġber g
Ġcart s
Ġbay on
Ġcy cl
Ġtempt ing
Ġcere br
Ġflour ishing
Ġfac ility
Ġox ygen
Ġegypt ians
Ġze alous
Ġfid dle
Ġrude ly
Ġvac ation
Ġhistor ian
Ġtick ets
Ġcompet ent
Ġmodest ly
Ġslop ing
Ġinward ly
Ġautom atic
Ġfors ake
sp read
Ġestim ation
Ġcondemn ation
Ġburg und
Ġscript ures
Ġvag ab
Ġloos ened
Ġcommence ment
Ġbatter ies
Ġnig ger
Ġcarth age
Ġdesol ation
Ġundist urbed
Ġomin ous
Ġpersever ance
Ġglimps es
Ġinexpl icable
Ġsabb ath
Ġdund ee
b ald
c ass
c ourt
h ist
h app
i os
l is
p ard
s um
w are
w omen
Ġa val
in ian
Ġw aked
Ġo gre
Ġm akers
Ġf ading
at ism
is ans
Ġp ent
Ġp acing
Ġth ar
or ters
or gan
Ġhe aved
it ches
it ative
as ms
Ġin ve
Ġst ung
Ġnot orious
am ond
Ġat ro
Ġfr aser
Ġne v
Ġv owed
Ġno ses
Ġal oof
the ast
Ġout fit
em pl
Ġar ches
Ġsp lin
Ġam os
ag re
Ġgr unted
Ġbl ues
Ġdis gr
Ġim pe
Ġim pending
Ġpo yser
Ġmar qu
Ġpre val
cl iff
Ġhead ache
Ġem inently
Ġacc l
Ġser p
Ġmat es
Ġind ig
Ġple a
Ġchar lest
Ġsw itzerland
Ġcap ric
cept ibly
Ġsound ly
Ġsign ifies
Ġsecond ary
Ġfort itude
Ġdream y
Ġprov iding
Ġdin ners
Ġhot ly
Ġdef iant
Ġsol ved
Ġmem or
Ġpurpose ly
Ġthor is
Ġant s
Ġger m
Ġloc ation
Ġconnect ions
Ġprotect ing
Ġluck ily
Ġmal ic
Ġrevol utions
Ġcourage ous
Ġmort ification
Ġcup ful
Ġdevelop ing
Ġcollect or
Ġloss es
Ġinj ur
Ġpill ows
Ġhom age
Ġtend s
Ġber win
Ġhosp itable
Ġenv ied
Ġpursu its
Ġpopular ity
Ġruss ians
Ġshock ing
Ġcher ish
Ġfred eric
Ġpred omin
Ġconsult ation
Ġtransp orted
Ġcraw ley
Ġtomb s
Ġchuck le
Ġboast ed
Ġmaxim s
Ġbatt al
Ġdepos it
inte llig
Ġmourn fully
Ġseren ity
Ġhospit als
mans hip
Ġenqu ired
Ġscold ed
Ġsund ays
Ġchoo ses
Ġalexandrov na
Ġbour ge
Ġthrob bing
Ġpagan el
Ġstealth ily
Ġsyll able
Ġstrang est
Ġvigil ance
Ġunsu ccess
sure ly
Ġejac ulated
Ġcrick et
Ġmatrim ony
Ġeun uch
d est
h ap
l ove
p ow
t ry
v ia
w re
Ġt ipped
he res
in ued
Ġo o
Ġo val
Ġh oo
Ġm ound
Ġto wel
Ġp ose
Ġp anted
Ġth igh
Ġth ump
Ġl acked
Ġl ashed
ar re
Ġin ert
Ġn ets
Ġre ci
Ġsh red
ri ans
Ġso v
Ġde jah
Ġcon ceptions
Ġdo ck
Ġv ase
Ġex empl
un s
Ġun question
Ġwill ows
Ġpl a
Ġro gers
Ġsp er
Ġgr ating
Ġgr udge
ab b
Ġper se
Ġpre ached
Ġgl enc
Ġdes erving
Ġcomm otion
ced es
be aring
ple ase
Ġass y
Ġwo ven
Ġcare lessness
Ġhum ane
Ġcol bert
Ġgra pe
Ġdr ums
Ġmet amorph
Ġhar row
Ġstart s
Ġhur ric
Ġfur t
Ġquick ness
my on
Ġbat he
Ġappro aches
Ġscar f
Ġhill side
Ġbra vest
Ġpublic ation
Ġsho vel
Ġcircum s
ex claimed
Ġast ray
Ġav on
Ġarr ayed
Ġweek ly
Ġcloud ed
Ġbal anced
Ġpit iless
Ġlin ley
Ġpin ched
Ġshr inking
Ġaud acity
Ġappl aud
Ġdun geon
Ġexceed ed
Ġsha ved
Ġhaw kins
Ġbond age
Ġrefer ring
Ġlap se
Ġrepl ace
Ġconsid ers
Ġaver ted
pro v
Ġwre cked
Ġapply ing
Ġinterpret ed
Ġdomin ions
Ġroast ed
Ġtorment ed
Ġwip ing
Ġjos ie
Ġconvict s
Ġlic ense
Ġanton ia
Ġdiscl osed
Ġcha ise
Ġcontri ve
ilet t
Ġvolcan o
Ġsculpt ure
Ġenlight en
Ġconfirm ation
Ġinquis itive
Ġimpud ence
Ġtrib un
Ġglist ening
Ġnoiseless ly
Ġdissatisf ied
Ġpou lt
Ġgram mar
Ġcaterpill ar
Ġodys seus
Ġbese ech
Ġroulet abille
Ġredd ish
Ġsemb lance
Ġmetall ic
Ġapo llo
m unk
x im
re al
Ġf ul
Ġf alk
Ġd ough
Ġd ye
Ġd andy
Ġp ail
Ġl ick
Ġn az
Ġy ose
Ġas se
Ġr aged
Ġher b
am mon
Ġk irk
Ġsh am
Ġsh od
ri um
Ġsa uc
th ings
Ġcon ne
Ġch ry
Ġj ars
Ġor de
est ine
ant on
ie re
Ġab bot
Ġmis le
Ġpl ut
Ġro le
ck er
Ġper ils
Ġpo d
ving ly
Ġmar ion
ile y
Ġgl iding
Ġcont ing
ff er
Ġsl ung
ber y
Ġcar rier
Ġpres erving
Ġcount ies
Ġsw iss
Ġact or
Ġsub mer
be ard
land o
Ġrel ish
Ġboy ish
Ġreg ulations
Ġhel ps
ier re
Ġmin ers
Ġinde c
Ġinter ch
Ġbus hy
Ġmet e
Ġneed ful
Ġpar ap
Ġsuff ers
Ġpri zes
Ġoften er
Ġpret ensions
Ġmist r
Ġdev oid
Ġwalk er
Ġmur phy
Ġexcl uded
Ġanim ation
Ġdiv iding
Ġdet ached
Ġsho ots
Ġdesp ot
Ġdepart ing
Ġguard ians
Ġgro cer
Ġgro aning
Ġgrass y
Ġsav iour
Ġnarrow ly
Ġsin ner
Ġmod ified
Ġinno c
Ġpot ential
Ġinterrupt ing
Ġintrodu cing
Ġconstit utes
Ġpan es
Ġlibert ies
Ġjer ome
father s
Ġuns pe
Ġtempt ations
Ġsha res
Ġrust ic
Ġflood s
Ġplate au
Ġstamp ing
Ġsne ered
Ġluc ie
Ġhed ges
Ġmast s
Ġtempor arily
Ġclut ching
Ġjeff rey
Ġaccomplish ments
Ġswar m
Ġapost les
Ġdazz led
Ġdissol ved
Ġprophe ts
Ġdegr aded
Ġrelax ed
Ġnour ishment
Ġponder ous
Ġexclaim ing
Ġchip munk
Ġdul c
fig ured
Ġmord aunt
Ġleop old
Ġcontrovers y
Ġhabitu ally
Ġtren ches
b en
d ick
d rop
f ind
h aw
l ane
m ite
o lf
Ġt angle
Ġa isle
Ġthe ore
Ġf ade
Ġd ens
Ġhe arers
Ġg estic
st ones
Ġre he
Ġu l
Ġr y
ad ac
Ġnot ting
Ġsh iny
Ġme g
il ated
Ġde uce
Ġfr ant
Ġfr inge
Ġall ied
Ġch illed
Ġch illy
Ġint uition
Ġout let
Ġtr ading
Ġbl ond
Ġbl asp
Ġco co
Ġper ry
Ġoff ense
Ġmiss ou
Ġmo an
Ġfri g
Ġjo am
Ġsaw dust
Ġwa vering
ier ra
Ġconf ound
Ġmin st
bo ld
Ġgra pp
sh am
Ġvis ibly
Ġinf id
Ġfull est
Ġlat ent
Ġserv adac
Ġpat ting
od a
Ġdec ency
Ġmount joy
Ġconst r
Ġca us
Ġstep an
Ġfoot men
Ġdisc er
Ġship wre
Ġwin ked
Ġsal ut
Ġann ivers
Ġtrans mitted
Ġtor ches
Ġdirect ing
Ġwhis pers
Ġthor ac
Ġcoun cill
Ġhy dro
Ġmusic ians
Ġemb ark
Ġven om
Ġblind s
Ġestab lishing
Ġstro ked
ium s
Ġbold ness
Ġseason ed
Ġamount ed
Ġlabor atory
Ġbrill i
Ġuns atisf
Ġmaint aining
bb led
Ġmood y
Ġsha fts
Ġlux uries
Ġscorn fully
Ġcelebr ate
Ġsne er
Ġpropos als
Ġpool s
Ġembr acing
Ġcomprehend ed
Ġembro id
Ġcorrupt ion
Ġliver pool
Ġtu ft
Ġparson age
Ġrecess es
Ġvolcan ic
Ġvolunt arily
Ġabol ition
Ġquarre lled
pen how
Ġscrut iny
Ġseam en
Ġpic nic
Ġeug ene
Ġmeek ly
Ġyor ke
Ġlabore rs
child ren
Ġeman cip
Ġcabb age
Ġmalign ant
Ġsquad ron
Ġlyd ia
Ġabnorm al
Ġremed ies
Ġapert ure
Ġarkady evitch
Ġparch ment
Ġmini ature
b ill
c at
c ity
k ily
m us
p ose
w ald
Ġa ld
Ġh ooks
Ġand ers
Ġd orm
Ġp em
it in
as ingly
Ġg em
Ġbe ren
ot hing
Ġy arn
ve lled
Ġre uben
Ġr owing
ur ally
ac cess
Ġk al
Ġse als
Ġme llow
Ġde form
Ġde arer
Ġall y
Ġcon es
qu in
Ġor ator
Ġare as
Ġun heard
Ġun armed
em on
Ġar ouse
Ġro cked
Ġsp hin
Ġen force
Ġcl ick
Ġgr umbling
Ġgr amm
Ġbo on
Ġco il
ci a
Ġpo ndered
Ġmu llig
Ġthr ows
Ġwhere with
Ġho lly
Ġho isted
Ġjust ification
Ġmo ons
Ġsl ate
Ġcomp ensation
iz zy
Ġjo kes
Ġla unch
ne arly
Ġkne el
Ġrep ress
Ġrep ented
Ġappe als
Ġins piring
Ġkeep ers
Ġtra iling
Ġsun be
Ġdr ained
Ġblack ened
Ġsn atch
Ġcou ghed
Ġopp osing
Ġra is
Ġfell er
Ġshort est
Ġconst rained
Ġmid day
Ġdev ised
Ġhair y
Ġsoft ness
Ġgrand son
Ġgovern ors
Ġcommon wealth
Ġexcept ions
Ġsol ar
Ġsho em
Ġcomfort ing
Ġdeterm ining
Ġconvers ing
Ġconvers ations
Ġcamp ed
Ġforget s
Ġtrust ing
Ġpet rov
Ġtur mo
Ġben ny
Ġstro king
ev a
Ġdepend ence
Ġris ks
Ġess ay
Ġmart ians
Ġunf air
Ġaut hent
Ġcontent ment
Ġafford s
Ġrad ical
Ġthrust ing
Ġremind s
Ġadventure r
Ġta unt
Ġunp re
Ġren ounce
Ġcalcul ations
Ġinvestig ate
Ġcaval ier
Ġped est
Ġadvert ising
Ġfors aken
kh ov
Ġwander ings
Ġachieve ments
Ġpled ged
Ġdub lin
Ġimpert inent
Ġsanct uary
Ġaccum ulated
Ġagricult ural
Ġgamb ling
Ġfug itives
Ġrever ie
Ġpavl ovna
Ġveter an
Ġguarant ee
ucc io
Ġcerebr al
Ġbourge ois
pow der
Ġberen garia
Ġsphin x
Ġmullig an
b one
g ery
g race
h op
h ab
m atic
in st
Ġs ard
Ġw an
Ġw itty
Ġb ash
ed e
on n
Ġd ent
Ġd izzy
Ġl lo
Ġn il
om bs
Ġe f
ut ton
ic ans
ic ism
Ġwh arton
im ore
ce ls
Ġu d
et to
Ġk ittens
ch a
Ġsa p
Ġfr ying
Ġall ows
Ġthere on
Ġgo lf
Ġun married
ak y
Ġen l
el ie
Ġknow ed
Ġim meas
Ġco pe
Ġover throw
Ġper kins
Ġper verse
Ġsc ots
Ġsc atter
Ġho g
Ġacc ents
Ġear ning
get ically
Ġheart less
Ġarm ch
Ġrel inqu
Ġins cription
Ġcur l
Ġinc ur
Ġev in
Ġspo ons
Ġspo ils
az ed
Ġswe eter
Ġplay ers
Ġwood ed
Ġinv in
Ġce asing
jo yed
Ġaff ront
Ġexpect s
Ġpen ance
Ġpen rod
Ġconc ur
Ġsatisf ying
Ġstri pes
umb ent
Ġquar ry
Ġhot els
Ġvar ieties
Ġdeal er
Ġord in
Ġord ained
Ġmem orial
Ġge ar
Ġden ying
Ġrev ive
Ġfro lic
Ġbreath lessly
Ġemb ass
Ġsym ph
Ġgro ves
olog ists
Ġsilver bridge
Ġsorrow fully
Ġdick ens
Ġham pton
Ġcott ages
Ġscr atching
Ġimpro bable
Ġserious ness
wor ks
Ġbas ement
ik i
Ġcoast s
Ġforeign er
Ġforeign ers
Ġtend ing
Ġprefer able
Ġbor ough
Ġmult ip
Ġdur rance
Ġbon aparte
Ġcop ied
Ġaugust a
Ġhut s
Ġsupply ing
Ġindul gent
Ġgas co
Ġpant her
Ġpant ry
Ġrecon cile
Ġjan et
Ġworry ing
Ġdoub ly
Ġconfeder acy
Ġreform ation
Ġreb els
Ġba it
Ġthorn s
Ġivan ovna
Ġimmort ality
Ġbou cher
Ġshudder ing
Ġdishon est
Ġwoo zy
Ġambit ions
Ġpilgrim age
Ġsquir rels
Ġeleph ants
Ġdiver ted
Ġestim ated
Ġpatriot ism
accord ingly
Ġimpet uous
Ġimagin ative
Ġoverp owered
Ġvit ality
Ġsubord inate
Ġpest il
eight een
Ġdelir ium
Ġdanc ers
Ġcros bie
Ġheark en
Ġforb ade
Ġavar ice
Ġteles cope
Ġdia lect
Ġserp ents
Ġyose mite
Ġannivers ary
d ur
j ane
u ble
Ġt ul
Ġt ony
Ġb owers
er st
Ġm ong
Ġc ement
Ġp and
Ġg ilt
Ġg asping
im ited
Ġsa llie
il ib
Ġde ception
Ġde bray
pp ings
Ġdo gged
ul u
Ġv ene
Ġor lando
est one
res pect
Ġun res
Ġun intellig
if er
ol nikov
Ġtr ough
Ġro chester
Ġro gue
Ġpr uss
Ġag ency
Ġtw ig
Ġbr utes
Ġam en
Ġam ate
Ġlo ads
Ġus hered
ade qu
Ġad ult
Ġover came
ab ul
Ġhand ing
Ġthese us
Ġho vel
co x
co al
Ġcr acks
Ġem mon
ks hire
ark a
Ġput ney
Ġel im
be h
not iced
Ġreg ain
she v
Ġexp ans
Ġwater y
Ġside ways
no ld
Ġche ers
bo ys
Ġadd s
Ġgre ase
Ġunc ont
Ġpat ernal
Ġmor sel
Ġdep ot
Ġmaster y
Ġwall ed
me re
Ġmag pie
Ġap olo
Ġthir tieth
Ġut op
Ġexpress es
Ġstay s
Ġann ouncing
umb ers
Ġlaugh ingly
ask olnikov
Ġlab ou
Ġphil anth
Ġmed dle
Ġfle x
Ġhist ories
Ġwatch man
Ġdescri bes
Ġstro ll
Ġindividual ity
Ġaffection ately
Ġvast ly
Ġinj uries
Ġsplendid ly
Ġdor othe
Ġpill s
Ġstuff y
Ġsteam ing
Ġcrit ics
Ġqual ified
Ġglim mer
Ġvoy ages
Ġrequire ments
Ġrobert s
Ġmax well
Ġimpl ac
Ġfil thy
ino is
Ġdwarf s
Ġgrav y
Ġbarbar ians
Ġtyr ants
Ġpall id
Ġglac iers
Ġcontinu ance
Ġarab ian
Ġstim ul
anim ity
Ġtram pled
Ġstall s
Ġbrist ol
oft en
Ġscold ing
Ġcru ise
Ġcolon ial
Ġbarr ister
Ġsid ney
Ġaccommod ation
Ġastron omy
Ġdissip ated
Ġtablespoonful s
mad ame
Ġlabore r
Ġcontempor ary
Ġswed en
Ġgaw aine
Ġhumph rey
Ġshah raz
Ġbrun o
Ġrak itin
Ġquer ied
Ġobliv ion
Ġnathan iel
Ġtenn is
Ġorche stra
Ġcanop y
Ġnotting ham
Ġmissou ri
Ġthorac ic
Ġturmo il
Ġshahraz ad
c ry
c ount
h uman
l so
o a
s low
Ġt inge
Ġa lder
in ny
Ġthe a
Ġthe ft
Ġs ower
Ġo le
Ġo men
Ġo ats
Ġh uck
Ġm ous
Ġm unch
Ġto iled
Ġd ive
Ġth ong
Ġhe al
es ley
ar ious
Ġin access
Ġn ests
om te
ot y
Ġre wards
Ġas under
Ġsh im
Ġso da
Ġch ie
Ġex it
ant ine
Ġgo pher
os ph
Ġout come
Ġab re
Ġab used
Ġro c
Ġqu ilt
ort on
Ġen forced
ine au
Ġbl ades
ab s
ci bly
Ġwell s
Ġstr ung
Ġsc ur
Ġsc ald
Ġcar p
Ġhead ing
Ġimp ose
Ġwr ung
whe never
Ġfar ming
Ġsupp lic
Ġwa its
Ġwoman ly
Ġhard ness
Ġph osph
Ġconf ide
Ġmin eral
Ġter rest
Ġpoor ly
Ġunt ouched
Ġround s
Ġev idences
Ġstand point
Ġed ged
Ġfact ion
Ġcat alog
Ġcor ro
Ġhur rah
Ġce ases
where upon
Ġten ants
br ook
Ġhus hed
Ġjohn nie
Ġdisc ons
Ġlow ell
ern ity
Ġsoft en
Ġhast ening
gr own
af ed
Ġtrans gress
Ġfig ured
Ġwrong ed
Ġclass ic
ugg ing
Ġbound erby
Ġund e
Ġfresh ness
Ġtur b
Ġtur ks
com b
Ġcomb ine
het ically
Ġfill s
Ġcapt iv
Ġimper ious
Ġwil cox
Ġbid den
Ġpill ar
Ġbor dered
Ġbor lso
Ġros amond
bl ack
Ġinvol ves
Ġrecollect ions
Ġtreasure r
Ġamuse ments
Ġsha ving
Ġsavage ly
Ġstair way
Ġax es
Ġbrid al
Ġspar row
Ġadmin ister
Ġemph atic
Ġovert aken
Ġinsp ire
Ġconcent ration
Ġsoph ia
Ġbeck y
Ġsuperst itious
Ġtext ure
Ġambassad ors
Ġsund ry
Ġsquee ze
Ġscript ure
Ġadvoc ate
Ġdeject ed
Ġinterven ing
Ġank le
Ġrede em
Ġcert ific
Ġchil tern
Ġflorent ines
Ġjourne yed
Ġrheum atism
Ġobe ying
Ġcoloss al
Ġsubter ranean
Ġimple ments
Ġdrow sy
Ġsteven s
Ġanders en
Ġllo yd
Ġgasco yne
Ġchie ft
d ad
g ian
l oo
u ption
v ings
Ġt ying
Ġa ur
Ġw ield
Ġw right
re ll
nd ar
Ġh ates
Ġm and
ou ver
Ġf oo
at ible
on ial
Ġd ates
Ġp its
Ġp ounded
Ġp hel
Ġth ames
ar ine
Ġin ability
Ġin iqu
Ġn ook
Ġg urg
id ated
Ġre ed
al ong
Ġr ides
Ġse myon
Ġsa un
ro it
Ġcon ver
Ġj ub
Ġfe athered
ame l
um br
Ġpr one
Ġsp ies
ort ment
Ġtw ain
Ġtw inkled
Ġcan ter
Ġgr ide
el ine
Ġdis quiet
Ġco qu
Ġco cked
Ġgood y
Ġpe el
Ġpe rem
Ġdown wards
Ġmust ache
Ġwhere abouts
Ġthought less
Ġgl ade
ans as
Ġsl iced
Ġres ided
Ġcr ook
Ġop ium
Ġent angled
Ġchar itable
Ġchar coal
Ġgu ides
Ġgu iding
Ġdoor step
Ġmon a
Ġmon uments
Ġexp ort
Ġdra ft
Ġfore going
Ġfact ors
Ġinf ants
Ġext racted
Ġremem bers
Ġdiffe red
Ġfur s
Ġprof usion
Ġtruth ful
Ġexpress ly
Ġsus ceptible
Ġsor ce
Ġimag ining
uc ing
Ġtrans mit
Ġhat chet
Ġlen g
Ġbene fic
Ġge omet
Ġdesp atch
Ġlab yr
Ġvill agers
Ġgri pped
Ġgri ggs
Ġsuggest ing
Ġbrown ie
Ġprofess ors
Ġdeg ener
Ġgun powder
Ġbeat rice
Ġgro ans
Ġcho ir
Ġsepar ately
Ġlisten er
Ġdam asc
Ġdick ie
Ġpure st
Ġroyal ty
Ġmel bury
Ġpeculiar ities
Ġmeth inks
Ġchamber lain
Ġoffer ings
Ġfer ocity
Ġswift ness
Ġsquare ly
Ġreve aling
Ġpin n
Ġamb ig
Ġshr ine
Ġmas ked
Ġwil mot
Ġinstinct ive
Ġep it
Ġing rat
Ġappl ies
Ġuns c
Ġcontempt ible
Ġgay ly
Ġvic omte
Ġinstru ct
Ġward robe
Ġcrack ing
Ġsteep le
Ġsmell s
Ġrent s
Ġcontempl ating
Ġcultiv ate
Ġexception ally
Ġrene w
Ġintim ately
Ġhistor ic
Ġlament ed
Ġpsych ological
Ġwol ver
Ġnic er
Ġspani ard
Ġmonot ony
Ġbru ised
Ġsubsequ ently
Ġgregg ory
Ġseam an
Ġyawn ing
Ġscru ple
Ġcos m
Ġdeject ion
Ġsecl uded
Ġalle ged
Ġintegr ity
Ġspru ce
Ġcrocod ile
Ġhurric ane
Ġimplac able
Ġperem pt
Ġlabyr inth
b ri
l ag
n ar
v a
Ġt uck
Ġs ous
Ġo akes
Ġb ens
Ġb unk
Ġc ay
at hing
on imo
Ġd app
Ġd yed
es cent
Ġl ash
Ġl ids
Ġin adequ
Ġn anny
le a
ot a
Ġy v
Ġre pt
al us
Ġst agn
Ġst umbling
Ġsa u
il ation
Ġch ained
Ġch unk
ard y
Ġj ab
ra g
fe lt
Ġcom ic
Ġsp asm
Ġsp ilett
Ġam ster
Ġdis ast
Ġover look
ick y
ang a
Ġsc ull
wh is
Ġcont ra
Ġmen acing
Ġbeg gars
Ġem ble
Ġem my
Ġbel ts
Ġjo an
Ġser mons
Ġend ow
Ġlight house
Ġgen eva
Ġsub t
Ġwar mer
be yond
Ġsil as
Ġcare y
Ġins cribed
Ġfore fathers
Ġbus ied
Ġgent ry
Ġbed stead
Ġsy rac
Ġplay er
Ġreal ization
Ġsuff iced
Ġbes ought
Ġdeep ened
Ġstre ak
Ġexpl ains
Ġquick ened
Ġsubject ive
Ġthir teenth
Ġchrist ie
Ġexcl amations
Ġarri ves
Ġsal ts
ames es
Ġang lo
Ġpract ices
Ġknight ley
head s
Ġcrowd ing
Ġplan ets
Ġincl ine
Ġer uption
Ġgar land
Ġwest minster
Ġphys ics
Ġz one
Ġspite ful
Ġpick et
Ġfrequ ented
Ġimpro ving
Ġthro ats
Ġgrat ifying
Ġendeav oring
Ġga iety
Ġplat ter
Ġmult itudes
Ġbetr aying
Ġavoid ing
Ġdiss ent
Ġflour ished
Ġproject ile
Ġhelen a
Ġcolour ing
Ġcrew s
Ġresemb les
Ġming le
Ġdistress ing
Ġillust rate
Ġimpl ies
Ġunif orms
Ġmild ly
Ġcounsel s
ado x
Ġsoot hed
Ġpsych ic
Ġcoward ice
Ġdoub ting
Ġpuff in
Ġjeff erson
Ġchallen ged
Ġmap le
Ġconvict ions
Ġcombat ants
Ġphoen ic
Ġtort ures
nic ott
Ġstal ks
Ġconvuls ions
Ġuncommon ly
Ġremonstr ance
Ġtermin ated
Ġdiscom f
wel come
Ġsurpass ed
Ġrepuls ive
Ġoverfl owing
Ġrefres hing
Ġhyster ical
Ġscru ples
Ġpolitic ians
Ġmim i
Ġpavl ovitch
Ġsi oux
Ġpyram ids
Ġbever ly
Ġsled ges
Ġron ald
supp ose
Ġbuccane ers
Ġalleg iance
Ġsuffe rer
Ġisa ac
Ġfootpr ints
Ġgwend olen
Ġcharlest on
Ġinjur ious
Ġinaccess ible
c alled
f rid
g led
h ot
h ill
i ably
i hood
r ad
Ġs ow
Ġs ord
Ġw ad
Ġh ilt
Ġand erson
Ġhe i
it age
Ġl anc
Ġg av
Ġg aping
ic ating
st ock
im et
ay a
Ġr ol
Ġr ung
Ġr ural
Ġst ack
Ġst rew
Ġwith held
am iliar
Ġsh aring
Ġsh imer
Ġsa b
Ġcon e
Ġup side
Ġex alt
Ġal mond
un ct
Ġint ricate
Ġcom plied
Ġcom ments
ol ks
Ġar ter
Ġro per
Ġag on
Ġcl aire
Ġco y
Ġover joyed
ink les
ab oo
ab leness
Ġpe ach
Ġapp end
Ġpart ake
Ġgl ob
Ġres ounded
Ġres urrection
Ġcr ane
Ġcomp ly
Ġbel inda
av as
Ġpres umed
Ġpres erves
Ġcount s
ail ov
Ġwant on
Ġchar ging
lt on
Ġwoman hood
Ġreg ulated
Ġbelie vers
ps hire
aken ey
Ġinc arn
Ġmean ness
Ġpower fully
Ġvis ual
Ġpar adox
Ġsn ows
Ġlat itude
Ġhar rison
Ġadm itting
Ġmor rel
Ġplay ful
where fore
Ġwal t
br ought
Ġsqu ares
Ġpen ins
Ġgreen land
Ġdiv isions
Ġtor penhow
Ġpa wn
Ġmed itated
Ġstren uous
Ġinqu est
Ġver anda
Ġplan ks
Ġstates men
Ġguess ing
Ġmiddle ton
Ġgrass es
Ġprevent s
Ġprevent ing
Ġsuit ors
Ġdom ain
Ġtroub ling
Ġmart ineau
Ġune arth
lo e
Ġder ive
Ġinvent ions
Ġextraord inarily
Ġdism ayed
Ġshri eks
Ġthanks giving
Ġpursu ers
Ġplant ing
Ġadventure rs
Ġhollow s
Ġsettle ments
Ġsup rem
Ġze us
Ġloving ly
win ter
Ġoutl ined
Ġunl imited
Ġhalt ing
Ġchap ters
Ġchat ting
Ġprivile ged
Ġvers ion
Ġmanifest ation
Ġmant on
iqu ette
Ġfatig ued
Ġped dler
rep res
cript ions
Ġpersist ently
Ġunm oved
Ġbund les
Ġpuff ed
rig ailov
Ġstu pend
Ġcomment ed
Ġthrong ed
Ġindic ates
Ġachieve ment
Ġmun icip
inter rupt
Ġstal ked
Ġpatriot ic
Ġprohib ition
vid rigailov
Ġshrub s
Ġintox icated
Ġunfold ed
Ġtheod ora
Ġusur p
Ġparas ol
Ġbount y
Ġsynony ms
Ġconstitu ents
Ġprogram me
Ġnie ces
Ġlect ures
Ġdescript ions
Ġvern on
Ġcavalc anti
Ġadvis able
Ġplaus ible
Ġphotop lay
Ġexplod ed
Ġacquis ition
Ġcres cent
Ġinconce ivable
sum mer
Ġpoult ry
Ġenl isted
i enced
n ett
Ġt attered
Ġt ension
he im
Ġa uction
Ġs ine
Ġw int
re te
Ġm ink
Ġm ik
ou st
Ġhe aled
Ġl ard
Ġl ave
Ġin herent
Ġn ero
Ġg out
Ġha g
Ġre cept
im ir
Ġfor cibly
Ġr ive
Ġr ook
Ġst ork
Ġsh aven
Ġfr ames
Ġv ows
ind ers
Ġkn ob
out ed
Ġcom eth
own ess
Ġar du
Ġtr inity
Ġpro ven
Ġam ber
Ġbo om
el ope
Ġbl anc
Ġbl akeney
Ġad herent
wn y
Ġmar jor
Ġevery day
Ġsc ut
ord an
Ġcont ag
Ġho vered
Ġsl it
anc ouver
Ġpres um
Ġpres umption
Ġcomm itting
Ġnor way
Ġgirl ish
Ġgi bb
Ġexp ired
Ġsil ks
Ġass im
Ġter r
Ġcur ling
Ġgre asy
Ġred main
cei ves
od es
Ġsuff olk
Ġbes ee
Ġdro ll
og ne
Ġdisc ourage
Ġap iece
Ġsal on
Ġdem ol
Ġacqu iring
Ġaffect ation
Ġsho ved
Ġge ese
Ġphil ipp
iment ary
Ġpeace fully
Ġfrench men
Ġconv icted
Ġenc ro
Ġcompl aining
Ġimm inent
Ġfresh ly
Ġpop ulous
Ġkill s
Ġz ero
Ġsav our
Ġclim ax
Ġsett lers
Ġcomb inations
Ġmort ar
key e
bur ton
wor ld
Ġcit oy
Ġaddress es
Ġfruit ful
Ġregret s
Ġber ry
Ġbrill iantly
Ġexped itions
Ġfrag ile
Ġscream s
Ġproject s
Ġnut meg
Ġbenef actor
Ġrepro ached
Ġcredit ors
Ġbud s
Ġfleet ing
Ġhandkerchief s
Ġscorn ful
Ġspl ash
Ġappet ites
Ġmos qu
Ġard or
Ġentreat y
thr own
Ġjen kins
Ġanch ored
Ġvel ocity
Ġconsol ed
Ġenterpr ises
Ġharsh ly
Ġdisgrace ful
Ġsacrific ing
Ġpall iser
Ġmex icans
Ġsauce pan
Ġimpart ial
port ant
Ġkick ing
Ġrhy me
Ġfern and
Ġrebell ious
Ġket ch
Ġvib ration
Ġcolon ists
Ġcomprehens ive
Ġpang s
Ġtwist ing
Ġprohib ited
Ġmulti pl
Ġflav our
Ġimagin able
Ġsuck ing
Ġlob ster
Ġdial ogue
Ġexpand ed
Ġmonop oly
Ġremn ant
Ġinfall ible
Ġspont aneous
Ġconsec rated
Ġbail iff
Ġmilit ia
Ġmushroom s
Ġburgund y
Ġavon lea
Ġembroid ery
Ġborlso ver
Ġdamasc us
Ġamster dam
Ġunearth ly
Ġstupend ous
c ery
e arly
p ost
s er
s ave
s aw
w ife
Ġa ch
Ġs own
Ġs vidrigailov
Ġo gle
re ally
ou m
Ġf ins
Ġd and
Ġd iverse
Ġd airy
Ġth undered
Ġhe aving
Ġl is
Ġl air
om i
Ġbe amed
Ġha in
le ft
se ven
ion ys
ith met
ir ted
Ġfor ks
ad ers
Ġis sues
Ġme agre
Ġsa us
ess ed
us c
Ġal p
Ġun cl
Ġab ashed
Ġar chers
Ġar ithmet
Ġag gra
op en
Ġgr uff
Ġbl est
Ġte ase
ab ol
ile as
Ġsm il
Ġstr ide
Ġres ented
Ġsomet ime
Ġatt itudes
Ġla f
Ġmat urity
Ġmat ernal
Ġsw ans
Ġwar burton
Ġexp osition
Ġcle m
Ġass uring
Ġche ated
Ġste ele
Ġhum oured
Ġsk i
Ġfore see
Ġinter se
Ġdr ought
Ġdark ly
Ġbu oy
you ng
Ġmil ner
Ġaw ed
Ġlau nd
Ġprom ont
Ġcor ral
Ġinv itations
Ġsuff oc
Ġconst ancy
Ġaff lict
me al
Ġwal nut
Ġdisc red
Ġdisc ours
Ġyear ning
Ġroad side
Ġtrans actions
Ġport s
Ġfast idious
Ġdisp atched
Ġdet achment
Ġjoy ously
ming ton
Ġda is
Ġphil ist
Ġpract iced
Ġrob bing
Ġcra ving
Ġinfl amm
Ġball ast
Ġservice able
Ġwest on
Ġsym met
Ġrelig ions
Ġid ly
Ġlearn s
Ġrub ies
Ġmain land
Ġfond ness
Ġcapt ives
Ġamount s
Ġmyster iously
Ġpersu as
Ġdesign ated
Ġclever ness
Ġmaint enance
Ġmeas uring
Ġhind ered
Ġghost ly
Ġfever sham
Ġet iquette
icks burg
Ġfeast ing
Ġbol ted
Ġdefend ing
Ġcas ually
Ġgrate fully
Ġabsor bing
Ġforbid ding
Ġleaf y
Ġcoo ling
Ġdart s
Ġlan es
Ġacknowled gment
Ġintr ud
Ġwax ed
Ġath let
Ġtap est
Ġexquisite ly
Ġflor ida
Ġmic ros
Ġboot y
Ġlil ac
bet ter
Ġprem ature
Ġendeavour ing
Ġsket ches
Ġpav ilion
Ġclam our
Ġost ens
maid s
Ġnun s
Ġlegend s
Ġmathem atical
Ġjewel ry
Ġexcurs ions
Ġscout s
Ġpoo rer
Ġbisc uits
Ġvolunte ered
Ġdiso bed
Ġdecre ed
Ġhypocr isy
Ġimpud ent
Ġsecl usion
Ġexasper ated
Ġpite ous
Ġrosal ie
Ġteasp oonful
tow ards
Ġindirect ly
Ġreinforce ments
Ġupl ifted
Ġdess ert
Ġinterpre ter
Ġremin isc
Ġunsuccess ful
Ġchry s
Ġorde al
beh ind
Ġsord id
Ġardu ous
b ol
c al
d ar
d el
l ou
n ished
r can
s l
v re
v ity
w on
z er
Ġt ests
Ġs ierra
Ġw ins
Ġw ager
Ġw uz
Ġo mit
re th
Ġb amb
Ġf iss
Ġto dd
is an
Ġd aw
Ġd otted
Ġp ensive
Ġhe aling
ar ches
Ġha unting
Ġe g
ir a
Ġr ameses
Ġwe aving
Ġst ale
Ġk i
Ġse ating
Ġsh ark
Ġde acon
Ġmy erst
Ġne ll
Ġj ordan
Ġv or
Ġv ist
Ġman ned
ust ible
ate red
Ġun ac
if fe
ol ay
ol itan
Ġro e
au de
Ġen h
Ġbo bo
Ġlo ki
Ġdis k
Ġco x
Ġte ap
Ġhand ic
Ġstr ut
Ġsc off
Ġgl ared
Ġown s
Ġsl ap
Ġjo ck
Ġgu ise
Ġrel ates
Ġwater ing
Ġwo es
Ġins erted
Ġinter cept
Ġsix pence
Ġsun ken
Ġdark ening
Ġed na
Ġcountry man
Ġinf le
Ġreal izing
Ġwood man
Ġdec oration
Ġra ises
Ġmer cedes
Ġhur on
Ġbur row
Ġeas iest
Ġca ressing
Ġmad den
Ġmid summer
Ġyear ly
Ġpal mer
Ġfree zing
Ġfre re
Ġwild est
Ġrespect ability
Ġve hem
Ġdin ah
Ġrequ iring
Ġmot to
irt s
Ġport land
uff s
Ġaffect s
Ġdu pl
Ġfle ming
Ġconvers ion
Ġbab o
Ġver itable
Ġthick er
Ġresult ing
dd ing
Ġprofess ions
Ġgall ows
Ġguard ing
Ġhy rcan
Ġincre ases
Ġlang more
Ġpet e
Ġpath way
Ġcand lest
Ġblind ing
Ġconce ited
Ġdar nay
Ġmal oney
ev idently
Ġpoet ical
Ġpi qu
Ġarch ie
Ġband it
Ġaccompan iment
Ġpan el
Ġsam ple
Ġunf amiliar
Ġendeav ours
Ġorgan ic
Ġtend encies
Ġelect rical
Ġsteam ers
Ġpaul ine
Ġken nicott
Ġmour ned
Ġadvance ment
Ġcommission ers
Ġwitch craft
Ġabst ain
Ġdang ling
nat urally
may be
Ġtrot ting
Ġbrig itte
Ġrecon cil
Ġobjection able
Ġruff ian
Ġlust rous
Ġadmire rs
Ġstag gering
Ġpall or
Ġbert uccio
Ġeag les
Ġdecor ations
Ġcryst all
Ġrival ry
Ġfrost y
Ġimperfect ly
Ġpatri arch
Ġbess ie
Ġimpart ed
Ġindic ating
Ġrese arches
Ġsymb ols
Ġprosec utor
Ġreass uring
Ġdiver t
Ġclust er
Ġimpert inence
Ġgriev ous
Ġlud ic
Ġunacc ustomed
Ġunch anged
Ġappoint ments
Ġhark er
Ġadj ut
Ġeb ony
Ġyan kee
Ġsubsist ence
Ġmum my
Ġblend ed
Ġgan em
Ġpenit ent
Ġaz ure
Ġwreath s
Ġbeet le
Ġoverh anging
Ġches s
Ġnewcom er
Ġintern ational
Ġintermedi ate
Ġmistr ust
Ġinnoc ently
Ġbrilli ancy
Ġterrest rial
Ġbesee ching
Ġvehem ence
i very
m ill
Ġt ink
Ġt ints
Ġa er
Ġa qu
Ġthe resa
Ġw er
Ġw ench
Ġh ides
Ġm aps
Ġi l
at ers
Ġp ame
Ġp uck
Ġth aw
Ġn ag
Ġg ifted
Ġbe fell
Ġha ines
Ġha zy
Ġe got
ot te
ic ations
Ġit em
Ġre ap
Ġwe e
Ġwe aken
Ġwith stand
il oqu
pp ies
Ġcon ceded
Ġv ult
Ġor anges
Ġint ens
Ġle o
Ġun used
Ġun aware
Ġun noticed
Ġab er
ig ation
Ġpr y
ort ing
Ġbr amble
Ġday time
Ġad verse
ab y
Ġshould ered
Ġdown cast
Ġcame ls
per ing
Ġrem ot
Ġspe lling
Ġcr ows
Ġbeg u
Ġcomp aring
Ġnew ton
Ġmat ched
Ġrep airs
Ġwind y
Ġsur pl
ph il
Ġrel ay
Ġrest lessness
Ġph ileas
Ġinter vention
Ġed en
Ġsn ail
Ġtri ps
Ġhur ons
Ġbur ying
Ġorder ing
Ġill usions
Ġaff right
Ġlist s
br ing
Ġfoot ball
Ġsleep er
Ġdream t
Ġconc ili
Ġconc rete
empt ion
Ġve nd
Ġve al
Ġpossess or
Ġdem ure
Ġprep ost
Ġpract icable
Ġrom ayne
Ġclass ical
Ġauthor ized
Ġvan ishing
Ġcoll ars
Ġmusic ian
Ġstar ry
Ġoblig ing
Ġstick y
Ġconsequ ent
Ġbeast ly
Ġnotice able
fortun ately
Ġinh uman
will iam
Ġange lic
Ġdistingu ishing
Ġfarm house
Ġyield s
Ġunhapp ily
bl eness
Ġjes se
Ġfeast s
Ġwretched ness
Ġswall ows
gen eral
Ġtrad ers
Ġlam bs
Ġtrem or
Ġard ently
Ġruff led
Ġdepos its
Ġconfeder ation
Ġgallop ing
Ġglit ter
Ġded icated
Ġgallant ry
Ġfanc iful
Ġsumm its
Ġmend ed
Ġcongrat ulations
Ġlantern s
Ġetern ally
Ġpolicem en
Ġcash ier
Ġinconven ient
Ġextravag ance
Ġwy at
Ġbub ble
Ġdegr ad
Ġhud dled
Ġexult ation
Ġmatt ress
Ġtart ar
Ġflav or
Ġhymn s
Ġmisunder stood
Ġrepuls ed
Ġpref ace
Ġcorps es
Ġantagon ist
requ ently
Ġpyram id
Ġlag oon
Ġsarc astic
Ġdetest able
Ġintrig ue
Ġconscient ious
Ġdeput y
Ġinco herent
Ġaspir ations
Ġarb aces
Ġgoth ic
Ġsov iet
Ġunspe akable
Ġfrant ically
Ġarmch air
abul ary
Ġdisast rous
Ġsuprem acy
Ġpame la
b read
c or
f en
g ow
i per
m und
o ys
r ade
s ub
s ki
w es
Ġt ape
Ġs ided
Ġw ot
Ġw age
Ġw atered
re ci
Ġb itten
Ġb ax
Ġd ated
Ġd ave
or dered
it ution
Ġl os
Ġl ining
Ġg end
le igh
Ġe e
ic kered
Ġwh iche
st heus
Ġhis s
Ġr ained
Ġwe nd
Ġst ains
Ġst ems
am ore
am pton
Ġsh un
Ġfr inged
pp a
Ġch al
Ġor m
Ġman ette
ra ised
fe w
ood oo
Ġkn ave
Ġout cast
Ġun sh
Ġun belie
if iable
Ġwill ed
Ġro ds
Ġqu in
ag u
Ġbl ur
Ġdis heart
Ġover thrown
Ġfl anks
Ġpo ign
Ġpo llen
ount ing
ang ular
Ġsm elt
Ġpre rog
Ġstr ides
Ġfo aming
Ġgl uck
Ġbet sy
Ġho vering
ip se
Ġem il
Ġimp ract
Ġimp erson
av y
Ġpres ided
Ġear then
dy akov
Ġcount en
iv an
Ġarm ad
Ġpers pective
Ġsub mar
Ġwar ren
ph in
Ġdel aware
no is
Ġconf id
Ġhalf way
Ġste lla
Ġdra go
Ġhum orous
Ġcur ses
Ġname less
Ġref ract
ces ter
Ġed gar
Ġprop hetic
Ġhelp ful
Ġserv itude
Ġpat rol
Ġprom otion
Ġwood land
Ġdec ree
Ġca resses
Ġcirc led
Ġprof ane
Ġdream er
ffect ed
Ġexcl ude
Ġlead en
Ġblood ed
Ġpartic le
Ġcreat ing
Ġshow ers
Ġbright est
Ġcommand ers
Ġesc apes
Ġstud ded
Ġdecl ares
Ġtrans ition
Ġtrans action
Ġimport ed
gin a
Ġstraight forward
Ġav ow
uct ive
Ġincl udes
Ġcamp bell
Ġgall eys
Ġwinter borne
Ġconcl usive
Ġsick ening
Ġsucceed s
Ġorigin ated
Ġassist ing
Ġagree ably
Ġmoder ately
Ġbal t
Ġmam a
Ġbreast s
Ġstation ary
Ġshr unk
Ġwil ful
mar ks
Ġol iv
Ġgle ams
Ġchest s
Ġeducation al
Ġdeck s
Ġuseful ness
Ġken nel
add les
Ġrecall ing
Ġstiff ened
Ġcher ries
Ġskill ful
Ġoutl aws
Ġsport ing
Ġchap lain
Ġembarrass ing
Ġju an
Ġgal ile
Ġboast ing
Ġcontrast ed
Ġspecul ations
Ġfires ide
Ġbeth ought
Ġunlike ly
Ġcorrid ors
Ġpotat o
Ġrend ez
Ġvap our
Ġsque ers
Ġpropriet ors
Ġharmon ious
Ġstal wart
Ġpel op
Ġbart on
Ġcalam ities
Ġweigh ing
Ġdexter ity
list en
Ġwist ful
Ġnegot iations
Ġpref ers
Ġcommunic ating
Ġexplo its
Ġced ar
Ġcate ch
Ġjess ica
Ġreef s
Ġhumili ating
Ġsof ter
Ġfores ight
Ġmetrop olis
Ġengross ed
Ġcomplet ion
Ġmarqu ise
Ġcapric ious
Ġgramm ont
Ġcorro bor
Ġrol and
Ġmarjor ie
Ġteap ot
Ġdegrad ation
Ġbax ter
Ġrendez vous
a unted
e el
f ering
h ole
j ay
l iss
Ġa kin
in ue
Ġthe o
Ġs acks
Ġw aken
re f
Ġm ounds
on ia
on na
Ġd rows
or pe
Ġn upt
ot to
Ġre ced
ith ing
Ġst ating
Ġk or
Ġk han
Ġse wed
Ġso iled
th ood
Ġall otted
Ġcon val
Ġch ag
Ġj ost
Ġv ancouver
Ġor b
Ġman ip
Ġal f
Ġfe ign
ist ing
Ġcom ical
ol ine
Ġpr isons
Ġsp right
Ġpro pe
Ġbr an
Ġcl an
el ah
urn al
Ġlo om
Ġbl ight
Ġbl ocked
Ġad apt
de cl
Ġfl ushing
ci er
Ġper ci
Ġmar king
Ġsm et
Ġwent worth
Ġmo k
Ġmo ors
Ġsl aught
Ġsl ammed
Ġcomp ressed
Ġturn ips
Ġjo anna
Ġmat tered
iv oc
Ġpers hing
Ġsw oop
Ġwater loo
Ġdel ivery
Ġass id
Ġside walk
Ġph on
Ġtre ading
Ġcur ry
Ġed ifice
Ġless en
Ġred s
Ġrun away
Ġsy ria
pr ay
Ġpat ched
Ġdeath s
Ġcat ches
Ġswe aring
Ġreal ities
Ġele ctor
Ġrec ital
Ġgold smith
Ġsign ified
Ġconst ell
og ene
Ġprof ile
Ġprof fered
Ġpret ense
Ġblood s
Ġequ ilib
Ġschool room
Ġschool master
irt ier
Ġaccord ed
Ġdef ied
Ġsol ace
Ġdisp uted
Ġdeal ings
Ġtor res
Ġuncle an
Ġfail ures
was hed
Ġcre aking
Ġrob ust
Ġsouth west
Ġtreat ise
Ġgar ral
Ġfash ions
Ġstates man
Ġpet ro
Ġbroad er
Ġid leness
Ġdry ing
Ġign ore
ob ulus
Ġmurm urs
Ġattract ions
Ġheight ened
Ġsam son
Ġsympath ies
Ġupper most
Ġinn ate
Ġorgan ism
Ġpaint ings
ater ina
Ġdispl aying
Ġmurder ous
Ġcolle agues
Ġplant ations
Ġglim mering
Ġemer ge
Ġprint s
Ġming ling
Ġwing fold
Ġbath s
Ġbrid get
Ġscorn ed
Ġpuzz le
Ġarist obulus
Ġsignific antly
Ġsne e
Ġpropos itions
Ġmurderer s
Ġeve lyn
off rey
Ġjun cture
Ġbarbar ian
rep ared
Ġtempor al
Ġsink s
Ġminor ity
Ġmanufact ured
Ġattain ment
appe ared
Ġcars on
irst y
Ġrand al
Ġlocks ley
Ġvap or
Ġdict ated
Ġpatron age
Ġclust ers
Ġquart z
Ġshriek ing
Ġdiscont ented
Ġplum age
Ġisol ation
Ġsag acity
Ġmatt ie
Ġyawn ed
Ġmisunder standing
Ġoz ma
Ġpreacher s
Ġindefinite ly
Ġunim portant
Ġvind ict
Ġflick ering
Ġremn ants
Ġraz or
Ġunav oid
sett led
Ġinfam ous
Ġcontriv ance
Ġdisconc erted
Ġeu ph
Ġnu isance
Ġvehement ly
Ġimprud ent
Ġheres y
Ġmater ially
Ġinterch ange
Ġogle thorpe
Ġsmil ingly
Ġgend ar
Ġbalt imore
c led
f ire
g ro
g ressed
i ol
j ol
k irts
m am
m ers
m ach
r ound
s we
u gs
z ar
Ġt inted
Ġo g
Ġb oo
ou et
Ġc ly
Ġc ess
Ġc ull
Ġf ag
Ġf ences
at i
Ġto l
Ġd erv
Ġd ionys
Ġl ars
Ġl orn
ar on
ll an
Ġn ab
om o
om atic
le ine
ot ty
id ation
id ian
im an
ce lled
al ais
Ġr het
Ġr anges
Ġr askolnikov
Ġst ark
Ġst owed
ad vent
Ġk h
Ġk end
ke l
Ġcon way
Ġj ay
Ġman ual
Ġal ab
Ġfe igned
os ities
Ġle ant
Ġle aps
Ġun lo
Ġun observed
Ġab b
Ġab ack
Ġaf lo
Ġbr itt
Ġbr ushing
Ġam ply
Ġen list
Ġcl ient
Ġcl aus
Ġcl atter
Ġloo sed
ass ing
Ġover looking
Ġfl in
Ġfl akes
Ġhow led
Ġper ceptions
Ġpo inter
Ġgood by
Ġpe ggy
Ġdown s
Ġmiss a
Ġsl anting
Ġcr ashed
Ġcons ume
iz ations
Ġnight ly
Ġright ful
Ġdist aste
to fore
gg otty
Ġke el
Ġact ively
Ġeng raved
Ġkind er
Ġhel stone
Ġche w
Ġche que
Ġmin nie
Ġste ered
Ġtra it
Ġsent enced
Ġlaw less
tain e
Ġunc anny
pr ince
Ġfin ite
Ġadm its
Ġart ful
Ġmor ally
Ġwood ley
Ġmer cer
Ġce cily
og y
Ġchr on
Ġconsider ate
Ġfre em
Ġprov ocation
Ġprov oking
oun ia
Ġdisp atch
Ġlab ored
Ġmarg ery
Ġtop ics
ush a
Ġthick ets
Ġenc amp
Ġgrow ling
Ġger ald
Ġger onimo
Ġconcl uding
Ġloc om
Ġz en
Ġrapid s
Ġbow els
Ġassist ants
Ġclean liness
Ġrevol ving
Ġhero ism
Ġdistinct ive
Ġcapt ivity
Ġunf inished
Ġdi ved
Ġdi ving
Ġinn keeper
Ġclever ly
Ġodd ly
Ġindepend ently
Ġsang uine
Ġtot tering
Ġtar ling
Ġcell ars
Ġbenef its
Ġprim arily
Ġnervous ness
Ġprotest ants
Ġsher win
Ġod in
Ġengine ers
Ġrespons ibilities
Ġaust ere
Ġcraft y
Ġren aud
Ġobsc ured
Ġstout ly
Ġinsult ing
Ġexerc ising
Ġhistor ians
Ġapprehens ive
Ġspecul ative
Ġdimin ish
Ġdemonstr ate
Ġconcent rate
Ġsolic itor
Ġatl ant
Ġperman ently
Ġdisgust ing
Ġvio lets
lock s
Ġrh ine
Ġunb ounded
Ġdru gs
tr ue
Ġamend s
Ġprosec ution
Ġapolog ies
Ġphotograph s
des p
Ġaffirm ative
Ġwholes ale
Ġobli que
Ġscrew ed
Ġna omi
Ġexplo it
Ġtack le
Ġriv als
rap hed
Ġgnaw ing
Ġunanim ous
Ġshroud ed
Ġpostp oned
Ġcale ndar
Ġvamp a
Ġfath oms
Ġcruc if
Ġliz ard
Ġbohem ia
Ġeury stheus
Ġvirgil ius
Ġrecre ation
Ġgloss y
Ġscan ned
Ġtherm ometer
Ġdisgr aced
Ġsubmer ged
Ġembass y
Ġamate ur
Ġinadequ ate
Ġhei ress
interrupt ed
Ġbamb oo
Ġludic rous
Ġprepost erous
Ġwhiche ver
Ġequilib rium
Ġaflo at
b by
d oubt
d aughter
p ret
r ub
t i
w orn
Ġa verse
Ġo m
Ġb ant
Ġi one
Ġi zzie
Ġc ors
Ġc uc
Ġd wind
Ġth ud
an ut
Ġn oo
Ġg el
Ġg aston
ic eless
se nd
Ġon look
Ġwe ave
Ġher on
Ġk aren
Ġk oodoo
Ġme rest
Ġde y
Ġde en
Ġwhe reat
Ġdo ves
Ġno irtier
Ġman aging
un a
Ġgo b
out s
Ġle x
Ġcom bed
Ġun st
Ġun bear
em ar
um per
ig i
Ġpl ush
Ġtr addles
Ġqu itting
Ġag greg
ack ing
Ġen ric
Ġen chan
Ġcl ang
we ed
Ġgr ouse
Ġbo ister
Ġthan king
Ġlo ading
Ġlo omed
Ġbl izz
Ġad oration
Ġad roit
Ġfl ax
Ġpo pped
Ġpe ggotty
Ġmade leine
Ġsm ould
Ġsm ash
Ġpre gn
ren cy
co gn
Ġhere tofore
end ing
Ġcr um
Ġcar ving
Ġcar fax
Ġret aining
Ġatt ired
ens ively
Ġfriend less
ple te
she ba
Ġexp osing
Ġass ur
Ġche at
Ġins ure
Ġref rained
Ġlay ers
Ġred oubt
Ġperson ages
Ġpar ade
Ġcontin ental
Ġtri ple
Ġes p
Ġdire ctor
Ġpol ona
Ġdep rec
Ġill inois
Ġexpl icit
Ġsum ptuous
Ġexc av
Ġdream ily
Ġdisc arded
Ġcorn el
Ġsubject ion
Ġap es
Ġgrand ma
Ġsal utation
Ġesc orted
Ġlaugh s
Ġsho pping
Ġrid ges
Ġwis cons
Ġlength s
Ġver tical
Ġver bal
Ġpost man
Ġund en
Ġund is
Ġgall ey
Ġimm ov
Ġoccup ying
Ġgro s
Ġstar r
Ġboard ed
Ġfit ful
Ġfaint est
Ġcow boy
Ġlin ked
Ġpi geons
Ġspect re
Ġwil frid
Ġgree b
Ġcart on
Ġcorre ction
Ġdrag ons
Ġloose ly
Ġgrim aud
Ġtro dden
Ġindul ging
oe uv
Ġrig ging
gl ass
Ġsher wood
Ġproc uring
Ġerr one
Ġpoison ous
Ġimpl icit
Ġstat us
Ġprec inct
Ġpub lish
Ġobserv ance
Ġgil roy
Ġshy ness
Ġproduct ive
Ġapplic able
Ġtub es
Ġdomin ant
Ġdemonstr ated
Ġarab ia
Ġwret ches
Ġba iley
Ġrese arch
Ġrasc als
Ġadjust ment
Ġpilgrim s
Ġhypnot ic
Ġgy mn
Ġquarre lling
Ġpert ur
Ġscramb ling
interest ing
Ġlob by
Ġcyn thia
Ġoutrage ous
Ġobstin ately
Ġsniff ed
Ġgrab bed
sil ver
Ġtransform ation
Ġloung ing
grow th
Ġtrav illa
Ġenact ed
Ġterrif ying
Ġintrins ic
Ġern est
Ġaccost ed
Ġreci pe
Ġtribun al
Ġsower berry
Ġyv onne
Ġpenins ula
Ġmunicip al
Ġwiscons in
a fe
d ist
g or
g ments
g iana
k al
n in
Ġa ure
Ġs issy
Ġw ight
Ġw ab
Ġo the
Ġh ott
Ġb oul
Ġm oths
Ġf on
Ġf als
Ġf iled
Ġd ene
Ġp t
it ans
Ġl icked
ar van
Ġin aug
Ġbe acon
le man
Ġe lla
Ġu do
Ġr yn
Ġr inald
Ġan to
Ġan ointed
Ġher m
ac a
Ġse cts
all ied
ke gee
th orn
Ġde ign
Ġall ude
Ġne ared
Ġdo ver
Ġdo lo
Ġch asm
Ġch ips
Ġv oss
Ġex eter
Ġman chester
Ġal ps
Ġkn uck
Ġkn otted
Ġun welcome
ol ved
ig an
Ġar nold
Ġpr ote
Ġpr att
Ġsp art
Ġcl in
Ġcl ause
Ġgr unt
Ġbl ouse
Ġbl inking
Ġdis respect
Ġco ars
Ġfl uct
Ġpe ars
Ġpe ev
ang s
per nel
wh ite
Ġwhere on
Ġgl as
Ġbet ook
Ġsl ips
Ġcr umbling
Ġcons ort
Ġjo vial
Ġwr oth
Ġfriend liness
Ġind el
Ġever more
Ġac re
ia e
Ġgu ill
Ġappe ll
Ġexp ost
Ġma it
Ġph yll
Ġche e
Ġcur rants
Ġbar ked
Ġgent eel
Ġpar fen
Ġrun ners
Ġlat t
Ġdec iding
Ġsea f
Ġir ons
Ġten nes
Ġmad ly
Ġaff irmed
Ġprof use
Ġap othe
Ġbegin nings
Ġequ ator
Ġcreat ive
Ġsal ted
Ġdin ars
Ġbright on
Ġdress er
Ġport ug
Ġfurther more
ex c
Ġden ounced
ann i
Ġenjo ys
Ġleg ions
Ġmess rs
Ġmass acre
Ġbank rupt
Ġcoll apse
Ġevent ful
Ġoccur rences
Ġvol upt
Ġfurn ishing
Ġmut ter
Ġhabit able
Ġarg uing
Ġdar row
Ġperiod ical
Ġimpro v
Ġcup id
ipp ers
Ġfer vent
Ġshape less
Ġamb ros
ik a
Ġadvantage ous
Ġpard oned
Ġelect ro
Ġstuff ing
Ġconqu ering
Ġdur st
Ġdiss im
char les
Ġawa its
Ġrepro aches
bor o
Ġbree zes
Ġsher ry
Ġabsor b
Ġimpl oring
Ġcig ars
Ġscient ist
Ġren owned
Ġclos est
Ġpub lis
Ġinvestig ations
Ġaspect s
Ġard our
Ġanticip ate
Ġlegisl ative
Ġheed ed
Ġpound ing
Ġindifferent ly
Ġuniform ity
Ġtremend ously
Ġincred ulous
Ġlament ations
Ġmerc en
Ġunre al
Ġbert ie
Ġirr itable
Ġbust ling
Ġdiff used
Ġine ff
Ġdeaf ening
Ġmiser ies
Ġenqu ire
Ġmou thed
Ġadmiral ty
Ġbrist ling
Ġprosec ute
Ġretire ment
Ġimpuls ively
Ġprett ier
Ġdroop ed
Ġlud ov
Ġtus kegee
Ġtact ics
Ġmagaz ines
Ġshrub bery
Ġhann ibal
Ġyor kshire
Ġfulfil ment
Ġlyn x
Ġdevour ing
Ġcontempor aries
Ġfu zzy
Ġflick er
Ġsarc asm
Ġaj ar
Ġtacit urn
Ġpite ously
Ġrosal ind
Ġsubur bs
prom ising
Ġfeud al
Ġunself ish
Ġwhims ical
Ġnik olay
Ġpim pernel
Ġstupe fied
Ġtumb ler
Ġdomest ics
Ġmalic orne
Ġglenc ora
Ġconne xion
Ġmarion ette
Ġmete or
Ġwint ry
Ġarmad ale
Ġgoodby e
Ġothe llo
Ġdolo khov
b i
e on
l ass
s k
s ent
s ur
w s
Ġt ep
he v
Ġw itt
Ġw ade
Ġh ip
Ġh ilar
er dyakov
Ġf oss
Ġd int
Ġd ounia
or ah
es thood
it ual
Ġin act
Ġin most
Ġg able
Ġbe ad
Ġe ther
st orm
Ġr ac
Ġr ake
Ġst ap
am o
Ġk aterina
Ġse vered
Ġde ceiving
Ġfr iction
Ġj agged
Ġv avas
Ġor acle
Ġno bly
est ead
Ġout set
Ġun al
Ġun man
Ġun fast
Ġab iding
ak ably
Ġro g
Ġgr is
ies on
Ġdis belie
Ġco ven
pl aced
Ġfl inging
Ġmar l
Ġsm itten
Ġsm erdyakov
end om
Ġpres cription
Ġjo ll
Ġlast s
Ġwr ists
get ting
Ġdist emper
Ġwa res
Ġact ress
Ġwar ming
ning ton
Ġvo lley
not withstanding
Ġcle ans
Ġche wing
Ġste ering
Ġhum med
Ġpleas anter
ib us
Ġins urance
Ġins anity
Ġinter min
ows ki
Ġbu nder
Ġprop hes
Ġlay elah
Ġpol and
Ġsec ular
Ġpri esthood
Ġexpl oration
Ġhus ky
Ġdev ise
Ġchrist endom
Ġquiet ed
Ġsal es
Ġgreen ish
Ġfav ors
Ġsens ibly
Ġdecl ining
Ġsol iloqu
Ġprot r
Ġge offrey
Ġphil ammon
Ġanx ieties
Ġwhis key
Ġrob arts
Ġburn e
Ġleg ion
Ġenc amped
Ġcoun se
Ġviol ation
Ġweak ly
Ġshut tle
Ġoccup ants
che l
amb les
Ġgro ping
Ġpet rified
str ange
str uck
Ġconscious ly
Ġhun ch
Ġoper ated
Ġconce ivable
com p
Ġmain e
Ġdistinct ions
oura bly
min ate
Ġmix ing
Ġpin ned
Ġflower y
Ġdiscuss ions
Ġbrand t
Ġdor ry
Ġcrit ically
Ġcouple ts
Ġnap kin
Ġfac il
Ġbew itched
Ġgrant ing
Ġthunder bol
Ġrecom pense
Ġrum m
Ġthri ft
Ġlouis iana
Ġinsult s
Ġhelpless ly
Ġjen nings
Ġwig w
Ġteaching s
Ġtimid ity
Ġlun atic
Ġrud der
Ġintr usion
Ġadmire r
Ġterrit ories
Ġabandon ing
Ġconstru ct
Ġhomes ick
Ġsweep s
Ġmend ing
Ġpatch work
Ġslop ed
Ġheir s
Ġoutward ly
Ġfain ter
Ġdivers ity
Ġstim ulus
Ġsubd ue
Ġshru g
Ġswar med
Ġswar ming
Ġhull o
Ġgeor gina
izz le
Ġaccess ible
Ġdict ate
Ġirresist ibly
Ġconject ures
Ġadopt ion
Ġharness ed
Ġremonstr ated
Ġsurm ounted
Ġhoarse ly
Ġdum pty
Ġexh ilar
Ġabol ished
Ġbrace lets
Ġpoo h
Ġouts kirts
Ġchast e
cont inued
Ġpartial ity
Ġomn ip
Ġdisadvant ages
Ġgreed ily
Ġdenis ov
Ġfath om
Ġcripp led
Ġsubstit uted
Ġslugg ish
Ġencir cled
Ġinconsist ent
Ġoverse er
Ġdiction ary
Ġdespot ism
Ġhydro gen
Ġunsatisf actory
Ġmous quet
Ġhyrcan us
Ġadjut ant
Ġorm iston
Ġcrucif ix
Ġglas gow
Ġtennes see
a ica
b ene
b eth
d iction
j on
m il
m ast
m ma
r ide
r ings
r ising
r anted
t ail
x y
Ġt ag
Ġt ested
Ġs ig
Ġs iber
Ġs ifted
Ġh ust
Ġc zar
Ġf able
Ġf agin
ing ling
Ġd y
Ġd ag
Ġd ile
Ġd renched
Ġp anc
Ġp ained
Ġl ug
Ġg oths
Ġbe que
Ġe z
id an
gh ast
ent ered
Ġre versed
al ready
Ġas cribed
Ġst ol
Ġnot ing
am on
Ġsh ove
Ġsh ipping
ill ing
Ġsu ll
ess im
il a
th ir
Ġde ft
Ġfr ust
us an
Ġcon gen
ul ed
Ġch is
Ġch asing
ge l
Ġor bit
res ham
Ġfe ats
Ġkn aps
Ġkn itted
Ġkn oll
out ing
Ġun att
Ġun settled
Ġpl us
Ġsp aring
Ġsp onge
Ġbr ides
Ġen ables
Ġbo e
Ġloo p
Ġim itated
Ġfl ur
Ġfl ickered
Ġmar se
Ġmust er
Ġstr ate
Ġfo oth
ach able
ren a
Ġcr ashing
Ġwat chers
Ġcomp os
Ġcomp ens
Ġfri gate
Ġem bell
Ġcons p
Ġdon keys
Ġnew man
Ġret inue
Ġwr inkles
Ġwr ithing
Ġwork house
Ġinst alled
Ġnor folk
Ġac orn
Ġmoment arily
Ġgu itar
Ġgod mother
Ġwar wick
ple nd
ru ly
Ġhalf man
Ġins ert
Ġcur b
Ġopen ings
Ġfore told
Ġinter l
Ġgre gory
Ġland own
Ġed red
Ġed wards
Ġless ened
Ġspo kes
Ġred uction
Ġsn are
Ġhar assed
Ġtri pped
Ġes ter
Ġspeak ers
Ġlau d
Ġdec ayed
Ġra pped
Ġstre aks
br ush
Ġbad ge
Ġstra its
Ġjud y
Ġtou chet
Ġwin ters
Ġequ als
Ġeffect ual
Ġgrand papa
Ġcross jay
Ġprov oke
Ġmonth ly
Ġdiv ined
Ġdef er
Ġdef ine
Ġvar iation
Ġtor to
ming led
Ġvi enna
Ġvill a
Ġbill ie
Ġbill iard
Ġaunt s
Ġknight hood
Ġpriv acy
Ġinfl amed
Ġrom arin
Ġvict ories
Ġsac ram
par allel
Ġnin a
Ġmountain eer
Ġcho ke
Ġbroad way
Ġadmir ingly
Ġid ols
Ġoper ating
Ġtemper ate
Ġrain y
Ġdry ly
Ġcheer ily
Ġsocial ism
Ġcow ards
Ġskin ned
Ġfan atic
Ġattract ing
Ġenjoy ments
ik in
Ġeurope ans
Ġcolor ing
Ġpersu ading
Ġaug ment
Ġlabor ious
Ġhom estead
Ġprogress ive
Ġber tha
Ġcart ridges
Ġmerch and
Ġlock ing
resp ons
Ġinquir ingly
Ġpu ppy
Ġassert ing
Ġstup or
kins on
Ġcolle ges
ration al
Ġhint ock
Ġexhib its
Ġexhib iting
Ġdan ish
Ġpurch aser
Ġpred icted
Ġrig ged
Ġpreced es
Ġfil th
Ġident ify
Ġscient ists
Ġsimpl er
Ġinvestig ating
bel ief
Ġpenet ration
Ġsuspect ing
Ġmission aries
Ġshy ly
Ġgrav itation
Ġheed less
Ġexperiment al
Ġunre ason
Ġboil er
Ġsurv iv
Ġtour n
Ġclut ch
Ġcryst als
Ġjam ieson
Ġjam aica
Ġlav ish
Ġtil ted
Ġivan ovitch
Ġvest ib
Ġgeor gie
Ġtumult uous
Ġraw don
Ġmol ten
Ġdub ious
Ġabstract ion
Ġexpend ed
Ġincons ider
Ġsel ina
Ġglen arvan
Ġlaure l
Ġexplore rs
Ġvolunte ers
Ġprior i
Ġirrit ating
Ġdisappro val
Ġpolitic ian
Ġbuzz ing
Ġferv ently
Ġconform ity
bro ke
Ġuntr ue
Ġleve lled
Ġcontend ing
Ġemerald s
Ġsupple ment
Ġmow bray
Ġtipt oe
Ġopt im
Ġolymp us
Ġpettico at
Ġconcess ion
Ġrelent less
Ġinexpress ible
Ġserf s
Ġatone ment
Ġspraw ling
Ġassembl age
Ġaval anche
Ġrehe ars
Ġblasp he
Ġdiscer ned
Ġnil ghai
Ġinvin cible
Ġunintellig ible
Ġphilanth rop
Ġabre ast
Ġchieft ain
Ġadherent s
Ġarithmet ic
mam ma
Ġunbear able
Ġphyll is
Ġparfen ovitch
Ġvavas or
Ġtouchet t
Ġsacram ents
b uck
c ot
c ross
c ension
d ak
d ies
d ock
h on
h ung
k ov
l ater
m ined
p in
r oof
t ened
w ig
Ġt oned
Ġa ward
in ers
er b
Ġc asc
Ġf itt
Ġf au
Ġf ates
at y
at ious
Ġd iar
or ig
Ġhe w
it ates
Ġl inks
as hev
Ġin an
Ġin mates
Ġin laid
Ġn im
Ġn ym
om est
le te
se cond
st an
st art
Ġon gar
et ri
Ġhis sed
Ġst a
Ġst ip
Ġst angers
Ġst unted
Ġst umble
ac ities
Ġk ett
Ġme ll
ch re
ro che
il p
Ġfr ay
qu ality
Ġch um
Ġgo ble
Ġle ander
Ġun er
Ġab ate
Ġro aming
Ġsp ars
Ġaf oot
Ġag ility
Ġtw itching
Ġbr ooks
Ġam mon
Ġtim bers
ose x
Ġlo aves
Ġbl anche
Ġper cent
Ġhas h
Ġpo ised
Ġye ast
Ġye lling
ren e
Ġho ard
Ġho pping
Ġcons ul
Ġsupp ression
Ġact uated
be at
Ġkind est
Ġreg al
Ġma w
Ġcle ft
Ġconf lag
Ġsk ipper
Ġtra pped
Ġsle ek
Ġbar riers
Ġblack bird
Ġpar ry
Ġpar cels
Ġrun ner
Ġbed ding
Ġdec isions
Ġrec ite
Ġca fe
Ġabs ently
Ġexpl ored
br id
br other
Ġpast or
Ġsqu aw
Ġeye ing
Ġsoft ening
Ġrespect ively
Ġann als
Ġsens itiveness
Ġpain ters
Ġprodu ctions
Ġbra g
Ġfight s
uff ed
Ġvar iations
Ġmaj est
Ġgarden ing
Ġnumber less
Ġwhis ky
Ġmed i
ues e
Ġgri zz
Ġver a
Ġfright fully
Ġvict ual
Ġobl ong
Ġcompl iance
Ġhy dra
Ġafterno ons
Ġori ent
Ġrecogn izing
Ġpet als
Ġsuc ked
Ġfit ness
Ġdam ose
Ġresp iration
Ġrail s
Ġfer ko
Ġband its
Ġmart y
Ġflight s
Ġwheel ing
than ks
Ġpink ies
Ġfeast ed
Ġclock s
Ġflood ed
Ġecho ing
did n
Ġpuzz ling
Ġchin aman
Ġspl ashed
Ġfid o
Ġovert urned
Ġgas con
Ġcoo led
Ġalt itude
Ġhelpless ness
Ġpiano fort
Ġgover ning
Ġcontribut ions
Ġmars hes
Ġintr usted
Ġbun ches
Ġtun es
Ġalter ations
Ġglac ial
Ġdemonstr ations
Ġtig ers
Ġcub es
Ġcub ic
Ġlawn s
Ġdiff ers
Ġstim ulated
Ġine ffect
Ġhook er
Ġtid y
Ġcandid ates
Ġprow ling
Ġtu fts
Ġlic ent
Ġdishon our
Ġsympt om
Ġpersec uted
Ġceremon ial
cel ain
Ġathen ian
Ġimpert ur
Ġell iot
Ġcolumb us
Ġcigaret tes
Ġexh ort
Ġpunct ual
Ġwist fully
Ġoverfl owed
Ġcommunic ations
Ġbudd ha
Ġreappe ar
Ġcrev ice
Ġmung er
Ġadela ide
Ġlivel ihood
Ġanalog y
Ġeugen ie
Ġjudic ial
Ġtoll iver
cop ic
Ġpion eer
Ġmetaphys ical
Ġinexper ienced
Ġsojour n
Ġindec ision
find ing
Ġshoem aker
Ġevin ced
shev iki
Ġsau cy
Ġaggra v
Ġreconcil iation
Ġaer op
Ġwer ner
Ġcounten ances
Ġboister ous
Ġassur ances
Ġportug uese
Ġnym ph
c ous
c ers
c onscious
d or
f le
g am
g ated
g ently
l am
l ife
l ins
m ish
m ered
n ah
n ected
o irs
p our
z ac
Ġt ak
Ġt ipp
Ġt apping
Ġa vert
Ġa ux
Ġw aded
Ġw yn
Ġw aning
Ġo k
Ġh il
Ġb ale
Ġb ha
Ġc hed
Ġc udge
Ġf ated
Ġf umes
on ar
Ġto iling
Ġd ud
Ġp ye
Ġl omb
Ġl uther
Ġl ulu
Ġin und
le ave
Ġy ank
Ġwh al
Ġwh igs
se vent
Ġthat ched
Ġfor bes
Ġr asp
Ġst akes
Ġst umps
ad j
ur m
Ġis suing
Ġk ath
Ġk ids
Ġse est
Ġsa pp
Ġde ities
Ġde formed
qu ets
Ġch and
Ġup turned
ge orge
Ġj oust
Ġv ix
Ġv ases
Ġv ickers
Ġv lad
Ġno sed
Ġman oeuv
Ġout right
em ic
Ġwill ie
um ann
Ġpl umes
Ġtr acing
Ġro ving
Ġpro pped
Ġam abel
Ġcl ash
Ġcl amb
we ar
Ġgr annie
other wise
Ġbl ount
Ġus her
Ġco ils
Ġad hered
de ep
Ġfl itted
Ġfl ipp
Ġper force
Ġpo ked
Ġpe a
Ġpe bble
Ġmay st
Ġcont ention
cl ose
Ġsl av
Ġsl oop
Ġres ide
Ġimp otent
Ġpass port
Ġret ort
Ġyoung ster
ors hip
Ġfar thing
Ġnat ty
Ġchar l
irl ing
Ġmoment ous
Ġwar ner
be aut
ph or
Ġrest lessly
Ġreg ulate
Ġcur rency
Ġinter fering
Ġtra iled
Ġmean est
Ġbar ons
Ġbro ker
Ġsudden ness
Ġvis age
Ġspo ilt
Ġadv iser
Ġmor aine
Ġprom oted
Ġdec ked
Ġele ctions
Ġhur l
Ġfort ifications
hen ry
Ġru gs
Ġsqu al
Ġheav iest
Ġfav ours
Ġdem i
ony mous
Ġsad dled
Ġtrans f
Ġtrans ient
Ġimport un
Ġdef ensive
Ġacqu itted
Ġge ographical
Ġcircum ference
Ġaunt ie
Ġlim itation
Ġexact ing
Ġcompl ais
els ie
Ġgrave yard
Ġoccup ies
Ġcoll ision
vere r
Ġemb ers
Ġemb ank
Ġoccur ring
Ġz adok
Ġbow ls
Ġsav onar
Ġsepar ating
Ġdick y
Ġvent nor
Ġsuit or
Ġhes per
Ġham pshire
Ġmal t
Ġdestro yer
Ġsla pped
Ġskin ner
Ġcontro ls
Ġimper ceptible
Ġhom osex
Ġder by
Ġsen ators
Ġcord elia
Ġwilling ness
Ġenv oys
Ġresist ing
Ġfoolish ly
Ġkeen est
Ġug liness
Ġunex pl
Ġhind rance
Ġindust ries
Ġrestr icted
Ġpred ic
bor g
Ġprotest ations
Ġmont alais
Ġbath sheba
Ġestablish ments
Ġprec arious
Ġfid get
Ġcalcul ate
Ġrepl en
Ġtear ful
Ġtax ation
Ġpsy che
Ġcrist el
Ġabst racted
po ken
Ġmanifest ations
Ġmars den
Ġincred ulity
Ġbutton ed
Ġbrush wood
Ġchamp ions
Ġornament al
Ġoverwhel m
Ġscre ened
Ġsober ly
Ġbald os
Ġcongrat ulated
Ġlimit ations
Ġflee ing
Ġjos iana
Ġine quality
Ġinsens ibility
Ġost ent
Ġconvuls ive
Ġrou g
Ġbarr acks
Ġvoc ation
augh an
Ġlaure ls
Ġmisunder stand
Ġpomp ous
Ġdiso be
Ġbabylon ian
Ġwren ched
Ġcul prit
Ġripp le
Ġviv acity
Ġadj our
Ġcrisp in
Ġdiscreet ly
Ġcabb ages
Ġcau dle
Ġbard ell
Ġcomplac ency
Ġbelg ium
Ġding y
Ġcust ody
Ġburgl ar
Ġraff les
Ġembod ied
Ġhumb ug
Ġaub ert
Ġthur ston
Ġsubmiss ive
Ġmemor and
Ġapplaud ed
Ġminst rel
Ġconstr aint
Ġcouncill or
Ġpand ora
Ġdorothe a
Ġcarp ets
Ġphilist ines
Ġintrud er
Ġsurpl us
Ġimpract icable
Ġlars an
advent ure
Ġenric hed
Ġerrone ous
Ġmousquet on
Ġsavonar ola
a ver
b ud
b ank
c re
c are
g li
h r
k est
m ination
n ap
p ol
p ierre
s aint
t ad
y ards
Ġt ars
he aven
Ġa il
Ġa est
Ġa ghast
in able
in ates
Ġs izes
Ġw ailed
Ġw akened
Ġb ays
Ġf ick
at ig
is ie
Ġp ung
Ġp ouch
as ies
as ters
ll i
Ġn ug
Ġg areth
Ġg resham
Ġy el
ve lt
Ġwh itt
Ġwh iter
Ġwh ales
st aff
Ġre el
im ed
ce ler
Ġr anc
Ġr ousing
am our
Ġse et
ill on
ke ll
th rew
Ġde ars
Ġall eys
Ġne elie
ge ar
Ġj ets
Ġex ig
Ġal kal
Ġthere from
ra ve
Ġare na
Ġout do
Ġout cry
Ġun its
Ġun interesting
ol ution
Ġtr ance
Ġtr udged
Ġsp ice
Ġpro xim
ort able
Ġen umer
Ġlo ite
Ġbl uish
de ck
Ġfl ocked
Ġper mitting
Ġpe al
Ġwell ington
Ġmar ches
Ġmar ston
Ġmust ard
Ġstr angled
Ġsc attering
Ġfir s
Ġcome ly
co ats
Ġsl ing
Ġres orted
ons hire
Ġtell er
Ġfound er
Ġac celer
Ġrep ressed
Ġrep aration
Ġwa ld
Ġsat ir
Ġsat urn
Ġsw ind
Ġcap rice
Ġform ally
Ġel k
be en
Ġsur ged
Ġvo iced
Ġposs um
Ġrel iable
Ġdra ped
Ġref uses
Ġblack more
Ġinf at
Ġinf inity
Ġsn atching
Ġunc outh
Ġhar low
Ġhar vard
Ġserv ile
Ġes sex
Ġcat ac
Ġswe ets
Ġdep ortment
Ġwood pe
Ġmer rit
Ġhur ting
li ven
og any
br aska
Ġmid way
lly n
Ġjud icious
Ġval ues
Ġcent ered
Ġve rena
Ġrich ness
Ġbra w
Ġfast ening
Ġbene ficial
Ġpa uses
Ġmed itating
Ġpract ising
Ġthird ly
Ġbuild ers
uct ions
Ġleg acy
Ġbound aries
Ġnorth umberland
oured din
Ġviol ate
Ġdread ing
Ġsimple ton
Ġgro ped
Ġvol ition
Ġbroad ly
Ġbow ling
Ġpor celain
Ġmut ually
Ġinform ing
ell e
com pan
Ġpick s
Ġham per
Ġmal col
Ġsurf aces
Ġmod els
Ġburst s
Ġbal ancing
Ġhandsome ly
Ġcontro lling
Ġdistinct ness
Ġgrad uate
Ġgrey hound
Ġpan za
Ġamb ush
Ġreck lessly
Ġweight y
Ġtest ify
Ġdi pping
Ġsimilar ity
Ġbid dy
Ġamaz ingly
Ġdwell s
isc op
Ġble ed
Ġpriest ly
Ġga ul
Ġundert one
Ġrad dle
any thing
Ġfoolish ness
add ed
Ġthom son
Ġwra p
Ġthunder ing
Ġinhabit ant
Ġclo ves
Ġtro ll
Ġcouncil s
Ġmatch am
Ġprotest ing
Ġhaw ks
Ġreflect s
Ġcheck s
Ġanno ying
Ġrout ed
Ġirish man
Ġinex ha
Ġabund antly
Ġcontribut ion
Ġrud eness
Ġos mond
Ġruff ians
Ġprecip ices
Ġbuff et
Ġcontented ly
Ġawkward ness
Ġrav ages
Ġperf umed
Ġconquer ors
Ġalexand ria
Ġappropri ated
Ġbou quet
Ġtram ps
Ġpencil s
Ġrend ing
Ġbapt ist
gre en
Ġdissol ution
Ġgy psy
Ġprett ily
occ o
Ġclust ered
Ġpad dle
Ġvault ed
Ġslumber ing
Ġstif ling
Ġserene ly
Ġvehic les
Ġvoc abulary
Ġafore said
Ġsag acious
Ġadvoc ates
Ġcourte ously
Ġponder ing
Ġnegot iation
Ġmartyr s
Ġmah ogany
Ġdiso bey
rin i
Ġcove ted
Ġheath cliff
Ġscor ched
Ġbib bs
Ġank les
Ġunanim ously
Ġcask et
Ġkins man
Ġsequ ins
Ġvamp ire
Ġuna ffected
Ġrugg les
Ġshuff ling
Ġpew ter
Ġtok ens
Ġfoll iot
Ġbac chus
Ġcompe lling
name ly
Ġreverent ly
Ġpreval ent
Ġbattal ion
Ġstagn ant
whis pered
Ġlaf itte
Ġinfle x
Ġsubmar ine
Ġbloods hed
Ġkend all
Ġfon taine
Ġrinald o
Ġintermin able
Ġdile mma
Ġvestib ule
Ġstangers on
Ġdamose l
Ġvix en
Ġvlad imir
c ad
c ases
d one
f if
i ative
i ope
k ingly
m ist
n on
n stone
o i
o ven
p heus
s itting
s kin
t in
w it
y dd
Ġt ark
Ġthe ological
Ġb alk
Ġb ombs
er d
Ġc umberland
Ġto d
Ġto pped
is abel
Ġp lym
Ġp essim
Ġhe nd
Ġl ens
an as
Ġg ad
Ġe bb
ot am
id ly
im medi
al ia
Ġr ut
Ġr aining
Ġst aid
Ġher vey
Ġis les
am id
Ġk ir
Ġshe dding
ch amber
Ġde most
Ġcon co
Ġch u
Ġch am
Ġex uber
Ġno ct
un ty
Ġun gu
Ġab d
if l
Ġar n
Ġqu ench
ure gard
Ġen suing
Ġen liven
op otam
ide on
Ġdis per
Ġdis incl
Ġco adj
Ġte asing
Ġover shad
Ġover grown
Ġfl ap
Ġfl itting
Ġfl apping
Ġhand les
Ġsc abb
ord ering
Ġfo cus
Ġgl au
ary a
Ġmo at
Ġmo cked
Ġsl ower
Ġres ident
ip osa
Ġacc using
Ġwork manship
Ġlight ness
Ġlight foot
Ġmother ly
Ġgu ile
Ġsur veying
Ġsur gery
Ġsil enced
Ġph a
Ġph ases
Ġconf isc
Ġmin ced
Ġste eds
Ġcur sing
Ġinc umbent
Ġinter m
Ġtra itors
Ġgre ens
Ġgre cian
Ġgra zing
Ġdark est
Ġfact ions
Ġneed y
Ġspo iling
Ġpar ched
app arent
pr ud
Ġprom en
Ġmer le
Ġir rational
Ġspir al
og n
ah an
Ġfoot ed
Ġpast ures
Ġlow ly
Ġcorn y
let te
Ġbat s
Ġmur ders
Ġfree ze
Ġchrist ened
Ġwin ced
Ġwild s
Ġbreak ers
Ġcourt ship
Ġdem oral
Ġdem etri
Ġsmo othing
ze vir
Ġdisp utes
Ġshad owed
Ġge ological
Ġden mark
Ġbuild er
Ġast ounding
Ġger an
uss ed
Ġcab ins
Ġpop lar
Ġloc ust
Ġz ool
kes mith
Ġwand erer
Ġcost umes
Ġign omin
Ġdesert ion
Ġscr amble
Ġthin ner
Ġdescend s
Ġalar ic
Ġris ked
Ġcollect ions
Ġfer ret
Ġparis ian
Ġpan els
Ġpan ama
Ġaccompl ice
Ġtit an
Ġbold er
Ġseason able
Ġtriumph s
Ġdouble t
Ġder ision
Ġdur able
war m
Ġdetect ion
Ġbehold ing
Ġshock s
Ġstupid ly
Ġgreet ings
Ġrum or
Ġrum ors
Ġdrift s
alt ar
Ġunp ro
Ġroll in
Ġinstit uted
Ġmechan ics
Ġspl ashing
Ġfid dler
Ġbloom ed
Ġdisci ple
Ġleather n
Ġintim ation
Ġsovereign s
Ġjen nie
Ġcunning ly
Ġchuck ling
Ġos wald
Ġmarvel s
Ġinsist ing
Ġoct avia
Ġpuff ing
Ġconfeder ates
Ġmusk rat
Ġconflict ing
Ġcomprehend ing
Ġreproach fully
Ġserge y
Ġdistinguish able
Ġsoph ie
Ġflor ina
Ġextrem ities
Ġorch ards
Ġexagger ation
Ġexagger ate
Ġprair ies
Ġclam or
Ġdissol ve
Ġhypnot ism
Ġbub bles
Ġtransport ation
Ġsund own
Ġcordial ity
Ġsanct ity
Ġpattern s
Ġchast ity
Ġhub b
Ġprest ige
Ġgret tel
Ġastron om
Ġtract s
Ġdiplom acy
Ġhesitating ly
Ġced ars
Ġlanguid ly
Ġsentin els
Ġgaw ain
pa ul
Ġintrig ues
Ġdefic ient
Ġcripp le
Ġassail ants
Ġcrut ch
Ġcrus oe
Ġprick ly
Ġecl ipse
Ġpettico ats
Ġdepl orable
Ġchees es
Ġvenet ian
Ġvenet ians
Ġmyri ads
Ġstragg ling
Ġtyrann ical
Ġbould ers
Ġcair o
Ġjuris diction
Ġatro cious
Ġpotential ity
Ġdulc inea
Ġimmeas urable
Ġordin ance
Ġexpans ion
Ġaur ora
Ġpromont ory
ivoc al
mach us
Ġlorn a
Ġrhet oric
Ġgob lin
Ġblizz ard
Ġcornel ius
Ġprecinct s
Ġvolupt uous
Ġclamb ered
Ġnug get
Ġproxim ity
Ġinexha ustible
Ġplym outh
Ġdemost hen
apparent ly
d ings
e rers
g iv
h ounds
i u
j ul
j ames
m or
u ations
w yn
z anne
Ġt ugged
Ġo at
Ġo ates
Ġo str
nd s
Ġh ose
Ġh ord
Ġh oss
Ġh itting
Ġh ugged
Ġm ien
Ġc ited
Ġf iles
Ġof fe
Ġhe ter
Ġhe ave
it ud
Ġl ank
ar ity
ar ms
ar iable
an us
Ġn aming
Ġn oureddin
Ġg ully
Ġbe adle
Ġha llow
Ġha ply
le e
le iman
Ġe there
ic us
Ġy u
Ġy olks
ly ph
Ġwas tes
Ġre vers
im p
al c
Ġr ation
Ġr ally
Ġr ach
Ġr up
Ġr allied
Ġst inging
ur ities
Ġan arch
and ed
and ra
her d
ac ross
Ġk em
Ġse ash
Ġshe pard
Ġshe nstone
Ġsh ave
Ġsa ll
Ġsa llow
Ġso d
Ġso ared
Ġso cks
ro gen
Ġde br
Ġfr action
Ġup hold
Ġj inny
Ġv om
Ġv aughan
Ġno v
the ning
Ġint rep
Ġout look
um bed
Ġpl ume
Ġro kesmith
Ġsp i
Ġsp ying
Ġsp ices
Ġqu ack
Ġqu enched
Ġtw it
Ġbr aced
Ġbr ushes
Ġcl aret
Ġgr oo
Ġbl urred
Ġdis he
Ġdis figured
Ġfl aw
Ġper vers
Ġper nic
Ġdown right
Ġmar iposa
ert y
Ġold castle
Ġsc uff
Ġsc rupulous
Ġunder wood
Ġmay n
Ġspe lls
Ġho bbled
Ġcar ib
Ġem erson
Ġhouse keeping
ks ome
Ġret ribut
pect ion
ject ed
Ġform ality
Ġel zevir
Ġhands omest
Ġgi br
Ġrel ied
Ġboy ce
Ġreg istered
Ġma isie
Ġfour s
Ġhum ored
Ġins ists
Ġins upp
Ġcur ving
Ġinc ont
Ġref ers
Ġbri ar
Ġprop osing
Ġprop ensity
Ġred emption
Ġpar ox
Ġhar ang
Ġtri ump
Ġcou ples
Ġwood house
Ġdec ently
Ġinv ariable
Ġir ving
Ġreco il
Ġreco iled
Ġwal cott
Ġsch l
Ġquick silver
Ġtable t
Ġhus s
Ġfoot note
Ġsqu ires
Ġfre ak
Ġsucc our
Ġscar city
gr ind
Ġdelight fully
Ġfight er
Ġang lic
Ġforward ed
Ġdanger ously
Ġliving stone
Ġda oud
Ġforth coming
Ġcre aked
Ġsuper iors
Ġav owed
Ġbox ing
Ġplan ter
Ġenc omp
Ġnorth west
Ġball ad
Ġcloud less
Ġoccup ant
amb ul
Ġsav ings
con f
Ġvirt ually
Ġdam aged
Ġvent uring
Ġbreakfast ed
Ġsin ners
Ġignor ing
Ġsam ples
Ġunf riend
Ġdeb au
Ġcolor ado
Ġrepresent ations
cer ned
Ġep id
Ġep imet
Ġundert aker
Ġstead iness
Ġrad io
Ġsaf est
Ġtar ry
Ġknock er
Ġwra pping
Ġproportion ed
Ġnut r
Ġrust led
Ġpreced ent
Ġaven ues
Ġemploy ers
alt ies
Ġspar rows
Ġsed uced
Ġvers a
Ġincident ally
Ġdisag re
Ġsatur ated
Ġdismiss al
Ġtun ic
Ġadvert ised
Ġsurv ival
inte gr
Ġpistol es
Ġthorn y
Ġmic aw
Ġjos h
Ġbeck oning
Ġrevel ations
Ġcorrupt ed
Ġblast ed
Ġjournal ist
Ġwoo llen
Ġbea um
Ġincom plete
Ġconj unction
Ġirre le
Ġens la
Ġrash ly
Ġgriev ously
Ġsurm ise
Ġsports men
Ġinit ial
pen ny
Ġna ive
Ġprover bs
Ġvolunte er
Ġdilig ently
Ġrebu ke
Ġmyth ology
Ġdissip ation
Ġrugged o
Ġstealth y
Ġdiplom atic
Ġwrest ling
Ġbot hered
Ġhermit age
Ġuntr uth
Ġdistract ion
Ġcoss ack
Ġinfect ion
Ġcommod ities
Ġtang ible
Ġsnar led
Ġreprodu ce
Ġpostp one
Ġclown s
Ġdiscord ant
Ġantip ater
Ġconcess ions
Ġtru est
Ġenthusiast ically
chr ist
Ġpatric ia
Ġpredecess or
Ġepist le
Ġvouch s
Ġflound er
Ġcounsell or
Ġbayon ets
Ġparap et
Ġrais ins
Ġcatalog ue
Ġunsc rupulous
Ġalmond s
Ġlave nder
Ġslaught ered
Ġencamp ment
Ġimmov able
Ġapothe c
Ġknaps ack
Ġpianofort e
Ġmemorand um
Ġmalcol m
immedi ately
Ġcoadj utor
Ġseash ore
Ġgibr altar
Ġparox ys
Ġepimet heus
a ways
f air
m its
m onsieur
r and
s and
z ens
Ġt ens
Ġt iles
Ġt att
Ġt resses
he rence
Ġa erial
Ġa right
in ies
Ġh ild
Ġh ues
Ġb av
Ġm ott
Ġm liss
ou ghed
Ġf ished
at he
on gh
is a
is ingly
Ġd ump
Ġd uff
Ġp ence
Ġp ah
Ġhe wn
an ked
Ġg utter
ot ive
Ġwh ining
se ems
st ay
Ġre eled
Ġr ations
Ġst ute
Ġst ability
ur o
Ġher acles
am ount
oo per
Ġat kinson
Ġk ur
Ġk ansas
ri ft
Ġsa zen
Ġso aring
Ġsu zanne
ke ley
Ġall ev
Ġne braska
Ġli v
Ġdo one
Ġdo cks
Ġdo zens
ul um
qu ick
qu ainted
Ġch lor
Ġj ist
Ġv icksburg
pe x
Ġno st
Ġal c
Ġal aska
Ġthere abouts
Ġthem es
art ic
Ġle if
Ġun cles
em ing
itt ance
Ġpr ism
Ġsp iders
Ġpro l
Ġpro fic
Ġag onies
Ġag encies
Ġtw ould
op ed
Ġbo oming
el iz
Ġbl ed
Ġdis abled
Ġad ul
Ġover l
de ll
Ġpo king
Ġmar bles
Ġsc amp
Ġunder went
Ġunder growth
Ġgl ug
Ġgl ories
ud ging
Ġjust inian
Ġsl ipper
Ġcr amped
Ġmight ily
Ġem ulation
Ġimp ed
omet ers
Ġdon ned
Ġret r
fect ion
iv ided
cess ion
Ġcap acities
Ġwind ings
be gin
Ġrest oring
Ġma ia
Ġdel ive
uck ily
Ġche lford
Ġste wart
bo ards
Ġinc urable
Ġinc urred
Ġsk irted
Ġtra vers
Ġtra ppers
Ġev ac
Ġbest owing
Ġbri be
Ġred ress
Ġpresent ation
Ġcond ensed
Ġsy rup
Ġhar per
az e
Ġmor occo
Ġdep icted
Ġdec omp
Ġra f
Ġra ving
Ġten or
Ġca ressed
Ġwall et
Ġdri ll
Ġmid winter
Ġobser ves
Ġobser vers
ety a
aw ful
Ġcal ves
Ġcal mer
Ġlea ved
Ġpal try
Ġstra pped
Ġval id
Ġval our
Ġgrand children
Ġanim osity
Ġhot ter
Ġsuccess ors
Ġterri ers
Ġvar ies
Ġdisp uting
Ġdu kes
Ġwhis ked
Ġlu pex
Ġshar per
ex act
Ġast ern
Ġav ailed
Ġsouth ard
Ġty ph
Ġenjo ined
Ġleg ally
Ġund ressed
Ġund ulating
Ġimm ob
Ġimm oral
Ġgar ter
Ġiron ical
Ġsharp ened
Ġban ishment
Ġlisten ers
Ġfixed ly
Ġdar win
Ġmal ta
Ġcivil ised
Ġcivil isation
Ġagre es
Ġbal ashev
Ġsystem atic
Ġfalse ly
Ġpi per
Ġcapt uring
Ġrejo ic
Ġconduct ing
Ġmethod ist
Ġune ven
Ġtest ing
Ġdi abol
Ġemper ors
Ġwil mington
Ġlabor ing
Ġregret fully
Ġcro ck
Ġcred ited
Ġaim ing
Ġhut ch
bb ling
Ġknock s
Ġclo aks
Ġscra ping
Ġta wny
Ġbend s
Ġcam era
Ġward er
Ġstraw berry
Ġeconom ical
Ġimpl ore
Ġparliament ary
Ġconven iently
Ġwave red
Ġdefe rent
Ġliber ality
Ġrent ed
Ġdil ap
Ġplatform s
Ġmonarch s
Ġcoal ition
Ġlament able
Ġprecip itate
Ġprecip itous
Ġmoss y
car ried
Ġinse parable
Ġmend ic
Ġzeal and
Ġunwill ingly
Ġmatthew s
Ġbou le
Ġtram pling
Ġleaders hip
Ġcavern s
Ġbea uregard
roll able
Ġtradition al
Ġconvey ance
Ġinval uable
Ġdrunken ness
Ġselect ing
Ġdod ge
Ġdod ged
Ġgriev ances
Ġsyn the
Ġrefresh ments
Ġsculpt or
Ġcommend ed
Ġpeop led
Ġaccus ations
wa it
Ġpump kin
part icular
Ġorph ans
Ġmetaph or
oph on
Ġspeck led
Ġcondescend ed
Ġbellow ing
Ġleop ard
Ġhyacinth ia
Ġdisappoint ments
Ġmow gli
Ġgren ville
Ġcontriv ances
Ġscow ling
Ġdisconc ert
hal a
chr ome
Ġdigest ion
Ġenquir y
Ġenquir ies
Ġanecd ote
Ġvot ers
Ġjed dak
Ġevap oration
Ġscy the
Ġrepugn ance
Ġsep ul
Ġfrat ernity
Ġretic ence
Ġasse mble
Ġshipwre cked
Ġsalut ary
Ġdeform ity
Ġdiscons olate
Ġchunk y
Ġshimer da
Ġreced ing
Ġchag rin
Ġperci val
Ġdionys ia
Ġnoo nday
Ġpolona ise
Ġpublis her
Ġrog ues
Ġcoven ant
Ġmarl borough
Ġbunder combe
Ġthunderbol t
Ġinan imate
Ġwyn n
Ġbha er
Ġpredic ament
Ġdemetri us
Ġunpro f
Ġethere al
Ġdebr is
Ġpernic ious
Ġmicaw ber
Ġstute ley
b ler
d og
f illed
h ast
j ug
l ical
r h
s car
u ates
z ied
Ġt ib
Ġt resp
in us
Ġo v
Ġb ared
Ġb itte
Ġc ooks
Ġf ay
Ġto ils
Ġp etya
Ġl oth
Ġin aud
Ġn ailed
Ġg ur
Ġg ideon
Ġbe lf
ut tering
ic est
id on
st ool
ce lyn
al cul
Ġfor ged
Ġr io
Ġr ye
Ġst ater
Ġan onymous
Ġnot or
Ġk ra
Ġk ane
Ġk aff
Ġme ats
ch y
Ġsa bre
ul ates
Ġor pheus
Ġex or
Ġex pelled
ood le
Ġgo nd
Ġcom for
Ġcom tes
Ġun ison
Ġab u
ol on
ig ated
Ġpl od
Ġpl ums
Ġar sen
Ġsp heres
Ġpro gressed
Ġtw itched
Ġgr ange
Ġlo pe
Ġbl otted
Ġtime ly
Ġdis integr
Ġco vet
Ġad rian
de acon
pl ings
Ġfl uff
Ġper for
Ġshould st
Ġpo acher
Ġsay ings
Ġpe gan
te rer
Ġsc rup
Ġunder water
ans wer
Ġho ary
Ġob sequ
Ġcr ay
iz i
Ġsomet hin
Ġatt aining
ens ities
Ġwr inging
Ġmat rons
Ġlove lace
Ġnor we
Ġsat ire
Ġsw ag
ced e
Ġrel iance
Ġreg ent
Ġsil h
Ġbre eds
Ġhor de
Ġpur itans
iss on
Ġhum pty
Ġsou ven
Ġinde cent
Ġfore man
Ġfore castle
Ġwords worth
Ġbar ge
Ġtri angle
Ġtalk er
Ġwonder ingly
Ġcor rel
Ġrec ited
Ġrec urred
Ġsing ly
where ver
Ġtem pers
Ġmaster piece
Ġstre aked
Ġmad ge
Ġlad ders
Ġexpect ant
Ġperfect ed
Ġpal estine
Ġest ra
cri bing
Ġcold er
Ġthy me
Ġcast s
Ġsal is
Ġbook case
Ġsatisf actor
Ġscar borough
Ġann ually
Ġsad dles
Ġsmo ky
Ġdress maker
Ġdisp ro
Ġdisp ens
Ġhall o
Ġclot he
Ġcre ak
Ġfle ets
Ġpriv y
Ġclass ed
Ġtreat s
Ġcompl ication
Ġviol ated
Ġund ue
Ġfun nel
Ġlang don
Ġanne x
Ġinstant aneous
Ġtur g
Ġremark ing
Ġz est
Ġz ig
Ġcho icest
Ġben ign
Ġfirm ament
Ġyellow ish
Ġstro lling
Ġnoble men
Ġham mond
Ġdestro ys
Ġsin ful
Ġmort ified
Ġbal es
Ġfavor ably
wood s
hip s
Ġmam m
Ġband age
Ġhappen ings
Ġpack ages
Ġinj un
Ġcit adel
Ġseason ing
bec ame
Ġdwell ers
mar ked
Ġwag g
Ġwag ner
Ġcro pper
Ġep iscop
Ġassert s
Ġcop se
Ġlevel s
Ġremind ing
Ġash ur
Ġdan es
Ġsher idan
gen cies
Ġproc ur
Ġspark le
Ġinstit ute
Ġweakness es
Ġterm ination
Ġrene e
Ġinfer red
Ġbrig and
Ġench anting
Ġnon chal
Ġharsh ness
Ġfest ivities
Ġdimin ution
wr itten
Ġdre ar
Ġidiot ic
Ġextrem es
Ġvest ige
Ġrand olph
ste ady
Ġsem ic
Ġincom parable
Ġtransport s
Ġpoly chrome
Ġmanuscript s
Ġremonstr ances
Ġgau ge
Ġdraught s
Ġaccum ulation
Ġluxur iant
Ġcommend ation
Ġweigh s
Ġbrace let
Ġuncon cerned
Ġhypocr ite
Ġcough ing
Ġidol at
Ġstrang eness
Ġinterven ed
Ġrecl ining
Ġindisc retion
Ġdevout ly
Ġdelir ious
Ġdissatisf action
Ġimpass able
Ġcomplac ently
Ġphysi ogn
Ġimpost or
Ġsteadfast ly
Ġbroo ch
Ġbroo ke
Ġvas ili
Ġamph ithe
Ġscam pered
Ġaggress ive
Ġanecd otes
Ġpamph let
Ġcleve rest
Ġbaw led
Ġpresbyter ian
Ġgour ville
Ġundes ir
Ġvagab ond
Ġinve ter
Ġshred s
Ġunquestion ably
inst antly
Ġpestil ence
Ġcanter bury
Ġwalt z
repres ent
Ġcitoy en
Ġtapest ry
Ġdisheart ened
Ġgel at
Ġcrum pled
Ġsiber ia
parallel ed
Ġmerchand ise
Ġconflag ration
Ġdisper se
prud ence
Ġdemosthen es
Ġhord es
Ġoffe nder
Ġrup ert
Ġinsupp ortable
Ġstater oom
Ġcomtes se
Ġpegan a
Ġsatisfactor ily
a emon
b il
d av
g ical
g ingly
h og
m u
m ir
m ings
o der
r ative
r unning
s uck
s ufficient
t ically
u osity
v ary
w y
w orm
z h
he ar
Ġa ile
in ked
in aries
Ġw ily
re gn
Ġh ort
Ġh ick
Ġh itch
Ġb ide
Ġm au
Ġm ire
en ough
Ġto pp
is ively
Ġd ung
Ġp ies
Ġp ets
Ġl acks
ll as
Ġg ower
Ġg ases
Ġg aff
Ġbe arers
Ġha un
Ġha voc
le en
le men
Ġe ul
Ġe um
Ġe el
ld on
Ġit ems
Ġwh ipping
se ts
Ġon wards
ent ive
Ġre un
Ġre formed
ce ux
al ice
Ġas he
Ġfor fe
Ġwe as
Ġwe arer
ad oes
Ġk an
Ġk ep
Ġsh aping
ch i
ch ance
Ġso les
Ġde als
Ġby stand
Ġcon tended
Ġch loe
Ġj ang
Ġex empt
Ġman ch
Ġal iment
Ġal ban
Ġwho so
Ġout break
Ġun paralleled
em n
ak i
if to
Ġpl undered
Ġsp ire
Ġpro st
Ġag ile
ack er
Ġcan ary
Ġen rich
Ġcl av
Ġgr uel
Ġbl ithe
Ġdis em
Ġdis su
Ġdis ordered
Ġco iled
Ġco aches
pl aces
Ġfl am
ish a
Ġper j
Ġper u
Ġper ceptibly
Ġpo ker
Ġgood wood
Ġmu g
Ġthr ush
Ġsm ite
per ceived
Ġmay a
Ġres uming
Ġimp rec
Ġbel v
Ġhouse maid
Ġpres id
hes itating
Ġfar ce
Ġdist ortion
to e
Ġnor hala
Ġrep osed
Ġrep orters
Ġwa ft
Ġsub jug
Ġappe ased
Ġsur rey
Ġdel awares
cept ive
Ġass es
Ġass umes
no ck
Ġph ar
Ġconf iding
Ġbeh aving
Ġfore cast
Ġtra verse
Ġev as
ird re
Ġbar ometer
Ġsy nd
Ġmil t
Ġhar b
Ġpat ter
Ġfire wood
Ġreal ms
jo ined
og ical
Ġlist less
Ġnecess aries
Ġru pe
Ġprince ly
Ġfoot path
Ġpast rini
Ġdisc ol
Ġmist aking
Ġut ens
Ġpen alties
Ġsal ih
Ġcomple ting
Ġscar red
Ġdraw ings
Ġquar les
Ġsuccess ively
Ġport al
Ġbra ves
Ġprot ests
Ġsuper v
Ġfaith less
Ġbill et
Ġast ounded
Ġver ified
Ġlie ge
Ġer upt
Ġund ec
Ġant io
Ġimm ig
Ġimm ensity
Ġgar r
light ly
Ġthank fulness
Ġcoll apsed
Ġpun ishing
Ġmountain ous
Ġcab man
Ġgro oms
Ġtur ban
Ġinflu ential
Ġvol t
Ġpor ters
Ġintend s
Ġmut iny
Ġblind fold
Ġbag dad
Ġpra ising
Ġdar zac
Ġur ban
Ġmel bourne
Ġinno vation
Ġdust ing
Ġgrad uated
Ġwear is
Ġarch deacon
min ated
Ġsuspic iously
Ġlod ger
Ġdi pper
Ġwid ening
Ġperform ances
Ġcool er
Ġfet nah
Ġjew kes
Ġdawn ing
ett es
Ġdispl aced
Ġbon nets
Ġdetect ives
Ġcapital ist
Ġemer ging
Ġrow ena
Ġprepar atory
Ġhans om
Ġmont fort
Ġrum our
Ġcler ical
Ġlit he
Ġax i
Ġax is
Ġframe work
Ġcraw ford
Ġcelebr ation
Ġstor med
Ġinvestig ator
Ġtax i
Ġalt ars
Ġbarn aby
Ġdil ated
Ġmanifest ly
Ġdeliver ing
Ġsom n
Ġsom ber
Ġtoler ation
Ġnet work
Ġmaxim um
Ġlament ing
Ġshepher ds
Ġcontrad icted
Ġsul ky
Ġwithdra wing
rie ved
Ġaltern ate
Ġath wart
Ġhal ter
Ġreform s
Ġbrut us
Ġemphas ized
Ġirres olute
Ġtramp ing
Ġautom atically
Ġborrow ing
Ġcopper field
Ġine ffic
Ġpunish ments
Ġspur red
Ġrailroad s
Ġpenn iless
Ġsullen ly
Ġchau ffe
Ġprocure ur
Ġindef atig
Ġdefect ive
Ġirre voc
Ġimpuls ive
Ġens ure
Ġwy lder
Ġapolog ized
Ġapolog ize
Ġgriev ance
Ġdamsel s
Ġsports man
Ġinit iative
Ġintol er
Ġmusket eers
Ġhamm ock
Ġhamm ering
Ġcontradict ory
Ġfab ulous
Ġeth ics
Ġenlar ge
Ġscor p
Ġtrades man
Ġvass als
Ġbellow s
Ġtiss ues
Ġstab bed
Ġunmist akably
Ġwither ing
Ġfib re
Ġconscient iously
Ġannihil ation
Ġsate ll
Ġecl ips
lem agne
Ġdraper y
Ġantony ms
Ġindol ent
Ġdiscrim ination
Ġpredecess ors
Ġcleve land
Ġtheore tical
Ġconcur rence
Ġmultip ly
Ġrive ted
Ġspright ly
Ġphon ograph
Ġpetro grad
Ġlocom otive
Ġknuck les
Ġappell ation
Ġmarse illes
Ġtorto ise
Ġgoble t
Ġuner ring
Ġcudge l
Ġharlow e
giv ings
Ġrach ael
ongh old
Ġsalis bury
Ġsemic ir
b are
b ett
k an
k et
m oon
n amed
n ature
o pp
p ension
r uth
t ar
w ark
Ġt ik
Ġs ib
Ġw ert
Ġw ary
Ġw inking
Ġo aken
Ġo reg
re pe
Ġi li
Ġc um
Ġc uck
Ġc inn
at io
or ated
Ġl umps
ar ound
ll ers
Ġg ry
Ġbe in
Ġbe an
Ġha lo
ot ence
ot ected
ut eness
Ġre iterated
et on
ir ting
Ġfor ge
Ġr itual
Ġwith hold
and ah
Ġhad st
oo s
Ġsh orn
ro de
Ġall ure
Ġall usions
ome y
Ġli k
Ġcon cier
Ġcon fection
ul ence
Ġch ord
Ġch attered
Ġman iac
Ġint rude
Ġle m
Ġle ase
Ġle gg
Ġcom in
Ġun mer
Ġun wise
Ġun awares
em ly
if erous
um a
Ġmis givings
Ġar den
Ġtr ink
Ġpr iceless
ace ous
ag ara
Ġcan s
Ġcl oses
are en
op her
Ġgr u
Ġbl inked
Ġco ated
Ġco ff
Ġad air
Ġover land
Ġper usal
Ġapp ertain
Ġapp alled
Ġpre occupied
Ġstr onghold
Ġsc roll
per fect
ild en
wh ither
Ġmiss es
Ġbet o
Ġho ve
cl iffe
co ver
Ġmen aced
Ġres plend
Ġfri ar
Ġcar cass
Ġem pir
Ġimp unity
Ġturn er
pect ing
Ġcour ted
Ġpers ia
Ġwa ite
ange ment
Ġmon ceux
Ġgod father
Ġwar ranted
Ġgi ver
ner y
Ġreg ime
Ġconf ines
Ġnear ing
ib ald
Ġcur d
Ġsk ul
Ġhigh lands
Ġed mund
oud a
sh ort
Ġred dened
Ġinf ur
app ro
Ġmil king
Ġpat ten
Ġhope fully
Ġdep reci
Ġdec rees
Ġinv aders
Ġmer ri
Ġsing ers
Ġground ed
Ġson nets
Ġfur row
Ġdeep ening
Ġdri vers
Ġtable ts
br inging
Ġsleep less
Ġdev onshire
Ġpal at
Ġcorn ish
let ons
Ġappro vingly
Ġquiet er
Ġarri v
Ġsurpr ises
ek ing
Ġve ils
Ġgreen ow
oun ces
Ġdest inies
Ġworth iness
Ġtrans m
Ġport ent
Ġfast ing
Ġdiv ides
Ġvar nish
Ġdisp ers
Ġshad d
Ġda unted
Ġpa ving
Ġmed al
Ġglass y
Ġsuper human
Ġpract ition
Ġcra ven
Ġwait ers
Ġver b
Ġlim estone
Ġbrown e
Ġsnow drop
Ġrefle x
par ably
Ġvan stone
Ġimm ac
light s
Ġshut ter
Ġmass ac
Ġsand wich
Ġtur tles
gan ov
Ġben ito
Ġlangu or
Ġmir anda
Ġorigin ality
Ġfurn ishes
Ġconnect ing
Ġopport une
Ġbottom s
Ġinform s
Ġmal chus
Ġur b
Ġur sus
Ġsin ned
Ġbal m
Ġlot us
Ġwel sh
Ġeduc ate
Ġhol t
Ġmeaning less
Ġcook ies
Ġpan or
Ġstock s
Ġune qu
Ġwed ded
Ġbrit ann
Ġwid ened
Ġclaim ing
Ġgroup ed
Ġelect ors
Ġgather s
Ġbon teen
Ġinvol ving
Ġtot tered
Ġplant ag
Ġemp ires
bb ler
Ġrestr aining
Ġbos well
Ġvic iss
Ġfred dy
Ġemer gencies
Ġpurch ases
Ġpred iction
Ġrab ble
Ġinstru ctive
Ġsubs cription
Ġrum ble
Ġrum ours
Ġconvent ions
Ġreven ues
Ġenorm ously
Ġunp repared
Ġtheat res
Ġcrack ling
Ġlibr aries
Ġlocal ities
Ġlev ity
Ġlev ied
Ġsne ering
Ġbrig ands
Ġbewild ering
Ġlament ation
Ġapplic ations
Ġelement ary
Ġinsist ent
Ġthence forth
Ġblessing ton
Ġded uction
Ġfanc ying
Ġroast ing
Ġsumm ary
Ġstim ulating
Ġunjust ly
Ġstruct ures
Ġcompassion ate
Ġdiscl ose
Ġvap ors
Ġagric ola
Ġscand alous
Ġskil fully
Ġhan sel
Ġnois ily
Ġvault s
dra wing
Ġgamb ler
Ġcass andra
Ġtus can
Ġaccommod ate
Ġmartyr dom
Ġdecre ase
Ġbudd hist
Ġfren zied
Ġtank erville
Ġincomp atible
Ġadvertis ements
Ġmanufacture rs
Ġdiscern ible
Ġsoothing ly
gra ve
Ġcarav ans
Ġaj ib
Ġinfirm ity
Ġmason ry
Ġunin hab
Ġabhor rence
Ġperv aded
Ġparticip ation
Ġacquies cence
Ġpau per
Ġni agara
Ġchees acre
Ġlind sey
Ġunhe eded
Ġconsumm ate
Ġlaced aemon
Ġmyri ad
Ġbrus que
Ġroo st
Ġnit rogen
Ġdeleg ates
Ġnev ada
Ġuncont rollable
Ġlabou rers
Ġturb ulent
Ġgav roche
Ġexalt ation
Ġterr aces
Ġmosqu it
Ġreminisc ences
Ġunac quainted
ogene ous
Ġunavoid able
Ġatlant is
Ġaggreg ate
Ġpeev ish
Ġambros ch
Ġineff able
Ġvictual s
Ġaest hetic
Ġnoct urnal
Ġscabb ard
Ġtriump hed
Ġanglic an
Ġapothec ary
Ġdiabol ical
Ġdilap idated
Ġscrup ulously
Ġwearis ome
Ġchauffe ur
Ġoreg on
b less
f al
l ost
l ies
l ov
v ar
w ash
y an
y den
y ton
z ier
Ġt ain
Ġt iber
Ġt ifto
Ġa aron
Ġw akes
Ġw itted
re mon
Ġh ips
Ġh oused
Ġb anged
Ġm ash
Ġm ih
Ġc ud
at um
at hetically
ed ward
en in
Ġto line
Ġp he
Ġp ug
it atively
as is
as co
Ġn uth
Ġg his
Ġg hip
Ġbe ards
ic les
Ġre eling
Ġre ferences
im m
ir y
ir led
Ġfor feit
Ġr ift
Ġst agger
ad er
Ġat he
Ġk ant
Ġk ens
Ġk atherine
ch ris
ill o
Ġsa ves
ro e
ess ing
Ġde irdre
Ġall uring
Ġne pt
Ġdo zed
Ġch ol
ard o
Ġv ia
Ġno akes
Ġun em
Ġab om
Ġab ated
Ġab uses
ap so
Ġpl ots
Ġpl iable
Ġsp ouse
Ġsp awn
hed ro
Ġag g
Ġen am
Ġlo ch
Ġlo athing
Ġknow eth
Ġdis eng
de c
ab ling
ci us
ang u
Ġpre con
Ġstr iding
Ġstr aying
Ġunder going
Ġunder world
Ġway side
Ġgl ou
Ġspe cks
Ġback ing
Ġlet t
Ġjust ifiable
Ġmo cc
ath a
so ft
Ġimp regn
av in
int ing
iv a
Ġlight est
Ġnor theast
Ġchar lemagne
gg ie
Ġsw itched
Ġhands omer
Ġvo gue
Ġbelie ver
Ġmin im
Ġste ve
Ġste ak
ib les
Ġins urg
Ġinc alcul
Ġfam ished
Ġdr ouet
Ġed mond
Ġsn orted
Ġsn ails
Ġmil on
Ġhope lessness
Ġfire light
Ġbrother hood
Ġra id
Ġra iment
ys on
Ġhur ling
tend on
Ġfell ed
Ġir rig
Ġfair ness
og lyph
me aning
Ġlist ens
Ġdri ly
Ġnum b
Ġsch umann
mon th
let ta
Ġap athy
Ġjud as
Ġsus pension
Ġflo e
Ġimag inations
Ġann esley
Ġeat er
Ġstud ious
Ġsuccess es
Ġfight ers
Ġang ular
Ġdisp ense
Ġdet ested
Ġdesp o
Ġdesp aired
Ġlab el
Ġrepe lled
Ġtal ons
Ġvill ains
Ġshar ks
Ġbill ows
Ġbell a
Ġloved ay
Ġpeace able
Ġcra ve
Ġwrong ly
Ġresol ving
Ġwatch fulness
ha us
Ġlim ped
Ġbelong ings
Ġobl iterated
Ġfro ze
Ġfro cks
Ġgall antly
Ġjack al
Ġgun ners
Ġbank ers
Ġstar fish
sy m
Ġflat tened
Ġprev ails
Ġven eration
Ġpress es
Ġvent ures
Ġindivid ually
Ġdom ination
Ġpick ets
Ġham ish
Ġcover t
Ġcover let
Ġbod ied
Ġgrad grind
Ġarch way
Ġpity ing
Ġrejo in
lin i
rid a
Ġdeb ated
Ġbid dle
Ġdor cas
Ġlabor iously
Ġtele machus
Ġfairy land
Ġep ig
Ġtight ened
Ġoce ans
Ġcy pher
Ġsty les
bl ins
Ġconstant ine
char min
Ġash ton
Ġadop ting
Ġtro phy
Ġpred atory
Ġbol ton
Ġswall owing
Ġcorrect ness
Ġfil ms
Ġconven iences
Ġcheck ing
Ġstor age
Ġobserv ant
Ġobserv able
Ġinex orable
Ġcommitt ees
Ġintim ated
Ġdram at
Ġvel ve
Ġbrig ade
lest one
Ġeffic acy
Ġperplex ing
Ġsust enance
Ġcheap er
Ġschol arly
Ġreign ing
Ġprejud iced
Ġgrie ving
Ġmusk ets
Ġtour ist
Ġdimin ishing
Ġbrut ality
Ġtramp ed
Ġmanufact uring
Ġdiff ering
Ġflor id
Ġrh apso
Ġinferior ity
Ġpip ing
Ġratt les
Ġillum ination
Ġerrand s
Ġgossip ing
Ġfelic ia
Ġmagnet ism
Ġbapt ized
Ġvap ours
Ġreass ure
Ġeditor ial
Ġinit ials
Ġgau dy
Ġvoc al
Ġmusket eer
Ġpoo rest
Ġrans ford
Ġplough ing
Ġexpert s
Ġeth ical
Ġoverp owering
Ġrebu ild
Ġrack et
Ġdiplom at
Ġripp ling
Ġcorp us
Ġintox ication
Ġriv u
Ġinfect ed
Ġcoax ed
Ġcoax ing
Ġalb any
Ġglist ened
mel ine
Ġstalk ing
Ġfores aw
Ġannihil ated
Ġanalog ous
Ġundo ing
follow ed
Ġunse emly
Ġindol ence
Ġarrog ance
Ġpresbyter ians
Ġcompr ised
Ġloath some
Ġgib son
Ġunfav orable
prov ided
Ġful ness
Ġsauc er
Ġemancip ation
Ġkal ganov
Ġsunbe ams
Ġpedest al
Ġrelinqu ish
Ġshim mering
Ġcertific ate
Ġingrat itude
Ġdiscomf iture
Ġsaus ages
Ġcandlest ick
Ġoliv ia
Ġgalile e
Ġcess ation
Ġderv ish
Ġenchan ter
Ġguill ot
Ġcongen ial
ilp hedro
Ġexig encies
Ġglau cus
Ġkem p
Ġretribut ion
Ġunfriend ly
exact ly
Ġbitte rest
Ġinveter ate
Ġundec ided
Ġnept une
c ation
d irect
h um
h ans
h any
h augh
i at
i ator
m orton
n els
p us
s it
v at
v ain
y mouth
Ġt amed
Ġt ainted
in ty
Ġs arka
Ġw ow
Ġw rench
Ġo me
Ġh ank
Ġm oose
Ġc elt
Ġf umbled
en ham
is hers
Ġd ys
Ġd arya
Ġp asha
Ġth imble
or ily
Ġhe v
es cence
as us
Ġn ause
Ġg on
Ġg ales
Ġbe headed
ic hes
Ġwh iff
ce ly
ir ms
Ġas cribe
Ġr i
Ġr ind
Ġr ite
Ġr ale
Ġr oose
Ġwe ymouth
Ġst ow
Ġst ad
ac ular
am ont
am ah
Ġk w
Ġshe wed
Ġsh ingle
Ġme li
Ġmy r
pp o
ard owski
Ġv ald
Ġex to
Ġman agers
Ġfe ld
ra ges
Ġint act
Ġcom er
Ġun at
Ġun be
Ġun iting
Ġun interrupted
um pt
Ġtr ooper
Ġsp illed
Ġtw ardowski
au ding
Ġcl ank
Ġcl ums
are v
op ular
ine ers
Ġfl ats
Ġhand c
Ġmar red
Ġapp li
ick land
ness y
Ġpart isans
Ġgl utton
Ġspe lled
Ġown ing
Ġho ck
Ġmo vable
Ġmo haw
Ġhere by
Ġsl ab
Ġres erv
Ġcomp osing
Ġcomp ositions
so oth
Ġcar ling
Ġcar gan
Ġbel ated
Ġhouse wife
Ġpres cribe
Ġop ulent
Ġcall ous
Ġcall iope
Ġnothing ness
Ġchild like
iv als
Ġever ard
Ġchar mond
Ġchar iots
Ġrep ute
Ġrep aid
Ġke ats
ject ion
Ġel ated
ph is
no on
Ġph oe
Ġconf u
Ġhum p
Ġhum bled
Ġmorn in
Ġcol t
Ġadd icted
Ġlar ks
Ġunt ied
Ġdr on
Ġmean ings
Ġprin ter
Ġprop ensities
Ġpresent iment
Ġcontin ents
Ġpat agon
Ġadm ittance
Ġext inction
Ġdep raved
Ġprom inence
Ġsuff ices
Ġrec ap
Ġir ksome
Ġfair fax
Ġill s
Ġexpl oring
Ġmist ook
Ġwin wood
Ġsal uting
uc id
Ġtrans act
Ġbra h
Ġvar iously
Ġvar iance
Ġdeal ers
Ġtor ments
Ġgentleman ly
Ġda unt
Ġhall uc
iter ate
miss ible
Ġrob ins
Ġver min
ann ah
Ġcamp ing
Ġdepart ments
Ġjack ie
Ġgun n
Ġsand als
Ġbattle field
Ġmark ets
Ġpleasant est
Ġstar board
Ġfal tering
Ġban ish
Ġhost ilities
Ġpros pered
com es
Ġempt iness
uit ous
Ġroyal ists
Ġagree ing
ev na
Ġjul ian
Ġtong s
Ġfier cer
Ġris king
Ġcollect ive
Ġattract s
Ġfer ment
Ġreve als
Ġstock ing
Ġinj unction
rop ri
Ġfamiliar ly
Ġsympath ize
Ġmagic ians
Ġol enin
Ġentertain ments
Ġprefer ring
Ġgrief s
Ġafford ing
Ġcrime a
Ġenv iable
Ġqual ification
col onel
Ġscra ped
Ġta o
Ġhang ings
Ġcas ks
Ġod ors
Ġstrict est
Ġpron ouncing
Ġblock head
Ġlabour ing
Ġsupreme ly
Ġcounter act
Ġtrick led
Ġju ven
Ġconsist ency
ipe l
Ġwhit ish
Ġrecon no
Ġos cill
Ġsul aco
Ġsul kily
Ġpersist ence
Ġfant ast
Ġstomach s
Ġingen uous
Ġpuff s
Ġcontinu ation
Ġawkward ly
Ġtip sy
Ġhal sey
Ġclut ches
Ġdecor um
Ġdistribut e
Ġjam ie
Ġplot ting
Ġnatured ly
Ġuncomfort ably
Ġancest ral
Ġshru gging
Ġpave ments
abell e
Ġtraged ies
Ġhedge hog
tr ans
Ġlur id
Ġassault ed
Ġconj ure
Ġpeer age
Ġhaught ily
Ġbub bling
Ġexplos ive
Ġtrout ina
Ġowners hip
Ġdispos itions
Ġabol ish
Ġdisdain ful
Ġrepair ing
Ġverd ure
Ġisrael ites
Ġnour ished
rons ky
Ġhunts men
Ġcyn ical
Ġpend ulum
Ġmes mer
Ġdyn asty
Ġneut r
Ġgait ers
Ġdisreg arded
Ġexasper ating
Ġdemean or
Ġchronic le
Ġplacid ly
Ġgid d
Ġmelod ious
Ġmelod ram
Ġtipt oes
Ġcale b
hard ly
Ġron icky
Ġpartners hip
Ġcrut tendon
Ġrecru it
Ġrecru its
Ġobliv ious
Ġfen wick
Ġinfam y
tow ard
Ġgull s
Ġstrat age
Ġps alm
Ġdynam ite
Ġbrus sels
Ġscree ch
Ġunsus pected
Ġapprent ice
Ġhier oglyph
Ġfurt ively
Ġmisle ading
Ġplut o
Ġauthent ic
Ġbash ful
Ġapolo getically
Ġbens usan
Ġalp ine
Ġfiss ure
Ġvist a
Ġvindict ive
jol ras
Ġtep hany
Ġfoss il
Ġcounse lled
bene ath
Ġammon ia
Ġimpertur bable
compan ied
cad illy
Ġvouchs afed
eliz abeth
Ġrejoic ings
Ġlope z
Ġundesir able
Ġghis izzle
Ġmocc as
Ġinsurg ents
Ġincalcul able
Ġroose velt
b est
d rew
h orn
l ate
l augh
n i
n ine
n onsense
p un
s am
s ul
w ine
x ious
z art
Ġt ug
Ġa ouda
Ġthe olog
Ġw im
Ġw ards
Ġw add
Ġo gress
Ġo mission
re nd
Ġb oud
Ġb ordering
er ated
Ġm ite
Ġm ittens
Ġc ider
en joy
on omy
Ġto to
is n
Ġd ice
Ġp ours
Ġp ounced
or um
it arian
Ġl ure
Ġl ashing
Ġn ess
Ġn ana
Ġg ips
Ġha v
Ġha mb
le toe
Ġe els
ic um
ve rest
Ġwh ig
Ġwas her
st ant
et ic
Ġst ig
Ġat oms
Ġk ern
Ġme red
ro on
ke w
ke es
Ġfr is
Ġfr ugal
Ġne llo
Ġdo bb
ul es
Ġch an
Ġch aps
Ġch ords
ard ing
Ġj ave
Ġj ugg
Ġv and
Ġv iner
Ġex iled
Ġman ning
Ġal um
Ġfe es
ist an
ist icated
os cope
Ġle ices
Ġun cond
Ġab e
if ax
ol ested
um en
ig ible
Ġpl ow
Ġro am
Ġqu int
Ġbr ion
Ġtim orous
Ġcl od
Ġcl attering
Ġgr antly
Ġgr otto
Ġlo is
Ġco er
Ġco pp
Ġte ut
Ġte ased
de ath
pl ain
Ġfl apped
ci vil
Ġper ceives
Ġthr ashing
Ġsm ack
Ġsc ud
Ġsc oop
Ġthink er
Ġeven ly
ren sky
Ġob dur
Ġdes ist
Ġsl ang
Ġcr un
Ġem iss
Ġem itted
Ġimp utation
Ġpass ers
Ġeyes ight
Ġjo c
Ġret al
Ġyoung sters
Ġwr inkle
Ġmat s
Ġfather ly
Ġarm en
Ġlight ened
Ġlight wood
ub rious
Ġrep ulse
Ġrep roof
Ġel ms
Ġel iot
Ġmon charmin
be it
be hold
Ġexp iration
Ġhel ene
Ġtre gear
Ġbeaut eous
Ġfore bo
Ġtra ppings
Ġsim mer
Ġsun lit
oud ed
Ġred der
Ġsn ares
Ġfin ance
Ġfin ery
Ġpat rons
Ġtri angular
Ġart ifice
Ġdep ressing
Ġprom isc
Ġcor vet
Ġhold er
Ġpri zed
Ġsea ward
Ġten ement
Ġru pt
gn on
Ġstra ps
Ġcorn ered
Ġsqu inty
Ġappro x
Ġap ople
Ġcast e
Ġjud gments
Ġchrist opher
Ġforg ave
Ġpen gu
Ġprov ident
Ġexist ent
Ġcourt ier
gr ams
Ġsens ual
Ġeat ers
Ġcharacter ized
Ġschool boy
Ġought n
Ġport ico
Ġhat ched
Ġsol a
Ġoffic ially
Ġwis p
Ġcra bs
Ġden otes
Ġdie u
Ġforget ful
Ġgar lands
Ġattend s
after wards
Ġtrust worthy
go vern
Ġmountain eers
Ġgro cery
Ġpet itions
Ġloc ke
Ġpleasant ry
Ġz ones
Ġven ison
Ġemplo ying
Ġmut ilated
Ġimpress ively
Ġnarrow ed
Ġaston ish
Ġdar ned
Ġdepend ing
Ġpot ter
cher y
Ġarch ibald
ron ting
Ġnose g
Ġbas ins
Ġrejo inder
Ġmistress es
Ġwed ge
Ġmas que
Ġwid ower
Ġaud acious
Ġpresident ial
Ġbid s
Ġpaint s
Ġcard lestone
Ġber keley
Ġkey hole
Ġdism ally
Ġworst ed
Ġgay ety
Ġproject ion
Ġunconscious ness
Ġscra w
Ġrig orous
Ġrespons ive
Ġdece ase
Ġaven ged
Ġstraw berries
Ġbud ding
Ġabsurd ly
Ġhaw keye
Ġpage ant
Ġcontract s
Ġcrack ers
Ġren ounced
Ġinvestig ated
Ġalt amont
Ġoffend ers
Ġcaval iers
Ġruth less
Ġnich oll
Ġpolly anna
Ġluc as
Ġluc ifer
Ġanch ov
Ġapt itude
Ġmaxim ov
Ġspecul ate
Ġfest ivals
ih in
Ġnarr ower
ae us
Ġchall oner
Ġnic he
Ġnic est
Ġtap ering
yl on
sequ ently
Ġsumm ers
Ġwick et
Ġrigid ly
Ġgang way
Ġdew y
Ġwont ed
Ġaccess ion
Ġdiscl osure
Ġinsens ibly
Ġsme lled
Ġlid dy
Ġprel ude
Ġprophe cies
Ġlemon ade
Ġbru ise
Ġecst atic
Ġprostr ation
Ġgau ze
Ġmathem atic
Ġadvers ity
Ġpic cadilly
Ġcondes cension
Ġquad r
Ġimpet us
Ġextract s
Ġastron omer
Ġsimult aneous
Ġrect angle
Ġbot an
Ġdow ry
Ġdow ager
Ġindisc reet
Ġgnaw ed
Ġbef itting
Ġtam ar
Ġsanction ed
Ġscept re
Ġramp arts
Ġmane u
Ġpau pers
Ġprecept s
Ġpalp able
Ġquot ation
Ġpamph lets
Ġbould er
Ġrepugn ant
Ġsock et
Ġalco hol
Ġthigh s
Ġnaz areth
Ġgestic ulating
Ġgrapp le
Ġvenom ous
Ġpetrov na
Ġtul ip
Ġutop ia
slow ly
Ġphosph ores
Ġambig uous
Ġperempt ory
Ġspasm od
Ġmik o
Ġegot ism
Ġprerog ative
Ġeuph rates
desp ite
Ġsmould ering
Ġfacil itate
Ġkett les
Ġembank ment
Ġwoodpe cker
Ġtark as
Ġnugget s
Ġjosh ua
Ġdelive rer
Ġraf ters
particular ly
Ġsepul chre
Ġhaun ches
Ġcinn amon
Ġpanor ama
Ġplantag enet
Ġkens ington
haugh nessy
Ġmered ith
a que
e rest
f riend
h igh
i atic
k ons
l ova
m ante
n ich
p ull
t ons
w ord
w atching
w ords
w onder
Ġt inkling
Ġt ilden
Ġa ha
Ġh ooked
Ġb iz
Ġb ickers
er oy
Ġm umm
Ġc ain
Ġf ue
Ġf ined
ing led
Ġd ual
es se
it eness
Ġl int
Ġl ute
Ġl aces
Ġl ances
Ġl acon
as ium
ar thur
Ġn y
Ġg ou
Ġg ud
Ġg aps
om ac
Ġbe ale
Ġha con
Ġha pless
Ġit ching
Ġwh iz
Ġre aring
Ġu gh
al tern
Ġfor sooth
Ġr ipped
Ġan ter
Ġher itage
ter a
Ġse b
Ġse g
Ġsh unned
ri x
Ġsa h
Ġsu leiman
Ġne ur
us ans
Ġli by
Ġwhe l
Ġcon all
Ġcon veying
qu oth
Ġch ums
Ġch alm
ard ine
Ġj aunt
pe re
pe ls
Ġman gled
Ġal tering
Ġgo blins
Ġint uit
ie ux
Ġout raged
Ġun steady
em orial
Ġab ound
Ġab el
Ġab du
Ġab ounded
Ġwill y
ol ite
ol ia
um ihin
itt ingly
Ġmis app
Ġmis cell
Ġmis giving
Ġpl aza
Ġar omatic
Ġpr ou
Ġsp ine
Ġqu a
Ġpro ced
Ġag ripp
Ġtw ined
Ġtw ixt
Ġbr indle
Ġam al
Ġam orous
Ġtim my
Ġcl icked
Ġcl amber
Ġbl ust
Ġus anga
Ġdis orders
Ġco on
Ġco quet
Ġte ams
Ġad a
Ġfl im
ish able
ish ments
Ġper c
Ġper verted
Ġold wick
Ġstr ickland
per down
Ġgl aston
Ġgl azed
Ġlook in
Ġye h
Ġho e
Ġob eron
Ġres iding
Ġcr am
anc ies
Ġcomp ulsion
Ġem meline
omet heus
Ġear ls
dy ke
Ġind om
Ġlight en
ict itious
ub ber
Ġnor se
Ġchar red
Ġrep ud
Ġgu ild
Ġel usive
Ġhome wards
Ġwar ped
Ġdel inqu
Ġche wed
Ġste als
Ġsou theast
Ġins pir
Ġcur s
Ġread ings
bo x
Ġtra ils
Ġsim eon
Ġland marks
Ġed itors
Ġbro c
Ġbro iled
Ġadv ising
Ġinf ested
Ġpar ks
Ġunc as
Ġhar vey
eter mined
Ġtri o
az ing
Ġart isans
Ġcou pled
Ġplay mates
Ġplay fellow
Ġreason ings
ene v
Ġstart le
Ġce cil
Ġfur rows
Ġfell a
Ġfear lessly
Ġaff inity
Ġru fe
Ġpast oral
Ġmist letoe
Ġcorn ey
Ġquiet ness
Ġgrand daughter
Ġbook sell
Ġcommon est
Ġsucc or
Ġstud s
Ġport mante
Ġbra ided
Ġbra vo
Ġge e
Ġhall way
Ġdu pe
Ġmed itations
Ġmed ea
Ġfing ered
Ġcra gs
Ġast rol
Ġhop s
Ġclass ified
Ġrev iving
Ġaccept s
Ġund ers
Ġund aunted
Ġgar nish
Ġbank ing
Ġconversation al
Ġtrust y
Ġpet ted
Ġiron ically
Ġtail ed
Ġintend ant
Ġdisappe ars
Ġlou vre
Ġcost agu
Ġsubst ant
com m
Ġstir rup
Ġdar rell
Ġur gency
Ġconfess or
Ġinno v
Ġsymp athetically
Ġcrown ing
Ġrail ways
Ġconstit utions
Ġrough ness
Ġflower ing
Ġgh ar
Ġtest ified
Ġthorough fare
Ġliter al
can not
Ġindian a
Ġwid owed
Ġunivers ities
Ġcart wright
Ġbor is
Ġconqu ests
Ġuns afe
Ġgrim ace
Ġmagnific ently
Ġexceed s
Ġqual ifications
Ġfrag oso
Ġvic iously
Ġwra ps
Ġclo ister
Ġpred ict
Ġlux em
Ġsar ac
gl ad
Ġcam den
Ġcam perdown
Ġbud ge
Ġdise ased
Ġunp opular
Ġchat t
Ġchat ted
Ġreflect ively
Ġchim ed
Ġjac qu
Ġliber ally
Ġrepublic ans
Ġcalcul ating
Ġsed ition
Ġobserv ances
Ġital ians
Ġfears ome
bon ny
Ġhoney suck
Ġabst inence
Ġsuspect s
Ġsne ak
Ġtick ing
Ġjun iper
hel en
Ġcann ibal
Ġtoler ate
Ġrod dy
Ġcompet itors
Ġpsych ical
agon al
Ġwrath ful
Ġinsist ence
Ġadvert ise
Ġcontinu ously
Ġnic kel
Ġhal ifax
Ġdimin utive
Ġcub a
Ġsolic it
pass ed
Ġundoubt ed
Ġsoph om
Ġancest or
Ġteleph oned
Ġgn ome
Ġswar thy
Ġbrood ed
Ġgw ilt
Ġapost olic
Ġsubl im
Ġprodig al
Ġumbre llas
Ġinconven iences
Ġswam ps
Ġdict ates
Ġdisorder ly
Ġpeer less
Ġexplos ions
Ġfert il
Ġhem isp
Ġdegr ading
Ġadvers aries
Ġevol ved
Ġrelax ation
har ry
Ġpert in
Ġstump y
Ġsurpass ing
Ġimpet uosity
Ġoverfl ow
Ġdisli kes
Ġdecre ased
Ġhypothes es
Ġomn ibus
Ġacute ly
Ġtechn ique
sylv ia
Ġrever ber
Ġrestaur ants
Ġwreat hed
Ġtrades men
Ġsniff ing
Ġspecific ally
Ġexpand ing
Ġvass al
Ġcarn ival
Ġhelm ets
Ġluke warm
Ġhug hes
Ġpont iff
Ġparaly zed
Ġparaly sis
Ġhumili ated
Ġinfall ibly
Ġbef riend
Ġassail ant
Ġmatrim onial
Ġgir th
walk ing
Ġsno bs
Ġflorent ine
Ġbelg ian
Ġcruc ified
Ġbrazil ian
Ġheather stone
Ġunce remon
Ġps al
Ġpuls es
Ġquot ations
Ġfoll ies
Ġilleg al
Ġcommiss ions
Ġroo ster
Ġunpr otected
Ġpom pe
Ġcataract s
Ġcarl isle
Ġassy rian
Ġblond e
Ġfrig id
Ġbenny deck
Ġsymph ony
Ġvene ering
Ġsaun tered
Ġbenefic ent
Ġpinn acle
Ġemble m
Ġsyrac usans
Ġdemol ished
Ġathlet ic
Ġpoign ant
swe et
Ġhott est
iae val
Ġimprov ised
Ġludov ico
Ġsull ivan
Ġlandown er
Ġtourn ament
Ġinconsider able
Ġsqual id
Ġungu arded
Ġpah om
Ġliv res
Ġboule vard
Ġinaud ible
Ġnorwe gian
Ġamphithe at
dav id
Ġbystand ers
[...]
