{"<s>":0,"<pad>":1,"</s>":2,"<unk>":3,"<mask>":4,"!":5,"\"":6,"#":7,"$":8,"%":9,"&":10,"'":11,"(":12,")":13,"*":14,"+":15,",":16,"-":17,".":18,"/":19,"0":20,"1":21,"2":22,"3":23,"4":24,"5":25,"6":26,"7":27,"8":28,"9":29,":":30,";":31,"<":32,"=":33,">":34,"?":35,"@":36,"A":37,"B":38,"C":39,"D":40,"E":41,"F":42,"G":43,"H":44,"I":45,"J":46,"K":47,"L":48,"M":49,"N":50,"O":51,"P":52,"Q":53,"R":54,"S":55,"T":56,"U":57,"V":58,"W":59,"X":60,"Y":61,"Z":62,"[":63,"\\":64,"]":65,"^":66,"_":67,"`":68,"a":69,"b":70,"c":71,"d":72,"e":73,"f":74,"g":75,"h":76,"i":77,"j":78,"k":79,"l":80,"m":81,"n":82,"o":83,"p":84,"q":85,"r":86,"s":87,"t":88,"u":89,"v":90,"w":91,"x":92,"y":93,"z":94,"{":95,"|":96,"}":97,"~":98,"¡":99,"¢":100,"£":101,"¤":102,"¥":103,"¦":104,"§":105,"¨":106,"©":107,"ª":108,"«":109,"¬":110,"®":111,"¯":112,"°":113,"±":114,"²":115,"³":116,"´":117,"µ":118,"¶":119,"·":120,"¸":121,"¹":122,"º":123,"»":124,"¼":125,"½":126,"¾":127,"¿":128,"À":129,"Á":130,"Â":131,"Ã":132,"Ä":133,"Å":134,"Æ":135,"Ç":136,"È":137,"É":138,"Ê":139,"Ë":140,"Ì":141,"Í":142,"Î":143,"Ï":144,"Ð":145,"Ñ":146,"Ò":147,"Ó":148,"Ô":149,"Õ":150,"Ö":151,"×":152,"Ø":153,"Ù":154,"Ú":155,"Û":156,"Ü":157,"Ý":158,"Þ":159,"ß":160,"à":161,"á":162,"â":163,"ã":164,"ä":165,"å":166,"æ":167,"ç":168,"è":169,"é":170,"ê":171,"ë":172,"ì":173,"í":174,"î":175,"ï":176,"ð":177,"ñ":178,"ò":179,"ó":180,"ô":181,"õ":182,"ö":183,"÷":184,"ø":185,"ù":186,"ú":187,"û":188,"ü":189,"ý":190,"þ":191,"ÿ":192,"Ā":193,"ā":194,"Ă":195,"ă":196,"Ą":197,"ą":198,"Ć":199,"ć":200,"Ĉ":201,"ĉ":202,"Ċ":203,"ċ":204,"Č":205,"č":206,"Ď":207,"ď":208,"Đ":209,"đ":210,"Ē":211,"ē":212,"Ĕ":213,"ĕ":214,"Ė":215,"ė":216,"Ę":217,"ę":218,"Ě":219,"ě":220,"Ĝ":221,"ĝ":222,"Ğ":223,"ğ":224,"Ġ":225,"ġ":226,"Ģ":227,"ģ":228,"Ĥ":229,"ĥ":230,"Ħ":231,"ħ":232,"Ĩ":233,"ĩ":234,"Ī":235,"ī":236,"Ĭ":237,"ĭ":238,"Į":239,"į":240,"İ":241,"ı":242,"Ĳ":243,"ĳ":244,"Ĵ":245,"ĵ":246,"Ķ":247,"ķ":248,"ĸ":249,"Ĺ":250,"ĺ":251,"Ļ":252,"ļ":253,"Ľ":254,"ľ":255,"Ŀ":256,"ŀ":257,"Ł":258,"ł":259,"Ń":260,"Ġt":261,"he":262,"Ġa":263,"in":264,"Ġthe":265,"Ġs":266,"Ġw":267,"Ġo":268,"re":269,"nd":270,"Ġh":271,"Ġb":272,"er":273,"Ġm":274,"ou":275,"Ġi":276,"Ġc":277,"Ġf":278,"at":279,"ed":280,"en":281,"on":282,"Ġof":283,"Ġto":284,"Ġand":285,"is":286,"ing":287,"Ġd":288,"Ġp":289,"Ġth":290,"or":291,"Ġhe":292,"es":293,"it":294,"Ġl":295,"as":296,"ar":297,"ll":298,"an":299,"Ġin":300,"Ġn":301,"Ġg":302,"om":303,"Ġbe":304,"Ġha":305,"le":306,"Ġe":307,"ot":308,"ow":309,"ut":310,"ic":311,"Ġy":312,"ld":313,"ve":314,"ly":315,"Ġit":316,"Ġwh":317,"Ġwas":318,"se":319,"Ġthat":320,"id":321,"st":322,"gh":323,"Ġon":324,"ent":325,"Ġre":326,"im":327,"Ġyou":328,"ce":329,"Ġu":330,"ver":331,"ion":332,"et":333,"ay":334,"al":335,"ith":336,"Ġhis":337,"ir":338,"Ġas":339,"Ġfor":340,"Ġr":341,"Ġwe":342,"Ġst":343,"Ġwith":344,"ad":345,"ur":346,"ght":347,"Ġan":348,"Ġher":349,"Ġnot":350,"and":351,"Ġhad":352,"ter":353,"Ġis":354,"her":355,"ac":356,"am":357,"oo":358,"Ġat":359,"ould":360,"Ġk":361,"Ġse":362,"Ġshe":363,"Ġhim":364,"Ġsh":365,"ain":366,"ri":367,"Ġme":368,"ch":369,"ill":370,"Ġsa":371,"Ġso":372,"Ġsu":373,"Ġbut":374,"red":375,"ct":376,"all":377,"ight":378,"ro":379,"ke":380,"ess":381,"'s":382,"il":383,"th":384,"ore":385,"Ġde":386,"Ġfr":387,"Ġmy":388,"Ġall":389,"ich":390,"Ġthey":391,"ome":392,"pp":393,"Ġhave":394,"Ġne":395,"Ġby":396,"us":397,"Ġli":398,"Ġwhe":399,"Ġcon":400,"Ġdo":401,"Ġthis":402,"ul":403,"qu":404,"Ġch":405,"Ġup":406,"ard":407,"ge":408,"Ġwhich":409,"Ġj":410,"Ġfrom":411,"Ġsaid":412,"Ġv":413,"pe":414,"Ġor":415,"Ġex":416,"Ġwere":417,"Ġone":418,"Ġno":419,"est":420,"ant":421,"ble":422,"Ġman":423,"res":424,"Ġal":425,"ous":426,"ust":427,"very":428,"Ġthere":429,"ation":430,"the":431,"Ġwho":432,"Ġfe":433,"Ġthem":434,"lf":435,"ind":436,"ra":437,"ame":438,"un":439,"fe":440,"ers":441,"ast":442,"ood":443,"Ġgo":444,"Ġkn":445,"Ġint":446,"ist":447,"ong":448,"art":449,"out":450,"our":451,"Ġare":452,"os":453,"Ġwould":454,"Ġle":455,"Ġtheir":456,"ate":457,"Ġwhen":458,"ound":459,"ie":460,"Ġcom":461,"one":462,"Ġwor":463,"Ġout":464,"Ġun":465,"em":466,"Ġab":467,"ak":468,"if":469,"Ġwill":470,"ol":471,"um":472,"Ġif":473,"itt":474,"ough":475,"ked":476,"Ġwhat":477,"ap":478,"Ġmis":479,"ig":480,"Ġbeen":481,"own":482,"ive":483,"ven":484,"self":485,"'t":486,"Ġpl":487,"Ġar":488,"Ġtr":489,"Ġro":490,"reat":491,"ther":492,"Ġpr":493,"Ġsp":494,"Ġqu":495,"ity":496,"Ġpro":497,"hed":498,"Ġaf":499,"Ġcould":500,"Ġag":501,"ost":502,"ace":503,"nt":504,"ure":505,"ort":506,"Ġtw":507,"ake":508,"ack":509,"Ġthen":510,"Ġbr":511,"Ġam":512,"Ġany":513,"ag":514,"Ġtim":515,"Ġyour":516,"Ġmore":517,"ep":518,"Ġcan":519,"Ġsome":520,"au":521,"Ġen":522,"ck":523,"ry":524,"Ġinto":525,"Ġcl":526,"are":527,"hing":528,"we":529,"ose":530,"nder":531,"Ġvery":532,"op":533,"Ġgr":534,"ved":535,"Ġbo":536,"Ġloo":537,"el":538,"Ġnow":539,"ance":540,"Ġother":541,"ittle":542,"ine":543,"ies":544,"Ġlittle":545,"way":546,"Ġdid":547,"ite":548,"ass":549,"ide":550,"Ġthan":551,"able":552,"other":553,"ought":554,"urn":555,"Ġlo":556,"Ġbl":557,"Ġlike":558,"Ġknow":559,"Ġtime":560,"fore":561,"Ġus":562,"Ġdis":563,"Ġim":564,"Ġco":565,"ence":566,"Ġday":567,"Ġte":568,"ade":569,"ice":570,"Ġad":571,"pt":572,"Ġabout":573,"Ġsee":574,"Ġover":575,"ment":576,"ink":577,"Ġtoo":578,"de":579,"cc":580,"pl":581,"ab":582,"wn":583,"Ġfl":584,"Ġgreat":585,"Ġhow":586,"Ġhand":587,"Ġagain":588,"ree":589,"ish":590,"ci":591,"Ġupon":592,"Ġper":593,"ally":594,"Ġhas":595,"ress":596,"Ġshould":597,"Ġafter":598,"Ġpo":599,"Ġonly":600,"ars":601,"ather":602,"Ġsay":603,"ings":604,"ount":605,"Ġgood":606,"ire":607,"Ġpe":608,"ving":609,"Ġtwo":610,"but":611,"Ġwell":612,"Ġour":613,"Ġdown":614,"Ġmar":615,"ert":616,"ile":617,"ves":618,"te":619,"Ġapp":620,"Ġbefore":621,"Ġold":622,"Ġits":623,"ick":624,"Ġmu":625,"ied":626,"Ġlong":627,"Ġmade":628,"age":629,"ft":630,"Ġevery":631,"Ġthr":632,"ang":633,"ful":634,"ull":635,"Ġsm":636,"Ġpre":637,"Ġmust":638,"ions":639,"Ġoff":640,"Ġstr":641,"ious":642,"Ġsc":643,"ue":644,"Ġnever":645,"Ġcame":646,"ward":647,"Ġsuch":648,"per":649,"ild":650,"act":651,"wh":652,"Ġfir":653,"ated":654,"ness":655,"Ġpart":656,"ord":657,"Ġfo":658,"Ġunder":659,"ty":660,"Ġcome":661,"Ġrem":662,"Ġmuch":663,"Ġmiss":664,"Ġway":665,"Ġthink":666,"led":667,"Ġwhere":668,"Ġeven":669,"Ġmay":670,"orn":671,"Ġthese":672,"Ġey":673,"Ġthought":674,"Ġgl":675,"Ġcont":676,"ect":677,"Ġbec":678,"Ġspe":679,"ise":680,"Ġback":681,"Ġlook":682,"ans":683,"ady":684,"ach":685,"Ġmister":686,"Ġye":687,"ren":688,"Ġbet":689,"Ġlet":690,"ave":691,"ud":692,"ried":693,"Ġfirst":694,"Ġown":695,"Ġho":696,"cl":697,"ary":698,"Ġob":699,"Ġdes":700,"Ġhimself":701,"air":702,"co":703,"Ġwent":704,"Ġjust":705,"Ġmen":706,"Ġmo":707,"ff":708,"ath":709,"Ġhere":710,"end":711,"llow":712,"Ġsl":713,"Ġres":714,"Ġcr":715,"ily":716,"Ġmight":717,"ip":718,"Ġseem":719,"ouse":720,"anc":721,"Ġbeg":722,"Ġwat":723,"ber":724,"Ġcomp":725,"so":726,"Ġfri":727,"Ġaway":728,"Ġthrough":729,"Ġcar":730,"oss":731,"Ġhead":732,"Ġem":733,"Ġget":734,"Ġimp":735,"Ġlife":736,"Ġbel":737,"Ġpass":738,"ened":739,"omet":740,"Ġmost":741,"Ġmake":742,"av":743,"for":744,"Ġturn":745,"Ġcons":746,"Ġdon":747,"int":748,"Ġeyes":749,"Ġhouse":750,"iz":751,"Ġwithout":752,"Ġshall":753,"Ġpres":754,"less":755,"Ġacc":756,"ause":757,"hes":758,"Ġthose":759,"Ġnight":760,"Ġop":761,"Ġwom":762,"Ġcall":763,"ks":764,"Ġjo":765,"Ġlast":766,"ared":767,"Ġsomet":768,"Ġstill":769,"Ġcomm":770,"ign":771,"ons":772,"Ġent":773,"Ġnew":774,"Ġtell":775,"Ġtake":776,"Ġnothing":777,"Ġword":778,"Ġbeing":779,"ase":780,"ng":781,"Ġfound":782,"Ġmany":783,"Ġear":784,"Ġret":785,"ory":786,"Ġatt":787,"ix":788,"Ġsaw":789,"oth":790,"ople":791,"ark":792,"dy":793,"Ġser":794,"les":795,"aking":796,"Ġyoung":797,"ens":798,"pect":799,"Ġput":800,"Ġcount":801,"Ġwr":802,"Ġfriend":803,"Ġla":804,"ible":805,"ors":806,"fect":807,"ince":808,"Ġpeople":809,"Ġroom":810,"ered":811,"Ġmat":812,"ail":813,"Ġonce":814,"ne":815,"Ġsame":816,"igh":817,"Ġchild":818,"Ġcour":819,"Ġfather":820,"Ġthree":821,"Ġright":822,"man":823,"whe":824,"ult":825,"Ġplace":826,"ition":827,"Ġwant":828,"Ġfar":829,"get":830,"iv":831,"Ġind":832,"Ġking":833,"Ġend":834,"Ġheart":835,"Ġanother":836,"Ġface":837,"thing":838,"Ġhapp":839,"Ġever":840,"Ġdist":841,"Ġnat":842,"ian":843,"Ġlove":844,"Ġarm":845,"Ġwhile":846,"Ġtook":847,"to":848,"Ġwork":849,"Ġkne":850,"Ġlight":851,"ict":852,"Ġyet":853,"ub":854,"Ġinst":855,"Ġlooked":856,"Ġmind":857,"Ġset":858,"Ġple":859,"Ġnor":860,"Ġac":861,"Ġchar":862,"cess":863,"gg":864,"Ġrep":865,"ently":866,"ertain":867,"that":868,"Ġsupp":869,"ished":870,"Ġleft":871,"ways":872,"Ġthings":873,"Ġpers":874,"'ll":875,"alk":876,"irl":877,"Ġmom":878,"Ġmoment":879,"Ġasked":880,"ations":881,"lt":882,"sel":883,"Ġke":884,"Ġthough":885,"ower":886,"ia":887,"Ġworld":888,"rew":889,"Ġwa":890,"Ġsat":891,"Ġfind":892,"ject":893,"vent":894,"Ġmissus":895,"ret":896,"Ġsir":897,"ling":898,"und":899,"der":900,"pped":901,"ting":902,"Ġgen":903,"Ġsw":904,"Ġgive":905,"Ġmother":906,"Ġgu":907,"Ġcap":908,"den":909,"Ġact":910,"Ġheard":911,"Ġalways":912,"Ġthing":913,"Ġform":914,"ange":915,"Ġdoor":916,"Ġans":917,"Ġsoon":918,"Ġgirl":919,"ced":920,"ither":921,"Ġel":922,"Ġsub":923,"ook":924,"Ġseemed":925,"Ġwind":926,"ss":927,"Ġdif":928,"Ġsomething":929,"Ġtold":930,"ained":931,"Ġmon":932,"Ġhome":933,"aint":934,"Ġgoing":935,"Ġappe":936,"Ġgod":937,"aught":938,"Ġgot":939,"Ġwar":940,"be":941,"land":942,"Ġeng":943,"ning":944,"Ġhands":945,"Ġwoman":946,"ple":947,"Ġsur":948,"aut":949,"Ġgi":950,"ph":951,"Ġvo":952,"ched":953,"Ġyes":954,"Ġposs":955,"Ġfeel":956,"Ġfollow":957,"Ġinte":958,"ical":959,"Ġrel":960,"not":961,"Ġboy":962,"ner":963,"Ġknew":964,"ever":965,"Ġrest":966,"Ġreturn":967,"Ġkind":968,"Ġreg":969,"iver":970,"she":971,"Ġexp":972,"ual":973,"Ġma":974,"Ġsil":975,"Ġhel":976,"row":977,"Ġcle":978,"Ġwater":979,"Ġdel":980,"cept":981,"Ġwhy":982,"Ġass":983,"Ġbre":984,"Ġwo":985,"Ġbecause":986,"Ġbelie":987,"Ġeach":988,"most":989,"Ġagainst":990,"Ġyears":991,"iness":992,"ined":993,"Ġside":994,"Ġhard":995,"no":996,"Ġhor":997,"rest":998,"Ġcertain":999,"ired":1000,"ool":1001,"ters":1002,"Ġquite":1003,"Ġph":1004,"ier":1005,"Ġconf":1006,"Ġdone":1007,"Ġfew":1008,"ited":1009,"uck":1010,"ps":1011,"Ġnear":1012,"Ġche":1013,"Ġfour":1014,"Ġbetter":1015,"Ġtre":1016,"Ġmin":1017,"ru":1018,"Ġhalf":1019,"oub":1020,"med":1021,"Ġcare":1022,"ully":1023,"ised":1024,"ank":1025,"Ġenough":1026,"Ġbegan":1027,"Ġseen":1028,"Ġalso":1029,"aps":1030,"ock":1031,"Ġpur":1032,"iss":1033,"ross":1034,"aken":1035,"Ġgener":1036,"Ġste":1037,"Ġdra":1038,"Ġhour":1039,"Ġhum":1040,"ial":1041,"Ġter":1042,"Ġlady":1043,"ason":1044,"ying":1045,"ott":1046,"Ġwhole":1047,"Ġcalled":1048,"Ġmorn":1049,"Ġpleas":1050,"ib":1051,"ense":1052,"Ġsou":1053,"ream":1054,"Ġbeh":1055,"Ġcourse":1056,"gether":1057,"Ġturned":1058,"Ġhaving":1059,"Ġocc":1060,"een":1061,"uth":1062,"Ġins":1063,"ween":1064,"selves":1065,"Ġdoes":1066,"Ġcur":1067,"Ġread":1068,"ular":1069,"Ġgave":1070,"bo":1071,"Ġcol":1072,"Ġinde":1073,"Ġbeaut":1074,"Ġmorning":1075,"Ġadd":1076,"Ġbetween":1077,"Ġinc":1078,"Ġwhite":1079,"Ġkeep":1080,"ged":1081,"Ġboth":1082,"Ġsmall":1083,"Ġname":1084,"Ġsk":1085,"Ġlar":1086,"Ġsure":1087,"osed":1088,"Ġpoor":1089,"ating":1090,"Ġtoward":1091,"ond":1092,"Ġamong":1093,"xt":1094,"Ġfelt":1095,"Ġdear":1096,"Ġmyself":1097,"Ġopen":1098,"Ġherself":1099,"Ġoh":1100,"Ġref":1101,"ction":1102,"undred":1103,"ife":1104,"Ġfore":1105,"Ġhigh":1106,"Ġhundred":1107,"plied":1108,"Ġinter":1109,"Ġsix":1110,"aster":1111,"Ġtra":1112,"up":1113,"ale":1114,"Ġwhom":1115,"Ġstood":1116,"Ġsent":1117,"its":1118,"owed":1119,"vel":1120,"Ġunt":1121,"Ġround":1122,"Ġdays":1123,"Ġwords":1124,"Ġpoint":1125,"unt":1126,"Ġev":1127,"Ġsim":1128,"ates":1129,"Ġgre":1130,"ces":1131,"Ġgra":1132,"ows":1133,"ung":1134,"Ġfam":1135,"Ġalmost":1136,"haps":1137,"Ġbus":1138,"Ġland":1139,"ird":1140,"ute":1141,"ures":1142,"Ġsun":1143,"iet":1144,"ned":1145,"ents":1146,"Ġhowever":1147,"Ġeight":1148,"Ġdr":1149,"Ġstand":1150,"Ġvoice":1151,"Ġbest":1152,"Ġdark":1153,"Ġsle":1154,"Ġed":1155,"ins":1156,"dden":1157,"Ġmean":1158,"'d":1159,"Ġbu":1160,"Ġbar":1161,"Ġmet":1162,"oud":1163,"Ġanything":1164,"aring":1165,"Ġunderst":1166,"amp":1167,"Ġblack":1168,"Ġfact":1169,"Ġbro":1170,"Ġsudden":1171,"Ġprin":1172,"Ġlaw":1173,"Ġless":1174,"Ġreplied":1175,"Ġpower":1176,"enty":1177,"Ġbri":1178,"Ġprop":1179,"ately":1180,"'m":1181,"rent":1182,"Ġcountry":1183,"sh":1184,"Ġbrought":1185,"fully":1186,"Ġlay":1187,"Ġlooking":1188,"Ġnext":1189,"with":1190,"Ġhelp":1191,"Ġair":1192,"Ġvis":1193,"als":1194,"Ġcried":1195,"Ġquest":1196,"Ġneed":1197,"Ġsince":1198,"Ġuse":1199,"Ġspo":1200,"Ġred":1201,"Ġperson":1202,"oney":1203,"Ġadv":1204,"Ġtogether":1205,"they":1206,"ured":1207,"Ġinf":1208,"Ġpresent":1209,"Ġperhaps":1210,"Ġgent":1211,"tain":1212,"Ġide":1213,"Ġpar":1214,"Ġcontin":1215,"Ġuntil":1216,"Ġfeet":1217,"Ġtill":1218,"there":1219,"you":1220,"Ġsn":1221,"Ġunc":1222,"'ve":1223,"Ġfull":1224,"Ġcond":1225,"Ġrun":1226,"by":1227,"fort":1228,"app":1229,"cei":1230,"Ġfall":1231,"Ġrather":1232,"Ġbed":1233,"Ġlat":1234,"Ġsy":1235,"Ġinterest":1236,"pr":1237,"ressed":1238,"Ġmatter":1239,"Ġmil":1240,"ister":1241,"Ġwife":1242,"Ġhar":1243,"Ġgone":1244,"ering":1245,"Ġfive":1246,"Ġfin":1247,"oubt":1248,"eter":1249,"Ġserv":1250,"Ġaw":1251,"ctor":1252,"ove":1253,"Ġpat":1254,"ash":1255,"Ġindeed":1256,"Ġdeath":1257,"Ġlord":1258,"Ġadm":1259,"when":1260,"od":1261,"Ġtri":1262,"az":1263,"Ġhope":1264,"Ġtaken":1265,"ief":1266,"ten":1267,"Ġthemselves":1268,"Ġtalk":1269,"Ġart":1270,"Ġes":1271,"ments":1272,"uring":1273,"Ġcannot":1274,"Ġspeak":1275,"Ġdire":1276,"Ġcou":1277,"ued":1278,"mb":1279,"Ġothers":1280,"Ġlau":1281,"Ġmor":1282,"Ġlarge":1283,"Ġalong":1284,"ont":1285,"Ġext":1286,"Ġgentle":1287,"ention":1288,"Ġfire":1289,"Ġpol":1290,"Ġcat":1291,"Ġsec":1292,"ield":1293,"Ġswe":1294,"Ġplay":1295,"vers":1296,"ains":1297,"wered":1298,"Ġreal":1299,"ousand":1300,"iting":1301,"akes":1302,"Ġreason":1303,"ached":1304,"Ġthousand":1305,"used":1306,"Ġbrother":1307,"Ġmoney":1308,"Ġdep":1309,"ison":1310,"Ġchildren":1311,"ants":1312,"Ġsound":1313,"ably":1314,"Ġprom":1315,"Ġwood":1316,"ene":1317,"itu":1318,"Ġtrue":1319,"Ġbehind":1320,"lic":1321,"Ġbelieve":1322,"Ġwonder":1323,"Ġremem":1324,"Ġdec":1325,"Ġhear":1326,"Ġcor":1327,"ities":1328,"Ġinv":1329,"Ġpassed":1330,"Ġhon":1331,"Ġtwenty":1332,"Ġdoubt":1333,"Ġele":1334,"Ġopp":1335,"Ġanswered":1336,"Ġdiffe":1337,"ken":1338,"Ġra":1339,"ided":1340,"ton":1341,"Ġsuff":1342,"Ġalone":1343,"aces":1344,"Ġnature":1345,"Ġbes":1346,"Ġhold":1347,"Ġrec":1348,"ys":1349,"Ġmer":1350,"Ġpri":1351,"Ġdead":1352,"Ġsing":1353,"ances":1354,"Ġgold":1355,"Ġground":1356,"ets":1357,"cy":1358,"Ġsea":1359,"wer":1360,"what":1361,"Ġstart":1362,"cond":1363,"Ġhur":1364,"Ġclose":1365,"Ġthou":1366,"Ġbur":1367,"ery":1368,"tend":1369,"Ġstrong":1370,"Ġcompan":1371,"Ġson":1372,"Ġleave":1373,"ides":1374,"Ġask":1375,"body":1376,"ept":1377,"ane":1378,"Ġce":1379,"Ġdoctor":1380,"iful":1381,"Ġmount":1382,"Ġstate":1383,"Ġthus":1384,"Ġgiven":1385,"Ġobs":1386,"Ġfur":1387,"Ġsign":1388,"Ġfell":1389,"du":1390,"Ġbody":1391,"which":1392,"fic":1393,"Ġir":1394,"Ġfair":1395,"then":1396,"ceed":1397,"bed":1398,"where":1399,"Ġshort":1400,"Ġdeep":1401,"Ġtem":1402,"Ġearth":1403,"Ġhorse":1404,"Ġmaster":1405,"illed":1406,"Ġpap":1407,"jo":1408,"gth":1409,"Ġstre":1410,"Ġwhose":1411,"Ġsecond":1412,"vered":1413,"ually":1414,"read":1415,"Ġfa":1416,"Ġoften":1417,"owing":1418,"tle":1419,"Ġfort":1420,"aim":1421,"Ġorder":1422,"Ġwish":1423,"Ġconst":1424,"Ġcir":1425,"Ġeas":1426,"Ġdro":1427,"ceived":1428,"Ġfif":1429,"hen":1430,"Ġten":1431,"Ġca":1432,"aid":1433,"aced":1434,"osition":1435,"Ġmad":1436,"Ġspir":1437,"Ġreally":1438,"li":1439,"og":1440,"Ġfear":1441,"anger":1442,"Ġill":1443,"Ġabs":1444,"Ġwall":1445,"Ġunderstand":1446,"ready":1447,"men":1448,"Ġquestion":1449,"ider":1450,"aughter":1451,"ching":1452,"Ġaff":1453,"ger":1454,"me":1455,"Ġleast":1456,"Ġitself":1457,"Ġcoming":1458,"Ġexpl":1459,"oc":1460,"Ġlist":1461,"Ġje":1462,"hn":1463,"Ġchr":1464,"Ġused":1465,"Ġcase":1466,"Ġnecess":1467,"Ġru":1468,"Ġstep":1469,"Ġtherefore":1470,"Ġspr":1471,"Ġprince":1472,"Ġsoul":1473,"Ġalready":1474,"Ġabove":1475,"ized":1476,"Ġdri":1477,"Ġreco":1478,"imes":1479,"Ġknown":1480,"Ġevening":1481,"Ġnum":1482,"Ġaround":1483,"ah":1484,"Ġlad":1485,"Ġmag":1486,"Ġgeneral":1487,"Ġlear":1488,"Ġwal":1489,"ific":1490,"Ġmus":1491,"Ġsch":1492,"Ġeverything":1493,"Ġtimes":1494,"Ġquick":1495,"Ġsort":1496,"Ġlive":1497,"Ġexpect":1498,"Ġfriends":1499,"vern":1500,"Ġcirc":1501,"Ġtable":1502,"iled":1503,"Ġsum":1504,"Ġwomen":1505,"Ġmeet":1506,"though":1507,"ted":1508,"br":1509,"well":1510,"Ġheld":1511,"ident":1512,"Ġbig":1513,"Ġwithin":1514,"Ġelse":1515,"Ġsuddenly":1516,"Ġmid":1517,"Ġexc":1518,"Ġtown":1519,"Ġperfect":1520,"form":1521,"Ġbring":1522,"tered":1523,"Ġbeautiful":1524,"Ġobser":1525,"Ġsight":1526,"gn":1527,"Ġhus":1528,"Ġcaptain":1529,"Ġreturned":1530,"Ġclear":1531,"ience":1532,"mon":1533,"Ġlost":1534,"ety":1535,"old":1536,"Ġmeans":1537,"Ġfoot":1538,"aw":1539,"Ġkept":1540,"Ġcal":1541,"Ġsleep":1542,"Ġran":1543,"Ġprof":1544,"Ġjohn":1545,"Ġfellow":1546,"Ġsays":1547,"ages":1548,"Ġdream":1549,"Ġpast":1550,"Ġlea":1551,"Ġcut":1552,"Ġobject":1553,"Ġdisc":1554,"'re":1555,"Ġpret":1556,"Ġbad":1557,"gs":1558,"Ġmanner":1559,"Ġyear":1560,"ient":1561,"Ġbecame":1562,"Ġmist":1563,"Ġlow":1564,"Ġeither":1565,"Ġdev":1566,"lled":1567,"Ġhuman":1568,"ines":1569,"this":1570,"ches":1571,"mer":1572,"Ġstrange":1573,"airs":1574,"my":1575,"Ġwhether":1576,"Ġtowards":1577,"Ġcity":1578,"ught":1579,"of":1580,"ility":1581,"Ġmaking":1582,"Ġpal":1583,"Ġest":1584,"cious":1585,"lish":1586,"iew":1587,"Ġrose":1588,"Ġwalk":1589,"Ġroad":1590,"cri":1591,"ians":1592,"iously":1593,"Ġready":1594,"Ġsever":1595,"Ġcold":1596,"Ġstra":1597,"Ġcorn":1598,"Ġduring":1599,"Ġpie":1600,"let":1601,"lly":1602,"Ġtruth":1603,"Ġship":1604,"Ġbat":1605,"Ġsubject":1606,"ution":1607,"Ġbusiness":1608,"Ġsqu":1609,"Ġsoci":1610,"ape":1611,"Ġriver":1612,"Ġbit":1613,"Ġanswer":1614,"Ġfamily":1615,"ingly":1616,"Ġmur":1617,"Ġappro":1618,"Ġap":1619,"Ġthy":1620,"Ġarms":1621,"Ġappear":1622,"Ġdidn":1623,"Ġhair":1624,"Ġfree":1625,"Ġthir":1626,"bert":1627,"ouble":1628,"ote":1629,"Ġletter":1630,"ern":1631,"ffect":1632,"Ġpossible":1633,"Ġsto":1634,"Ġwon":1635,"Ġut":1636,"Ġbecome":1637,"Ġcast":1638,"Ġdifferent":1639,"Ġjud":1640,"Ġval":1641,"itting":1642,"Ġexpress":1643,"Ġchrist":1644,"who":1645,"Ġfine":1646,"Ġidea":1647,"Ġsometimes":1648,"ms":1649,"Ġexcl":1650,"Ġlead":1651,"itted":1652,"Ġblood":1653,"rence":1654,"Ġable":1655,"Ġnatur":1656,"Ġquiet":1657,"Ġforg":1658,"Ġarri":1659,"ster":1660,"band":1661,"Ġsus":1662,"Ġeye":1663,"eth":1664,"how":1665,"Ġcharac":1666,"ey":1667,"Ġchur":1668,"Ġstory":1669,"Ġglad":1670,"ative":1671,"llect":1672,"ards":1673,"Ġseveral":1674,"Ġbegin":1675,"Ġconsider":1676,"Ġtou":1677,"Ġwindow":1678,"Ġdiffic":1679,"Ġsurpr":1680,"isf":1681,"dle":1682,"ek":1683,"Ġwin":1684,"Ġdisco":1685,"teen":1686,"Ġcent":1687,"Ġpen":1688,"Ġequ":1689,"Ġacross":1690,"Ġfre":1691,"Ġflo":1692,"ased":1693,"Ġlonger":1694,"Ġeffect":1695,"Ġpartic":1696,"Ġsor":1697,"cted":1698,"Ġsold":1699,"ublic":1700,"Ġwild":1701,"antly":1702,"Ġsoft":1703,"Ġconc":1704,"Ġgrand":1705,"Ġgovern":1706,"Ġhusband":1707,"Ġcross":1708,"une":1709,"Ġrespect":1710,"Ġprov":1711,"Ġfollowed":1712,"Ġcreat":1713,"Ġsal":1714,"Ġdaughter":1715,"Ġhappy":1716,"Ġthee":1717,"empt":1718,"Ġbird":1719,"Ġheav":1720,"alth":1721,"Ġhast":1722,"Ġshow":1723,"Ġspoke":1724,"Ġve":1725,"Ġsuppose":1726,"Ġanim":1727,"Ġgreen":1728,"Ġrich":1729,"ls":1730,"Ġgard":1731,"anged":1732,"ination":1733,"pend":1734,"Ġdin":1735,"Ġrequ":1736,"Ġstay":1737,"Ġreached":1738,"Ġmere":1739,"Ġpossess":1740,"ames":1741,"Ġexist":1742,"Ġbook":1743,"Ġpretty":1744,"ract":1745,"Ġcomple":1746,"Ġcommon":1747,"aven":1748,"ley":1749,"ices":1750,"Ġexcept":1751,"Ġopened":1752,"Ġappeared":1753,"king":1754,"ump":1755,"Ġtaking":1756,"Ġoccas":1757,"ny":1758,"use":1759,"ising":1760,"Ġimag":1761,"Ġslow":1762,"uc":1763,"Ġhen":1764,"Ġfav":1765,"Ġsense":1766,"Ġmonth":1767,"Ġrus":1768,"Ġexper":1769,"ones":1770,"ug":1771,"tern":1772,"Ġsucc":1773,"Ġsatisf":1774,"Ġbright":1775,"Ġsecret":1776,"Ġbreak":1777,"eric":1778,"Ġremember":1779,"Ġchurch":1780,"ov":1781,"Ġcourt":1782,"ime":1783,"Ġscar":1784,"Ġcarried":1785,"Ġwanted":1786,"gr":1787,"Ġcry":1788,"Ġsaying":1789,"oun":1790,"Ġann":1791,"Ġdem":1792,"Ġspirit":1793,"Ġtree":1794,"Ġmove":1795,"Ġstri":1796,"ots":1797,"riage":1798,"Ġcontinued":1799,"Ġrock":1800,"outh":1801,"Ġaccount":1802,"now":1803,"Ġpurp":1804,"Ġmot":1805,"Ġsens":1806,"Ġcommand":1807,"cul":1808,"Ġtom":1809,"Ġdest":1810,"Ġstreet":1811,"owers":1812,"medi":1813,"Ġeat":1814,"utes":1815,"Ġesc":1816,"Ġsweet":1817,"Ġbreat":1818,"Ġcharacter":1819,"Ġstud":1820,"Ġschool":1821,"irt":1822,"Ġprep":1823,"ham":1824,"itude":1825,"Ġought":1826,"af":1827,"yed":1828,"Ġdecl":1829,"aimed":1830,"ony":1831,"Ġworth":1832,"Ġhill":1833,"Ġsad":1834,"umb":1835,"ury":1836,"Ġdisapp":1837,"Ġdut":1838,"Ġdraw":1839,"Ġquar":1840,"idence":1841,"Ġregard":1842,"Ġsmo":1843,"Ġblue":1844,"Ġfeeling":1845,"day":1846,"Ġpain":1847,"Ġhot":1848,"Ġenglish":1849,"Ġheaven":1850,"Ġtrans":1851,"Ġdelight":1852,"Ġview":1853,"Ġdress":1854,"Ġlaugh":1855,"Ġsuccess":1856,"Ġport":1857,"Ġlived":1858,"Ġprodu":1859,"Ġhung":1860,"ask":1861,"Ġcertainly":1862,"Ġaccord":1863,"Ġmill":1864,"Ġhat":1865,"Ġbra":1866,"Ġterri":1867,"Ġfight":1868,"Ġfast":1869,"Ġprincess":1870,"Ġself":1871,"Ġhours":1872,"ric":1873,"Ġdiv":1874,"Ġang":1875,"Ġimport":1876,"ledge":1877,"ze":1878,"Ġdef":1879,"Ġsol":1880,"Ġexam":1881,"Ġtried":1882,"Ġseven":1883,"uff":1884,"Ġvar":1885,"ney":1886,"Ġlen":1887,"Ġcarry":1888,"Ġforward":1889,"Ġimmedi":1890,"ror":1891,"Ġdisp":1892,"Ġdanger":1893,"Ġfront":1894,"Ġcause":1895,"Ġdet":1896,"Ġoffic":1897,"Ġentered":1898,"son":1899,"Ġdeal":1900,"Ġpay":1901,"Ġhappened":1902,"Ġtor":1903,"Ġeff":1904,"Ġacqu":1905,"gin":1906,"Ġuncle":1907,"Ġled":1908,"Ġadded":1909,"Ġchief":1910,"Ġwalked":1911,"Ġparticular":1912,"Ġpublic":1913,"iam":1914,"Ġfig":1915,"Ġprot":1916,"resh":1917,"Ġord":1918,"Ġaffect":1919,"ship":1920,"Ġsho":1921,"Ġcomfort":1922,"Ġmaj":1923,"iar":1924,"Ġgarden":1925,"ality":1926,"Ġjoy":1927,"Ġbene":1928,"Ġnumber":1929,"side":1930,"Ġyourself":1931,"Ġfail":1932,"oof":1933,"Ġlater":1934,"yond":1935,"his":1936,"Ġdoing":1937,"Ġrid":1938,"Ġmem":1939,"Ġfield":1940,"ize":1941,"Ġpray":1942,"Ġnone":1943,"Ġshad":1944,"ead":1945,"Ġliving":1946,"inct":1947,"Ġneither":1948,"Ġboat":1949,"Ġmouth":1950,"Ġparty":1951,"ilt":1952,"while":1953,"arent":1954,"Ġgentleman":1955,"Ġqueen":1956,"ming":1957,"Ġameric":1958,"Ġvisit":1959,"Ġline":1960,"Ġseems":1961,"ening":1962,"Ġreceived":1963,"Ġfurther":1964,"Ġage":1965,"Ġbear":1966,"Ġge":1967,"raid":1968,"Ġprob":1969,"iff":1970,"Ġentire":1971,"ism":1972,"Ġdirect":1973,"Ġda":1974,"orm":1975,"Ġhall":1976,"was":1977,"Ġsister":1978,"bit":1979,"ously":1980,"Ġclot":1981,"ift":1982,"Ġdesp":1983,"iling":1984,"Ġlaid":1985,"Ġoccasion":1986,"Ġbeyond":1987,"Ġtrees":1988,"wards":1989,"Ġdu":1990,"Ġprison":1991,"Ġvi":1992,"anced":1993,"Ġlab":1994,"Ġrepe":1995,"Ġforth":1996,"Ġaccom":1997,"Ġenem":1998,"Ġprinci":1999,"Ġphil":2000,"Ġminutes":2001,"Ġtal":2002,"Ġsend":2003,"Ġchance":2004,"Ġvill":2005,"Ġsmile":2006,"Ġafraid":2007,"Ġengland":2008,"Ġanx":2009,"Ġcrow":2010,"Ġnearly":2011,"oint":2012,"Ġtry":2013,"Ġpa":2014,"Ġwhis":2015,"Ġpict":2016,"Ġmed":2017,"iment":2018,"Ġstren":2019,"Ġnews":2020,"Ġpleasure":2021,"Ġcre":2022,"Ġlate":2023,"Ġneigh":2024,"rench":2025,"Ġeighteen":2026,"iter":2027,"Ġtrouble":2028,"Ġglass":2029,"ef":2030,"Ġmiles":2031,"Ġwis":2032,"Ġthinking":2033,"Ġearly":2034,"Ġsuper":2035,"aret":2036,"Ġmarg":2037,"ply":2038,"Ġsilence":2039,"gy":2040,"Ġneighb":2041,"Ġplain":2042,"Ġfle":2043,"Ġchange":2044,"Ġpurpose":2045,"Ġfaith":2046,"Ġnecessary":2047,"Ġpract":2048,"Ġdrew":2049,"fered":2050,"ives":2051,"miss":2052,"Ġrob":2053,"Ġtop":2054,"icked":2055,"Ġlu":2056,"Ġmine":2057,"Ġmary":2058,"Ġshar":2059,"Ġheavy":2060,"Ġbill":2061,"Ġdeter":2062,"Ġbott":2063,"ush":2064,"ounded":2065,"ement":2066,"ues":2067,"Ġbell":2068,"Ġfing":2069,"Ġnatural":2070,"rupt":2071,"Ġcaught":2072,"Ġcircum":2073,"Ġstopped":2074,"Ġauth":2075,"Ġaunt":2076,"ament":2077,"Ġexclaimed":2078,"Ġopin":2079,"Ġinqu":2080,"Ġstanding":2081,"Ġisland":2082,"Ġknight":2083,"Ġseeing":2084,"Ġsevent":2085,"Ġago":2086,"Ġhardly":2087,"Ġlength":2088,"aining":2089,"Ġgrew":2090,"inary":2091,"val":2092,"Ġwit":2093,"ler":2094,"Ġgri":2095,"lling":2096,"ically":2097,"Ġhig":2098,"head":2099,"ining":2100,"pper":2101,"Ġloved":2102,"Ġpriv":2103,"ior":2104,"asp":2105,"ancy":2106,"rage":2107,"Ġthird":2108,"Ġpeace":2109,"Ġstraight":2110,"Ġdeterm":2111,"Ġcra":2112,"Ġconvers":2113,"Ġbeauty":2114,"Ġdog":2115,"Ġalthough":2116,"Ġattention":2117,"Ġinfl":2118,"Ġthor":2119,"aged":2120,"ager":2121,"ex":2122,"Ġposition":2123,"cend":2124,"ustom":2125,"atever":2126,"Ġden":2127,"Ġhist":2128,"Ġbuild":2129,"Ġthirty":2130,"hood":2131,"Ġforce":2132,"Ġrom":2133,"Ġcomes":2134,"ghed":2135,"Ġbab":2136,"Ġwrong":2137,"Ġchair":2138,"said":2139,"Ġgirls":2140,"Ġast":2141,"Ġwait":2142,"Ġfrench":2143,"Ġknowledge":2144,"Ġresol":2145,"Ġrap":2146,"Ġstruck":2147,"Ġattempt":2148,"Ġsitting":2149,"Ġthoughts":2150,"here":2151,"Ġav":2152,"Ġsouth":2153,"Ġbox":2154,"Ġhop":2155,"Ġpull":2156,"Ġwatch":2157,"Ġfat":2158,"Ġfifty":2159,"Ġconv":2160,"Ġcrowd":2161,"Ġver":2162,"Ġslight":2163,"Ġcompany":2164,"iers":2165,"Ġthick":2166,"Ġlie":2167,"Ġscarce":2168,"Ġplan":2169,"Ġdinner":2170,"Ġarr":2171,"Ġclass":2172,"Ġdie":2173,"usion":2174,"Ġgrace":2175,"Ġmaid":2176,"ius":2177,"pping":2178,"Ġrev":2179,"iced":2180,"uct":2181,"Ġgetting":2182,"ha":2183,"Ġtreat":2184,"Ġforest":2185,"Ġburn":2186,"Ġdrink":2187,"ists":2188,"ggest":2189,"ndon":2190,"Ġtears":2191,"Ġplease":2192,"Ġborn":2193,"Ġlim":2194,"Ġboys":2195,"ceive":2196,"ored":2197,"Ġstone":2198,"Ġresult":2199,"cient":2200,"Ġty":2201,"Ġfool":2202,"ann":2203,"Ġpaper":2204,"Ġmeant":2205,"Ġauthor":2206,"Ġexact":2207,"Ġimmediately":2208,"bs":2209,"Ġtone":2210,"Ġyouth":2211,"Ġwarm":2212,"Ġdied":2213,"Ġfright":2214,"Ġpost":2215,"Ġsave":2216,"Ġenjo":2217,"Ġincl":2218,"Ġaccept":2219,"Ġleg":2220,"Ġslowly":2221,"ified":2222,"Ġsuggest":2223,"Ġjour":2224,"Ġbelong":2225,"Ġinstead":2226,"Ġer":2227,"dd":2228,"Ġvict":2229,"Ġquickly":2230,"Ġcontr":2231,"ma":2232,"ugg":2233,"arch":2234,"Ġenc":2235,"Ġlondon":2236,"Ġbound":2237,"ooks":2238,"Ġbrown":2239,"Ġdistance":2240,"Ġsaint":2241,"Ġdesire":2242,"Ġlips":2243,"Ġmoon":2244,"Ġcircumst":2245,"Ġcamp":2246,"Ġbeside":2247,"ging":2248,"su":2249,"Ġobl":2250,"Ġimposs":2251,"Ġwhatever":2252,"Ġpock":2253,"Ġfloor":2254,"Ġfix":2255,"aded":2256,"ats":2257,"itions":2258,"Ġnorth":2259,"Ġsnow":2260,"ries":2261,"Ġstrength":2262,"Ġhors":2263,"Ġconse":2264,"ics":2265,"Ġsac":2266,"Ġball":2267,"Ġfilled":2268,"amed":2269,"Ġmakes":2270,"Ġforget":2271,"Ġsafe":2272,"ively":2273,"itten":2274,"dom":2275,"oured":2276,"Ġfood":2277,"Ġcoun":2278,"Ġplaced":2279,"Ġremained":2280,"Ġspring":2281,"Ġrefle":2282,"Ġcompl":2283,"Ġgovernment":2284,"Ġlaughed":2285,"Ġdepart":2286,"ented":2287,"Ġgrow":2288,"erv":2289,"Ġnar":2290,"els":2291,"Ġdescri":2292,"Ġviol":2293,"Ġbroken":2294,"Ġknows":2295,"Ġfollowing":2296,"ges":2297,"Ġeasy":2298,"Ġprofess":2299,"come":2300,"Ġhorses":2301,"ope":2302,"Ġfro":2303,"Ġpiece":2304,"Ġah":2305,"Ġdread":2306,"asure":2307,"eks":2308,"dered":2309,"Ġund":2310,"Ġhid":2311,"Ġgall":2312,"Ġneck":2313,"isted":2314,"Ġcomplete":2315,"cially":2316,"par":2317,"Ġproceed":2318,"Ġpalace":2319,"ires":2320,"Ġdoll":2321,"Ġwaiting":2322,"Ġguard":2323,"ences":2324,"Ġwide":2325,"Ġsail":2326,"Ġstarted":2327,"acy":2328,"Ġshout":2329,"Ġjack":2330,"Ġgaz":2331,"Ġweek":2332,"Ġvan":2333,"Ġservice":2334,"Ġdeg":2335,"reme":2336,"Ġfun":2337,"Ġant":2338,"Ġeffort":2339,"Ġimm":2340,"Ġdifficult":2341,"Ġtalking":2342,"Ġgar":2343,"Ġmess":2344,"Ġger":2345,"Ġimpossible":2346,"aching":2347,"Ġgrave":2348,"Ġsociety":2349,"Ġfresh":2350,"Ġlift":2351,"Ġbesides":2352,"uss":2353,"Ġweak":2354,"Ġproper":2355,"Ġarmy":2356,"Ġcorner":2357,"Ġhy":2358,"ivid":2359,"Ġcloud":2360,"Ġstop":2361,"rom":2362,"Ġsky":2363,"Ġincre":2364,"Ġmargaret":2365,"light":2366,"Ġopinion":2367,"Ġsingle":2368,"oom":2369,"Ġshut":2370,"Ġafterno":2371,"Ġdemand":2372,"Ġmass":2373,"Ġattend":2374,"cell":2375,"Ġthank":2376,"Ġfly":2377,"ises":2378,"Ġgun":2379,"Ġappearance":2380,"Ġlang":2381,"Ġbelow":2382,"arer":2383,"after":2384,"Ġori":2385,"ork":2386,"Ġmention":2387,"Ġbank":2388,"Ġnine":2389,"Ġoccup":2390,"Ġanne":2391,"pic":2392,"ency":2393,"Ġrecogn":2394,"Ġconversation":2395,"Ġcouldn":2396,"cial":2397,"Ġbreath":2398,"Ġwest":2399,"ushed":2400,"Ġgreater":2401,"Ġsit":2402,"ases":2403,"Ġtrust":2404,"Ġevil":2405,"hered":2406,"Ġfash":2407,"Ġmorrow":2408,"Ġclothes":2409,"Ġkiss":2410,"oh":2411,"Ġnin":2412,"go":2413,"Ġcoll":2414,"Ġoutside":2415,"Ġpresence":2416,"vere":2417,"Ġbeat":2418,"Ġusual":2419,"Ġmarried":2420,"Ġwinter":2421,"Ġarrived":2422,"Ġmusic":2423,"itation":2424,"aped":2425,"like":2426,"Ġwished":2427,"Ġshowed":2428,"Ġexpression":2429,"Ġsand":2430,"Ġemb":2431,"Ġmonths":2432,"Ġpun":2433,"Ġbattle":2434,"Ġafternoon":2435,"cent":2436,"Ġmountain":2437,"che":2438,"Ġneg":2439,"Ġrunning":2440,"apter":2441,"Ġsym":2442,"ories":2443,"amb":2444,"Ġmark":2445,"Ġevent":2446,"Ġstates":2447,"Ġturning":2448,"Ġsimple":2449,"Ġcab":2450,"Ġshore":2451,"Ġgro":2452,"Ġformer":2453,"gar":2454,"Ġeager":2455,"ald":2456,"Ġcovered":2457,"Ġmoved":2458,"Ġpet":2459,"Ġpop":2460,"Ġconn":2461,"ature":2462,"Ġconcl":2463,"unity":2464,"Ġsilent":2465,"Ġrelig":2466,"Ġinstant":2467,"str":2468,"Ġphys":2469,"Ġoccur":2470,"Ġstream":2471,"yal":2472,"Ġloc":2473,"Ġremain":2474,"cho":2475,"Ġeasily":2476,"Ġtur":2477,"Ġspeaking":2478,"Ġpleasant":2479,"Ġbeginning":2480,"Ġsick":2481,"Ġremark":2482,"Ġsuffic":2483,"Ġduty":2484,"Ġpale":2485,"Ġfigure":2486,"Ġinflu":2487,"Ġfashion":2488,"Ġpath":2489,"gan":2490,"under":2491,"uel":2492,"Ġterrible":2493,"zz":2494,"Ġpolit":2495,"Ġfut":2496,"Ġminute":2497,"Ġstar":2498,"Ġgiving":2499,"olog":2500,"Ġtwel":2501,"Ġvol":2502,"Ġconscious":2503,"Ġtwelve":2504,"Ġpeter":2505,"Ġexpected":2506,"had":2507,"Ġraised":2508,"Ġmarry":2509,"Ġkill":2510,"Ġz":2511,"Ġsword":2512,"Ġscarcely":2513,"Ġoblig":2514,"Ġflowers":2515,"wise":2516,"Ġstick":2517,"pecially":2518,"just":2519,"Ġoffice":2520,"Ġtall":2521,"Ġrapid":2522,"orted":2523,"Ġprobably":2524,"ipped":2525,"ulty":2526,"Ġiron":2527,"Ġkilled":2528,"Ġplaces":2529,"Ġforty":2530,"Ġguess":2531,"Ġdirection":2532,"Ġlearned":2533,"sy":2534,"Ġbooks":2535,"Ġthrew":2536,"Ġsurprise":2537,"mit":2538,"ech":2539,"ounds":2540,"Ġsilver":2541,"Ġtender":2542,"ibly":2543,"Ġcondition":2544,"eness":2545,"Ġcho":2546,"Ġbread":2547,"Ġaction":2548,"Ġentirely":2549,"Ġtrying":2550,"ding":2551,"tering":2552,"Ġwrite":2553,"Ġhappiness":2554,"aled":2555,"pered":2556,"Ġladies":2557,"oop":2558,"Ġben":2559,"Ġsuc":2560,"Ġwritten":2561,"ume":2562,"Ġenter":2563,"fer":2564,"Ġgolden":2565,"Ġisn":2566,"Ġwonderful":2567,"Ġlangu":2568,"Ġfal":2569,"Ġnote":2570,"ishing":2571,"Ġsteps":2572,"Ġconsequ":2573,"uous":2574,"ndered":2575,"atic":2576,"idered":2577,"fast":2578,"orge":2579,"osing":2580,"Ġenemy":2581,"Ġclosed":2582,"Ġdecided":2583,"Ġshook":2584,"Ġlatter":2585,"onel":2586,"Ġspot":2587,"ital":2588,"Ġwise":2589,"llig":2590,"Ġmiddle":2591,"Ġhistory":2592,"Ġunderstood":2593,"Ġbroad":2594,"itch":2595,"Ġsole":2596,"Ġperfectly":2597,"Ġhun":2598,"mn":2599,"Ġtast":2600,"Ġreply":2601,"Ġadmir":2602,"Ġboard":2603,"Ġmerely":2604,"ax":2605,"retched":2606,"Ġid":2607,"Ġchanged":2608,"Ġgrass":2609,"Ġsummer":2610,"gress":2611,"Ġbow":2612,"Ġsimply":2613,"Ġshot":2614,"Ġsitu":2615,"Ġwouldn":2616,"Ġexperience":2617,"Ġsucceed":2618,"Ġpor":2619,"osp":2620,"plo":2621,"Ġmarriage":2622,"Ġfortune":2623,"Ġsav":2624,"Ġleaving":2625,"Ġsharp":2626,"unk":2627,"do":2628,"rel":2629,"Ġflat":2630,"Ġaccording":2631,"Ġbroke":2632,"olute":2633,"Ġtrave":2634,"ouses":2635,"Ġacquaint":2636,"ts":2637,"Ġexcell":2638,"ests":2639,"Ġobserved":2640,"bered":2641,"cience":2642,"Ġpocket":2643,"Ġtail":2644,"Ġmir":2645,"Ġearn":2646,"Ġoper":2647,"Ġpersons":2648,"io":2649,"Ġfit":2650,"Ġrepres":2651,"Ġfaint":2652,"Ġlives":2653,"Ġclim":2654,"clock":2655,"lend":2656,"Ġafterwards":2657,"Ġcalm":2658,"Ġescape":2659,"Ġgate":2660,"Ġring":2661,"Ġlying":2662,"Ġpassion":2663,"Ġfish":2664,"Ġespecially":2665,"Ġorigin":2666,"bing":2667,"Ġreach":2668,"con":2669,"ples":2670,"Ġfamil":2671,"Ġhealth":2672,"Ġprev":2673,"ivers":2674,"oses":2675,"semb":2676,"Ġfirm":2677,"Ġsorry":2678,"Ġtemper":2679,"Ġfuture":2680,"Ġven":2681,"Ġlean":2682,"Ġspite":2683,"Ġemplo":2684,"Ġrepeated":2685,"Ġban":2686,"Ġallowed":2687,"over":2688,"umed":2689,"formed":2690,"kes":2691,"Ġrain":2692,"urs":2693,"Ġstrugg":2694,"Ġbeneath":2695,"Ġfurn":2696,"Ġbitter":2697,"Ġcircumstances":2698,"Ġcand":2699,"oved":2700,"yes":2701,"Ġintend":2702,"Ġpleased":2703,"Ġdarkness":2704,"ays":2705,"Ġwalls":2706,"Ġimportant":2707,"Ġsepar":2708,"Ġbecom":2709,"Ġletters":2710,"Ġsett":2711,"Ġmagn":2712,"Ġciv":2713,"Ġloud":2714,"Ġnice":2715,"Ġdiscovered":2716,"Ġtea":2717,"Ġdisappe":2718,"Ġjourney":2719,"Ġconnect":2720,"Ġmut":2721,"Ġlegs":2722,"Ġnation":2723,"Ġyellow":2724,"Ġlisten":2725,"Ġworse":2726,"Ġdelic":2727,"Ġwand":2728,"otten":2729,"idently":2730,"Ġbless":2731,"Ġpassing":2732,"ec":2733,"Ġspec":2734,"Ġapart":2735,"Ġkit":2736,"Ġblind":2737,"Ġlou":2738,"velop":2739,"ference":2740,"Ġfinally":2741,"Ġopport":2742,"Ġdressed":2743,"Ġgame":2744,"from":2745,"Ġdim":2746,"ours":2747,"Ġhost":2748,"Ġspread":2749,"Ġheads":2750,"Ġsorrow":2751,"Ġcost":2752,"Ġbeast":2753,"Ġvirt":2754,"Ġdry":2755,"Ġears":2756,"Ġseat":2757,"Ġcreature":2758,"Ġremar":2759,"Ġbag":2760,"Ġdam":2761,"Ġsubst":2762,"Ġdropped":2763,"Ġmadame":2764,"Ġves":2765,"ina":2766,"que":2767,"Ġsmiled":2768,"Ġabsolute":2769,"Ġconce":2770,"ishment":2771,"Ġexistence":2772,"Ġnotice":2773,"Ġpros":2774,"anging":2775,"oon":2776,"Ġdick":2777,"Ġpromise":2778,"Ġlearn":2779,"Ġleaves":2780,"Ġresp":2781,"Ġprotect":2782,"ument":2783,"Ġmotion":2784,"Ġunless":2785,"Ġassist":2786,"Ġdetermined":2787,"Ġbottom":2788,"iod":2789,"Ġpress":2790,"Ġfixed":2791,"Ġcous":2792,"iety":2793,"uge":2794,"acked":2795,"erable":2796,"Ġrub":2797,"action":2798,"Ġvent":2799,"Ġhouses":2800,"Ġinform":2801,"Ġprevent":2802,"Ġindivid":2803,"Ġsuit":2804,"Ġmajor":2805,"Ġexactly":2806,"istr":2807,"Ġintellig":2808,"ancing":2809,"Ġhes":2810,"Ġcastle":2811,"ell":2812,"Ġconcer":2813,"rodu":2814,"Ġadvant":2815,"com":2816,"Ġhabit":2817,"idge":2818,"Ġarg":2819,"Ġconsidered":2820,"zen":2821,"Ġempt":2822,"Ġdom":2823,"Ġpick":2824,"Ġones":2825,"inite":2826,"Ġcheer":2827,"pan":2828,"Ġutter":2829,"Ġbirds":2830,"uit":2831,"Ġvall":2832,"Ġtired":2833,"Ġimpress":2834,"Ġstir":2835,"Ġdisg":2836,"Ġestab":2837,"Ġfrequ":2838,"Ġsong":2839,"ayed":2840,"Ġspeech":2841,"Ġvillage":2842,"Ġstro":2843,"Ġpropert":2844,"Ġhonor":2845,"Ġshadow":2846,"Ġnoble":2847,"Ġpra":2848,"arily":2849,"ribut":2850,"enth":2851,"Ġbelieved":2852,"Ġtrain":2853,"Ġsplend":2854,"Ġwrote":2855,"Ġextra":2856,"Ġpure":2857,"Ġpaid":2858,"Ġparts":2859,"Ġnarrow":2860,"Ġpresently":2861,"Ġvarious":2862,"na":2863,"Ġbreakfast":2864,"Ġaston":2865,"Ġign":2866,"Ġextreme":2867,"Ġdar":2868,"Ġperiod":2869,"Ġroyal":2870,"Ġknowing":2871,"Ġindividual":2872,"Ġham":2873,"Ġagree":2874,"Ġmoder":2875,"Ġremembered":2876,"Ġanimal":2877,"Ġluck":2878,"Ġallow":2879,"Ġgreatest":2880,"Ġclean":2881,"Ġjudge":2882,"ring":2883,"Ġcott":2884,"Ġscene":2885,"Ġdifficulty":2886,"iny":2887,"Ġmal":2888,"ashed":2889,"Ġcustom":2890,"amber":2891,"anted":2892,"Ġsomewhat":2893,"Ġdrawing":2894,"Ġinfluence":2895,"Ġlower":2896,"Ġur":2897,"Ġways":2898,"Ġrevol":2899,"itary":2900,"Ġconfess":2901,"Ġsake":2902,"ator":2903,"Ġlikely":2904,"Ġdeclared":2905,"Ġdesert":2906,"otion":2907,"Ġancient":2908,"Ġangry":2909,"Ġsoldiers":2910,"Ġlooks":2911,"Ġdestro":2912,"Ġpicture":2913,"Ġsin":2914,"ision":2915,"ev":2916,"esty":2917,"ption":2918,"Ġdrawn":2919,"Ġcourage":2920,"oose":2921,"Ġtroub":2922,"Ġspoken":2923,"Ġproud":2924,"gged":2925,"Ġcomb":2926,"Ġwatched":2927,"Ġfinished":2928,"Ġlaws":2929,"Ġeast":2930,"Ġshop":2931,"Ġideas":2932,"Ġanxious":2933,"Ġmort":2934,"Ġnobody":2935,"Ġattack":2936,"Ġtouch":2937,"iently":2938,"rer":2939,"Ġdepend":2940,"Ġsurf":2941,"Ġcivil":2942,"Ġspace":2943,"Ġmod":2944,"Ġfallen":2945,"Ġburst":2946,"Ġfol":2947,"Ġagre":2948,"cil":2949,"ium":2950,"ral":2951,"Ġmel":2952,"Ġscr":2953,"Ġcarriage":2954,"Ġthin":2955,"Ġinside":2956,"Ġgoes":2957,"Ġourselves":2958,"uded":2959,"Ġprivate":2960,"itive":2961,"Ġcolonel":2962,"Ġfifteen":2963,"cise":2964,"Ġadvent":2965,"Ġappre":2966,"Ġsocial":2967,"Ġbaby":2968,"Ġformed":2969,"Ġservant":2970,"Ġwine":2971,"Ġnoise":2972,"Ġwaited":2973,"Ġwindows":2974,"oned":2975,"Ġjul":2976,"Ġspeed":2977,"Ġtong":2978,"Ġbal":2979,"Ġinno":2980,"culiar":2981,"Ġobliged":2982,"Ġvessel":2983,"erial":2984,"Ġlot":2985,"Ġice":2986,"Ġholding":2987,"Ġjane":2988,"Ġgrou":2989,"Ġapparent":2990,"Ġfavor":2991,"Ġimpro":2992,"Ġstranger":2993,"Ġforgotten":2994,"Ġshoulder":2995,"Ġvain":2996,"Ġgentlemen":2997,"Ġthro":2998,"Ġnoticed":2999,"Ġpeculiar":3000,"Ġglance":3001,"Ġcommun":3002,"Ġlose":3003,"Ġcup":3004,"Ġpot":3005,"Ġmain":3006,"Ġevidently":3007,"Ġpromised":3008,"Ġhero":3009,"chapter":3010,"why":3011,"Ġserious":3012,"together":3013,"iction":3014,"ables":3015,"Ġcarefully":3016,"Ġhigher":3017,"Ġproperty":3018,"Ġamerican":3019,"iant":3020,"Ġanimals":3021,"Ġgeorge":3022,"wood":3023,"Ġcover":3024,"Ġmeth":3025,"Ġquietly":3026,"cher":3027,"Ġbod":3028,"Ġhenry":3029,"Ġfier":3030,"ague":3031,"Ġearnest":3032,"stem":3033,"osite":3034,"Ġshoulders":3035,"Ġsymp":3036,"Ġhandsome":3037,"Ġsurely":3038,"Ġedge":3039,"Ġcow":3040,"acing":3041,"Ġpersonal":3042,"Ġaffection":3043,"Ġdust":3044,"Ġgrown":3045,"Ġtremb":3046,"itated":3047,"Ġsla":3048,"Ġoffered":3049,"Ġgenerally":3050,"osity":3051,"Ġspent":3052,"Ġskin":3053,"some":3054,"het":3055,"Ġfaces":3056,"Ġcontro":3057,"Ġdistinct":3058,"ob":3059,"Ġheat":3060,"Ġwalking":3061,"Ġpieces":3062,"aff":3063,"kn":3064,"Ġgrad":3065,"fortun":3066,"Ġpoet":3067,"ingu":3068,"Ġfancy":3069,"Ġfrance":3070,"enced":3071,"oted":3072,"Ġwel":3073,"Ġcoat":3074,"Ġinterrupt":3075,"Ġbuilt":3076,"isters":3077,"Ġpit":3078,"erve":3079,"Ġwear":3080,"Ġchamber":3081,"Ġdescend":3082,"Ġmountains":3083,"Ġsurprised":3084,"onsie":3085,"Ġsystem":3086,"Ġtouched":3087,"Ġdevelop":3088,"Ġintellect":3089,"Ġmurm":3090,"uly":3091,"Ġwasn":3092,"Ġrace":3093,"acher":3094,"Ġbutter":3095,"aked":3096,"Ġfond":3097,"Ġfingers":3098,"leep":3099,"fend":3100,"Ġwilliam":3101,"Ġeduc":3102,"Ġfalse":3103,"Ġeld":3104,"Ġjump":3105,"athered":3106,"Ġwealth":3107,"Ġopportunity":3108,"Ġbare":3109,"key":3110,"Ġsan":3111,"Ġdare":3112,"Ġcompanion":3113,"hip":3114,"Ġlin":3115,"ache":3116,"ipp":3117,"Ġweather":3118,"ctions":3119,"Ġbrave":3120,"Ġgerman":3121,"Ġmatters":3122,"Ġstore":3123,"Ġcrown":3124,"Ġmach":3125,"Ġpi":3126,"Ġalar":3127,"Ġarch":3128,"pet":3129,"nday":3130,"ora":3131,"Ġdegree":3132,"uce":3133,"Ġmam":3134,"Ġfan":3135,"raph":3136,"Ġris":3137,"Ġcollect":3138,"Ġhol":3139,"Ġlovely":3140,"Ġhonour":3141,"bur":3142,"ee":3143,"Ġgray":3144,"Ġinh":3145,"Ġmeaning":3146,"Ġsurr":3147,"ounced":3148,"Ġlake":3149,"Ġrail":3150,"ilar":3151,"Ġattract":3152,"Ġbreast":3153,"Ġoffer":3154,"Ġcharge":3155,"Ġsituation":3156,"ners":3157,"Ġrag":3158,"Ġjim":3159,"Ġgrat":3160,"pected":3161,"Ġfeelings":3162,"Ġopposite":3163,"Ġprepared":3164,"Ġgreatly":3165,"Ġcousin":3166,"Ġfer":3167,"Ġpier":3168,"Ġwriting":3169,"Ġquarter":3170,"oid":3171,"set":3172,"Ġhurt":3173,"mister":3174,"Ġasleep":3175,"Ġunh":3176,"Ġwhispered":3177,"will":3178,"ites":3179,"Ġalive":3180,"Ġthrown":3181,"Ġreading":3182,"Ġband":3183,"Ġeverybody":3184,"Ġkingdom":3185,"Ġparis":3186,"Ġmemory":3187,"Ġsurface":3188,"Ġhide":3189,"Ġblow":3190,"chen":3191,"Ġloss":3192,"Ġaltogether":3193,"Ġenjoy":3194,"wor":3195,"Ġcook":3196,"Ġexec":3197,"oura":3198,"Ġfate":3199,"Ġintrodu":3200,"arest":3201,"Ġconstit":3202,"min":3203,"Ġess":3204,"Ġsides":3205,"Ġbent":3206,"ibility":3207,"Ġservants":3208,"Ġmeeting":3209,"Ġheight":3210,"Ġrough":3211,"Ġequal":3212,"Ġcruel":3213,"Ġgrey":3214,"Ġliked":3215,"Ġcaused":3216,"Ġdollars":3217,"Ġfrank":3218,"Ġswift":3219,"Ġcurious":3220,"Ġseek":3221,"Ġduke":3222,"ointed":3223,"ron":3224,"ara":3225,"erved":3226,"Ġunited":3227,"Ġhappen":3228,"Ġquestions":3229,"Ġdue":3230,"Ġvalue":3231,"Ġsatisfied":3232,"uted":3233,"Ġsquare":3234,"Ġmix":3235,"osop":3236,"Ġempty":3237,"cing":3238,"Ġange":3239,"Ġopening":3240,"Ġsuspic":3241,"Ġsettled":3242,"Ġhath":3243,"Ġtalked":3244,"Ġpity":3245,"Ġsupposed":3246,"Ġaccompan":3247,"Ġfill":3248,"Ġreve":3249,"Ġlistened":3250,"Ġfreed":3251,"Ġdistingu":3252,"Ġfinding":3253,"Ġstudy":3254,"Ġtaste":3255,"lls":3256,"Ġere":3257,"Ġroof":3258,"chief":3259,"Ġnose":3260,"Ġlaughing":3261,"Ġlifted":3262,"Ġlanguage":3263,"Ġordered":3264,"Ġcapt":3265,"Ġpack":3266,"Ġvast":3267,"Ġyours":3268,"Ġmart":3269,"Ġhurried":3270,"more":3271,"eping":3272,"tended":3273,"Ġrul":3274,"Ġwoods":3275,"rance":3276,"Ġegg":3277,"Ġbuilding":3278,"Ġpan":3279,"Ġforced":3280,"Ġstation":3281,"Ġvalley":3282,"Ġbas":3283,"Ġstairs":3284,"Ġrode":3285,"Ġregular":3286,"Ġhurry":3287,"Ġfault":3288,"ocr":3289,"Ġrise":3290,"Ġlibert":3291,"Ġrejo":3292,"Ġshape":3293,"right":3294,"Ġjustice":3295,"Ġdistur":3296,"Ġfrightened":3297,"Ġconduct":3298,"Ġspecial":3299,"Ġpassage":3300,"Ġaccompl":3301,"Ġsacri":3302,"Ġtit":3303,"ils":3304,"Ġweeks":3305,"ille":3306,"Ġgloom":3307,"Ġorders":3308,"Ġdav":3309,"Ġdiam":3310,"ested":3311,"ify":3312,"Ġsmiling":3313,"Ġsoldier":3314,"Ġordinary":3315,"Ġmethod":3316,"Ġstock":3317,"Ġmaterial":3318,"Ġeur":3319,"ades":3320,"Ġune":3321,"Ġserve":3322,"aly":3323,"Ġpin":3324,"Ġpride":3325,"Ġlines":3326,"Ġflower":3327,"Ġtelling":3328,"Ġsixty":3329,"Ġsuffer":3330,"Ġphilosop":3331,"Ġkitchen":3332,"uses":3333,"Ġamb":3334,"Ġinj":3335,"Ġrising":3336,"Ġpapa":3337,"Ġchristian":3338,"Ġignor":3339,"Ġdoesn":3340,"lin":3341,"rop":3342,"Ġdiscuss":3343,"Ġsupper":3344,"Ġaffairs":3345,"Ġexer":3346,"Ġdespair":3347,"onsieur":3348,"Ġthreat":3349,"Ġbold":3350,"Ġhonest":3351,"Ġstreets":3352,"Ġdirectly":3353,"eds":3354,"Ġyork":3355,"Ġnearer":3356,"Ġhole":3357,"Ġmistress":3358,"ik":3359,"imate":3360,"Ġseized":3361,"Ġgrowing":3362,"Ġsufficient":3363,"ude":3364,"Ġwed":3365,"Ġgh":3366,"icated":3367,"thur":3368,"Ġcontrary":3369,"Ġsearch":3370,"Ġsam":3371,"Ġcatch":3372,"vation":3373,"Ġgathered":3374,"Ġende":3375,"Ġbir":3376,"antic":3377,"Ġow":3378,"Ġcit":3379,"Ġusually":3380,"Ġreceive":3381,"Ġunf":3382,"Ġwatching":3383,"yn":3384,"Ġmoving":3385,"Ġremarked":3386,"hens":3387,"Ġmarch":3388,"Ġhills":3389,"Ġeurope":3390,"lished":3391,"Ġshr":3392,"Ġfavour":3393,"Ġmovement":3394,"Ġseason":3395,"Ġlod":3396,"night":3397,"Ġdign":3398,"Ġreck":3399,"Ġharm":3400,"Ġimagine":3401,"bec":3402,"Ġpossession":3403,"bly":3404,"rid":3405,"Ġprove":3406,"Ġprocess":3407,"Ġinstance":3408,"Ġengaged":3409,"ception":3410,"ocked":3411,"Ġdeb":3412,"Ġputting":3413,"ails":3414,"Ġauthority":3415,"Ġaut":3416,"ergy":3417,"Ġaside":3418,"Ġbrothers":3419,"Ġpulled":3420,"eer":3421,"Ġstones":3422,"Ġjer":3423,"Ġmas":3424,"Ġfarm":3425,"Ġworking":3426,"Ġadvantage":3427,"Ġyo":3428,"Ġtwice":3429,"uls":3430,"Ġproved":3431,"Ġrate":3432,"Ġdifference":3433,"hold":3434,"Ġsolemn":3435,"ky":3436,"Ġweight":3437,"Ġdoors":3438,"itable":3439,"agn":3440,"Ġfamiliar":3441,"hy":3442,"por":3443,"Ġmonsieur":3444,"Ġspect":3445,"Ġflew":3446,"father":3447,"mend":3448,"upon":3449,"Ġplayed":3450,"Ġsympath":3451,"Ġhaven":3452,"Ġaware":3453,"Ġdistant":3454,"theless":3455,"Ġholy":3456,"Ġmoments":3457,"Ġtest":3458,"Ġamount":3459,"Ġcolor":3460,"Ġaddress":3461,"Ġinteresting":3462,"known":3463,"Ġwore":3464,"Ġshame":3465,"Ġdogs":3466,"race":3467,"Ġarthur":3468,"Ġbusy":3469,"Ġexplained":3470,"Ġbull":3471,"Ġdi":3472,"Ġnamed":3473,"Ġmyster":3474,"Ġemper":3475,"Ġthorough":3476,"Ġtongue":3477,"bes":3478,"hest":3479,"Ġmeasure":3480,"ulous":3481,"Ġconfidence":3482,"enance":3483,"Ġworked":3484,"Ġbrit":3485,"bers":3486,"Ġliter":3487,"Ġnecessity":3488,"Ġofficer":3489,"Ġexcellent":3490,"can":3491,"ker":3492,"yet":3493,"illa":3494,"sued":3495,"Ġtakes":3496,"Ġnames":3497,"Ġseated":3498,"Ġindian":3499,"Ġsimilar":3500,"Ġendeav":3501,"Ġsplendid":3502,"lv":3503,"Ġwid":3504,"Ġunivers":3505,"Ġthrow":3506,"Ġdisappeared":3507,"Ġsuf":3508,"Ġdrive":3509,"Ġaud":3510,"Ġimper":3511,"Ġpresident":3512,"Ġearl":3513,"Ġale":3514,"Ġunknown":3515,"Ġsupport":3516,"Ġmagic":3517,"mitted":3518,"Ġwil":3519,"Ġgods":3520,"Ġsmoke":3521,"Ġagreed":3522,"Ġterror":3523,"Ġartic":3524,"Ġliberty":3525,"ford":3526,"Ġhearing":3527,"Ġfranc":3528,"ulation":3529,"Ġfortun":3530,"Ġprisoner":3531,"hib":3532,"Ġpowers":3533,"Ġcompanions":3534,"asc":3535,"Ġstorm":3536,"terday":3537,"Ġproduced":3538,"zy":3539,"Ġstars":3540,"Ġwitness":3541,"Ġpard":3542,"Ġspan":3543,"Ġcoast":3544,"Ġperform":3545,"Ġdiscover":3546,"Ġbid":3547,"Ġvir":3548,"Ġbrand":3549,"Ġnaturally":3550,"road":3551,"Ġworks":3552,"Ġmighty":3553,"Ġspirits":3554,"Ġrepresent":3555,"rose":3556,"Ġevidence":3557,"Ġworthy":3558,"Ġdull":3559,"umph":3560,"Ġwicked":3561,"these":3562,"Ġamaz":3563,"Ġwants":3564,"lo":3565,"Ġcool":3566,"Ġclaim":3567,"Ġpersu":3568,"Ġfalling":3569,"Ġdrove":3570,"Ġrare":3571,"Ġterms":3572,"Ġpointed":3573,"Ġgift":3574,"Ġcontent":3575,"Ġinstantly":3576,"every":3577,"Ġsought":3578,"Ġdwell":3579,"Ġdesign":3580,"soci":3581,"Ġknees":3582,"Ġkeeping":3583,"Ġofficers":3584,"Ġparent":3585,"Ġforms":3586,"Ġdor":3587,"alous":3588,"were":3589,"Ġfinger":3590,"Ġoccurred":3591,"isc":3592,"unch":3593,"Ġwaters":3594,"ruction":3595,"Ġtravel":3596,"Ġceased":3597,"Ġpaused":3598,"Ġdiamond":3599,"mar":3600,"Ġol":3601,"iles":3602,"Ġteeth":3603,"Ġble":3604,"Ġrat":3605,"umn":3606,"Ġtriumph":3607,"Ġemperor":3608,"pap":3609,"Ġpair":3610,"Ġgree":3611,"Ġyield":3612,"Ġshown":3613,"Ġprinciple":3614,"Ġyesterday":3615,"Ġaug":3616,"iding":3617,"Ġupper":3618,"Ġlabor":3619,"Ġgroup":3620,"Ġgle":3621,"Ġfailed":3622,"Ġpill":3623,"Ġaffair":3624,"Ġrequired":3625,"Ġexample":3626,"Ġfruit":3627,"Ġentertain":3628,"Ġamerica":3629,"ese":3630,"using":3631,"Ġlies":3632,"Ġinhab":3633,"Ġbask":3634,"asm":3635,"Ġinn":3636,"ental":3637,"arther":3638,"Ġunto":3639,"Ġrooms":3640,"Ġforeign":3641,"even":3642,"Ġcases":3643,"Ġali":3644,"Ġreport":3645,"Ġbuy":3646,"Ġrocks":3647,"Ġorgan":3648,"Ġexcit":3649,"Ġparticularly":3650,"Ġhom":3651,"Ġhunt":3652,"Ġhuge":3653,"usted":3654,"Ġpossibly":3655,"Ġpriest":3656,"Ġintended":3657,"Ġdance":3658,"Ġmilk":3659,"Ġpossessed":3660,"Ġsatisfaction":3661,"Ġcarrying":3662,"Ġunhapp":3663,"Ġdouble":3664,"stand":3665,"acle":3666,"lessly":3667,"Ġmajesty":3668,"Ġsinging":3669,"Ġsoftly":3670,"Ġmentioned":3671,"Ġproof":3672,"Ġhearts":3673,"Ġarrange":3674,"Ġshouted":3675,"Ġfreedom":3676,"Ġfarther":3677,"attered":3678,"Ġder":3679,"angers":3680,"Ġmoral":3681,"Ġsucceeded":3682,"room":3683,"ival":3684,"Ġneighbour":3685,"Ġtend":3686,"Ġtele":3687,"Ġgives":3688,"Ġelect":3689,"Ġdrop":3690,"Ġpaint":3691,"Ġga":3692,"Ġcuri":3693,"because":3694,"Ġfet":3695,"Ġinvent":3696,"Ġgently":3697,"Ġprogress":3698,"Ġrule":3699,"cer":3700,"Ġassoci":3701,"Ġcabin":3702,"Ġpounds":3703,"Ġotherwise":3704,"Ġeliz":3705,"Ġrecord":3706,"Ġdreadful":3707,"Ġexcitement":3708,"iance":3709,"Ġcard":3710,"esh":3711,"Ġbob":3712,"Ġregret":3713,"Ġpapers":3714,"Ġber":3715,"Ġvig":3716,"Ġpowerful":3717,"Ġfairy":3718,"Ġevents":3719,"mond":3720,"would":3721,"reg":3722,"Ġbore":3723,"Ġprefer":3724,"Ġjoined":3725,"worth":3726,"Ġadvice":3727,"Ġadvanced":3728,"Ġsuffering":3729,"Ġpos":3730,"iments":3731,"Ġinstinct":3732,"Ġinterested":3733,"Ġsheep":3734,"Ġunfortun":3735,"Ġfourth":3736,"Ġhidden":3737,"Ġbirth":3738,"Ġfully":3739,"illy":3740,"Ġplat":3741,"Ġvoices":3742,"Ġinterv":3743,"Ġawful":3744,"Ġreligion":3745,"Ġexplain":3746,"Ġgrief":3747,"Ġshel":3748,"Ġpresented":3749,"Ġclearly":3750,"Ġgather":3751,"Ġkey":3752,"Ġbrill":3753,"Ġleading":3754,"yer":3755,"Ġaband":3756,"Ġobey":3757,"Ġchest":3758,"Ġpolice":3759,"Ġafford":3760,"Ġseventy":3761,"Ġcart":3762,"Ġstuff":3763,"Ġimpat":3764,"Ġsteam":3765,"Ġresolved":3766,"Ġbor":3767,"Ġhence":3768,"Ġsen":3769,"ading":3770,"acious":3771,"Ġclever":3772,"Ġdemanded":3773,"inal":3774,"Ġros":3775,"Ġshining":3776,"Ġdesired":3777,"Ġconditions":3778,"Ġconsiderable":3779,"Ġfields":3780,"Ġwag":3781,"Ġjames":3782,"istic":3783,"ighed":3784,"Ġfox":3785,"Ġneeded":3786,"Ġcro":3787,"Ġyard":3788,"Ġserved":3789,"Ġexcited":3790,"Ġshoot":3791,"pir":3792,"ture":3793,"Ġcred":3794,"Ġcord":3795,"Ġjew":3796,"Ġimportance":3797,"Ġpictures":3798,"rant":3799,"asant":3800,"Ġep":3801,"Ġinformation":3802,"Ġride":3803,"Ġshare":3804,"Ġconqu":3805,"ortion":3806,"Ġundert":3807,"Ġcalling":3808,"Ġindians":3809,"Ġships":3810,"Ġseventeen":3811,"Ġcrit":3812,"Ġcharles":3813,"ternal":3814,"ole":3815,"Ġmemb":3816,"Ġmerch":3817,"Ġsprang":3818,"don":3819,"Ġtask":3820,"Ġcouple":3821,"Ġimagination":3822,"Ġtype":3823,"Ġfierce":3824,"Ġhosp":3825,"Ġwilling":3826,"Ġperceived":3827,"Ġcountenance":3828,"Ġcuriosity":3829,"bar":3830,"Ġing":3831,"llen":3832,"Ġnodd":3833,"abel":3834,"Ġstead":3835,"Ġdawn":3836,"iest":3837,"ett":3838,"ams":3839,"Ġsalt":3840,"Ġcitiz":3841,"Ġhither":3842,"Ġslave":3843,"Ġsooner":3844,"Ġdevil":3845,"asped":3846,"Ġcompletely":3847,"hus":3848,"Ġmult":3849,"Ġfold":3850,"Ġabsolutely":3851,"Ġanybody":3852,"Ġappl":3853,"Ġhorri":3854,"Ġextraord":3855,"Ġbodies":3856,"uced":3857,"Ġtight":3858,"Ġrad":3859,"Ġlock":3860,"Ġrefused":3861,"Ġsuffered":3862,"iot":3863,"Ġsigh":3864,"ette":3865,"Ġmyst":3866,"Ġcrime":3867,"Ġoccupied":3868,"Ġdying":3869,"asons":3870,"Ġfeat":3871,"Ġenv":3872,"Ġdism":3873,"Ġnevertheless":3874,"Ġactually":3875,"Ġmodern":3876,"Ġmile":3877,"Ġregarded":3878,"Ġdaily":3879,"Ġspend":3880,"Ġaccident":3881,"Ġcottage":3882,"sie":3883,"Ġbay":3884,"Ġsunday":3885,"ulf":3886,"Ġsuperior":3887,"Ġwelcome":3888,"Ġoce":3889,"Ġbrain":3890,"Ġbetr":3891,"ips":3892,"Ġavoid":3893,"Ġrapidly":3894,"Ġcy":3895,"ization":3896,"Ġhorror":3897,"gment":3898,"Ġhate":3899,"Ġdur":3900,"Ġclub":3901,"Ġdiss":3902,"Ġflight":3903,"Ġedward":3904,"Ġbrief":3905,"Ġuns":3906,"gers":3907,"mas":3908,"Ġsize":3909,"Ġdun":3910,"resp":3911,"Ġworst":3912,"Ġmidst":3913,"fl":3914,"any":3915,"vert":3916,"Ġpoints":3917,"Ġcorre":3918,"Ġsuggested":3919,"Ġsour":3920,"Ġodd":3921,"ater":3922,"ability":3923,"ishop":3924,"Ġinstr":3925,"ission":3926,"nor":3927,"Ġmaint":3928,"Ġrelations":3929,"Ġcrossed":3930,"Ġcult":3931,"Ġtrade":3932,"Ġsmith":3933,"Ġstepped":3934,"Ġlands":3935,"Ġdriven":3936,"Ġeducation":3937,"Ġain":3938,"Ġpicked":3939,"Ġdozen":3940,"Ġtempt":3941,"Ġinquir":3942,"ially":3943,"Ġtaught":3944,"Ġscience":3945,"Ġresist":3946,"Ġninet":3947,"Ġsty":3948,"Ġdeck":3949,"acks":3950,"Ġpolitical":3951,"Ġwet":3952,"Ġanger":3953,"Ġcrim":3954,"Ġprofessor":3955,"Ġmeat":3956,"Ġflesh":3957,"Ġmistake":3958,"Ġfoolish":3959,"Ġremarkable":3960,"agnan":3961,"Ġexpressed":3962,"Ġbelief":3963,"Ġequally":3964,"Ġdangerous":3965,"Ġpu":3966,"aries":3967,"artagnan":3968,"Ġmembers":3969,"Ġsisters":3970,"asing":3971,"Ġshri":3972,"Ġcontrol":3973,"Ġpardon":3974,"bl":3975,"Ġnerv":3976,"Ġsevere":3977,"Ġobst":3978,"Ġhunting":3979,"Ġlone":3980,"arsh":3981,"Ġinterp":3982,"Ġsixteen":3983,"Ġcere":3984,"Ġhotel":3985,"Ġenemies":3986,"cked":3987,"Ġwings":3988,"rem":3989,"acity":3990,"Ġdispl":3991,"Ġkindly":3992,"Ġdepth":3993,"ification":3994,"Ġpaul":3995,"Ġfis":3996,"Ġworn":3997,"Ġdreams":3998,"Ġrushed":3999,"Ġdelighted":4000,"Ġwounded":4001,"Ġoak":4002,"Ġsex":4003,"Ġtruly":4004,"Ġmurder":4005,"Ġspecies":4006,"Ġbuck":4007,"Ġcreatures":4008,"Ġbon":4009,"Ġsaf":4010,"Ġrelief":4011,"Ġexped":4012,"Ġassert":4013,"war":4014,"Ġcareful":4015,"Ġnewspap":4016,"Ġphysical":4017,"Ġinterrupted":4018,"kind":4019,"Ġcop":4020,"aling":4021,"Ġjes":4022,"Ġapparently":4023,"stone":4024,"Ġsaved":4025,"kin":4026,"Ġshoes":4027,"Ġnur":4028,"Ġstup":4029,"Ġplenty":4030,"Ġlover":4031,"Ġbegun":4032,"ailed":4033,"Ġasking":4034,"Ġflour":4035,"Ġdrag":4036,"Ġburied":4037,"Ġhoped":4038,"Ġaugust":4039,"Ġeleven":4040,"Ġsmooth":4041,"Ġuseful":4042,"kins":4043,"Ġglory":4044,"Ġmessage":4045,"Ġkeen":4046,"Ġfamous":4047,"Ġfrequently":4048,"hem":4049,"Ġaim":4050,"Ġgradually":4051,"Ġocean":4052,"ication":4053,"aming":4054,"Ġdesper":4055,"Ġenthus":4056,"Ġelsie":4057,"Ġslept":4058,"Ġinvol":4059,"aws":4060,"Ġapproached":4061,"Ġconsciousness":4062,"Ġenthusi":4063,"mother":4064,"Ġnap":4065,"Ġstern":4066,"Ġloose":4067,"Ġindepend":4068,"Ġfac":4069,"Ġminds":4070,"Ġrecollect":4071,"rit":4072,"Ġaid":4073,"Ġsang":4074,"Ġpark":4075,"Ġthanks":4076,"Ġprincip":4077,"Ġken":4078,"Ġknife":4079,"Ġdistr":4080,"Ġevident":4081,"Ġcolle":4082,"Ġfeather":4083,"Ġunion":4084,"Ġhyp":4085,"erous":4086,"inging":4087,"Ġlamp":4088,"Ġprecious":4089,"iana":4090,"Ġabsence":4091,"Ġcentury":4092,"Ġaccepted":4093,"Ġstage":4094,"uments":4095,"Ġcharming":4096,"Ġdetect":4097,"ustomed":4098,"Ġentrance":4099,"Ġindif":4100,"Ġwondered":4101,"Ġhut":4102,"Ġmeas":4103,"Ġgrim":4104,"Ġcapital":4105,"Ġplaying":4106,"Ġtot":4107,"Ġfacts":4108,"Ġobjects":4109,"Ġproceeded":4110,"Ġmagnific":4111,"oes":4112,"eral":4113,"only":4114,"Ġexceed":4115,"Ġcapable":4116,"Ġpursu":4117,"Ġsylv":4118,"Ġconstant":4119,"Ġexplan":4120,"Ġneighbor":4121,"Ġinquired":4122,"Ġextraordinary":4123,"Ġtar":4124,"orious":4125,"lla":4126,"Ġlevel":4127,"Ġfriendship":4128,"Ġbehold":4129,"Ġfighting":4130,"Ġbasket":4131,"bid":4132,"ye":4133,"Ġarose":4134,"Ġdig":4135,"pelled":4136,"Ġremoved":4137,"Ġclosely":4138,"Ġhorn":4139,"add":4140,"Ġack":4141,"Ġhale":4142,"Ġanyone":4143,"Ġthrust":4144,"Ġindign":4145,"Ġadmit":4146,"Ġjealous":4147,"Ġburning":4148,"Ġug":4149,"Ġwhenever":4150,"Ġretreat":4151,"Ġlarger":4152,"Ġvirtue":4153,"Ġthroat":4154,"iable":4155,"Ġmour":4156,"Ġplant":4157,"Ġforgot":4158,"Ġwishes":4159,"Ġpopular":4160,"Ġmamma":4161,"oused":4162,"Ġqual":4163,"igned":4164,"Ġhighest":4165,"Ġclouds":4166,"Ġsympathy":4167,"ration":4168,"Ġunex":4169,"izing":4170,"Ġacknow":4171,"Ġassemb":4172,"char":4173,"Ġcontempt":4174,"Ġemp":4175,"Ġkindness":4176,"Ġalex":4177,"Ġahead":4178,"Ġhind":4179,"Ġstretched":4180,"ushing":4181,"Ġchoice":4182,"oops":4183,"Ġkat":4184,"ivered":4185,"Ġqueer":4186,"Ġstrike":4187,"Ġkissed":4188,"iber":4189,"Ġnotes":4190,"Ġfrag":4191,"Ġrecall":4192,"ograph":4193,"Ġincreased":4194,"Ġimpression":4195,"Ġwheel":4196,"Ġchoose":4197,"Ġtreasure":4198,"bb":4199,"oms":4200,"Ġmiserable":4201,"anches":4202,"Ġassured":4203,"Ġeighty":4204,"Ġmilitary":4205,"Ġghost":4206,"nes":4207,"Ġpressed":4208,"Ġwaves":4209,"Ġharry":4210,"Ġslaves":4211,"Ġara":4212,"Ġreward":4213,"onscious":4214,"rows":4215,"Ġgovernor":4216,"Ġnurse":4217,"Ġmanage":4218,"Ġacquaintance":4219,"Ġtrembling":4220,"Ġexperi":4221,"Ġdivine":4222,"Ġinnocent":4223,"look":4224,"held":4225,"Ġly":4226,"Ġinformed":4227,"stairs":4228,"Ġsell":4229,"estic":4230,"aker":4231,"Ġjoin":4232,"Ġvisible":4233,"Ġbew":4234,"Ġstories":4235,"Ġfever":4236,"astic":4237,"Ġgrant":4238,"Ġmarked":4239,"Ġeverywhere":4240,"Ġbegged":4241,"Ġended":4242,"Ġawa":4243,"Ġruss":4244,"hamed":4245,"Ġhungry":4246,"Ġflying":4247,"Ġashamed":4248,"aches":4249,"abeth":4250,"Ġarrival":4251,"Ġsomebody":4252,"Ġmud":4253,"Ġremind":4254,"Ġindust":4255,"Ġbaron":4256,"Ġforgive":4257,"Ġbought":4258,"Ġgrandfather":4259,"Ġmysterious":4260,"Ġweary":4261,"Ġrestr":4262,"Ġadvance":4263,"Ġdelicate":4264,"Ġdignity":4265,"ldom":4266,"Ġhadn":4267,"Ġblank":4268,"Ġdish":4269,"Ġtemple":4270,"Ġjudgment":4271,"Ġbecomes":4272,"Ġthom":4273,"Ġgoods":4274,"Ġscream":4275,"Ġadventure":4276,"Ġshock":4277,"ilst":4278,"Ġsounds":4279,"Ġimmense":4280,"Ġuneas":4281,"pher":4282,"Ġgay":4283,"Ġstiff":4284,"Ġalas":4285,"Ġunhappy":4286,"Ġsafety":4287,"Ġpow":4288,"Ġprice":4289,"Ġbridge":4290,"Ġremains":4291,"Ġlights":4292,"Ġlistening":4293,"Ġelder":4294,"Ġparents":4295,"Ġbos":4296,"Ġcaut":4297,"Ġfare":4298,"Ġproject":4299,"anges":4300,"Ġhollow":4301,"Ġsettle":4302,"Ġadmitted":4303,"Ġunderstanding":4304,"Ġweap":4305,"Ġsomewhere":4306,"ensive":4307,"Ġhelen":4308,"Ġcomfortable":4309,"Ġhopes":4310,"Ġrome":4311,"Ġalice":4312,"Ġobt":4313,"Ġemotion":4314,"Ġcrying":4315,"Ġbowed":4316,"Ġcher":4317,"orous":4318,"Ġmeal":4319,"Ġescaped":4320,"ulated":4321,"Ġknock":4322,"Ġcomr":4323,"Ġunus":4324,"Ġplainly":4325,"Ġox":4326,"ooked":4327,"Ġvic":4328,"Ġintention":4329,"Ġrope":4330,"Ġcontem":4331,"Ġconvin":4332,"Ġwound":4333,"Ġhers":4334,"aud":4335,"Ġlighted":4336,"Ġhelped":4337,"Ġinfinite":4338,"Ġfellows":4339,"Ġintelligence":4340,"Ġwra":4341,"Ġhint":4342,"Ġpushed":4343,"irm":4344,"Ġsup":4345,"Ġunable":4346,"Ġthinks":4347,"gypt":4348,"Ġthoroughly":4349,"Ġstupid":4350,"Ġseldom":4351,"than":4352,"Ġfem":4353,"Ġappears":4354,"Ġsecure":4355,"Ġprompt":4356,"Ġexcuse":4357,"rees":4358,"Ġthunder":4359,"Ġash":4360,"Ġbecoming":4361,"Ġet":4362,"otted":4363,"Ġextent":4364,"Ġprospect":4365,"Ġvirgin":4366,"Ġfred":4367,"Ġfriendly":4368,"Ġskill":4369,"Ġreturning":4370,"Ġcheeks":4371,"Ġcell":4372,"achel":4373,"respond":4374,"Ġfed":4375,"Ġthroughout":4376,"Ġminister":4377,"Ġpatient":4378,"Ġmillion":4379,"Ġmaiden":4380,"Ġoriginal":4381,"Ġconcerned":4382,"Ġmood":4383,"Ġease":4384,"Ġwaste":4385,"Ġexhib":4386,"ceiving":4387,"Ġfaithful":4388,"Ġreligious":4389,"ville":4390,"iture":4391,"Ġhab":4392,"Ġbride":4393,"icks":4394,"ology":4395,"col":4396,"inking":4397,"ointment":4398,"Ġpractice":4399,"Ġarranged":4400,"ffe":4401,"Ġtale":4402,"Ġegypt":4403,"Ġyards":4404,"Ġcolour":4405,"Ġeggs":4406,"Ġfeatures":4407,"Ġtied":4408,"Ġrank":4409,"Ġolder":4410,"Ġfairly":4411,"mony":4412,"ped":4413,"Ġsupply":4414,"Ġengage":4415,"Ġviolent":4416,"Ġinhabit":4417,"pes":4418,"Ġtiny":4419,"Ġbranches":4420,"Ġwolf":4421,"Ġconstitution":4422,"tw":4423,"Ġwes":4424,"Ġmental":4425,"Ġate":4426,"Ġamuse":4427,"Ġjewe":4428,"Ġsons":4429,"Ġbishop":4430,"Ġcave":4431,"Ġgain":4432,"Ġslipped":4433,"Ġeagerly":4434,"without":4435,"Ġroman":4436,"Ġsubstance":4437,"ka":4438,"verse":4439,"Ġfled":4440,"Ġconstantly":4441,"Ġportion":4442,"Ġpink":4443,"lect":4444,"Ġeating":4445,"Ġmoreover":4446,"Ġproportion":4447,"Ġuncom":4448,"Ġrecom":4449,"Ġhastily":4450,"Ġelizabeth":4451,"rated":4452,"Ġlaughter":4453,"Ġadop":4454,"Ġobtain":4455,"Ġunconscious":4456,"Ġsigns":4457,"Ġgaze":4458,"Ġstruggle":4459,"Ġnodded":4460,"Ġlonely":4461,"Ġcrew":4462,"Ġwashing":4463,"Ġsha":4464,"Ġwholly":4465,"Ġaccustomed":4466,"Ġcorrespond":4467,"Ġconsideration":4468,"Ġwhisper":4469,"itor":4470,"Ġnut":4471,"Ġspare":4472,"Ġamid":4473,"Ġcliff":4474,"Ġlog":4475,"never":4476,"Ġsilk":4477,"Ġchristmas":4478,"Ġefforts":4479,"Ġdan":4480,"Ġbearing":4481,"ural":4482,"Ġmead":4483,"Ġcloth":4484,"Ġrust":4485,"Ġvague":4486,"Ġfee":4487,"Ġtreated":4488,"Ġze":4489,"ators":4490,"Ġtower":4491,"Ġlest":4492,"chan":4493,"Ġconsent":4494,"Ġgreet":4495,"Ġhaste":4496,"Ġestablished":4497,"Ġlion":4498,"Ġgained":4499,"Ġdoct":4500,"Ġfeast":4501,"Ġclo":4502,"Ġmerry":4503,"Ġdavid":4504,"Ġtro":4505,"Ġwithd":4506,"Ġglanced":4507,"Ġdeeply":4508,"Ġbenef":4509,"Ġprinciples":4510,"Ġvictory":4511,"Ġcouncil":4512,"Ġlack":4513,"Ġexha":4514,"Ġquant":4515,"Ġglim":4516,"Ġemer":4517,"Ġaccordingly":4518,"missus":4519,"Ġconsequence":4520,"pse":4521,"Ġimage":4522,"aval":4523,"oul":4524,"Ġdared":4525,"Ġresemb":4526,"Ġrepro":4527,"Ġinvest":4528,"Ġsavage":4529,"Ġhanging":4530,"Ġfought":4531,"Ġnay":4532,"Ġbeard":4533,"outher":4534,"Ġtroops":4535,"Ġprim":4536,"Ġconscience":4537,"Ġindul":4538,"Ġpurch":4539,"iven":4540,"sm":4541,"Ġrow":4542,"ourse":4543,"Ġhanded":4544,"icted":4545,"Ġwinds":4546,"Ġmercy":4547,"Ġuttered":4548,"Ġbilly":4549,"Ġconcerning":4550,"fice":4551,"Ġpred":4552,"cip":4553,"Ġscot":4554,"Ġscra":4555,"Ġactive":4556,"Ġtrail":4557,"Ġprepar":4558,"Ġprofession":4559,"Ġbrilliant":4560,"bor":4561,"Ġta":4562,"urd":4563,"acles":4564,"keep":4565,"Ġforehead":4566,"Ġpatience":4567,"Ġcircle":4568,"Ġfeared":4569,"Ġwarri":4570,"Ġrelation":4571,"nce":4572,"oe":4573,"Ġsouther":4574,"ential":4575,"Ġrab":4576,"Ġrage":4577,"Ġdiscovery":4578,"Ġemployed":4579,"yr":4580,"Ġsank":4581,"Ġbree":4582,"mission":4583,"Ġmelan":4584,"Ġbol":4585,"Ġmeanwhile":4586,"Ġanxiety":4587,"Ġdistinguished":4588,"Ġhell":4589,"ashing":4590,"Ġsomehow":4591,"Ġboots":4592,"atherine":4593,"Ġjoe":4594,"Ġmatch":4595,"Ġprovided":4596,"Ġobtained":4597,"Ġrolled":4598,"Ġinstru":4599,"Ġwaist":4600,"Ġlux":4601,"Ġbottle":4602,"Ġnervous":4603,"Ġhans":4604,"Ġrig":4605,"ilty":4606,"Ġclock":4607,"Ġjumped":4608,"Ġpig":4609,"Ġstared":4610,"Ġcompar":4611,"Ġswim":4612,"Ġreasons":4613,"Ġprint":4614,"Ġapproaching":4615,"Ġprotest":4616,"Ġtheory":4617,"erves":4618,"arr":4619,"Ġbend":4620,"Ġsear":4621,"Ġflag":4622,"Ġobv":4623,"Ġguilty":4624,"fall":4625,"utation":4626,"Ġthrone":4627,"Ġpartly":4628,"Ġmember":4629,"Ġadmiration":4630,"Ġsuspicion":4631,"Ġstyle":4632,"Ġugly":4633,"Ġsar":4634,"Ġloving":4635,"Ġnative":4636,"Ġsetting":4637,"Ġmont":4638,"Ġmurmured":4639,"gl":4640,"Ġming":4641,"Ġmanaged":4642,"Ġrelie":4643,"Ġsacrifice":4644,"Ġhang":4645,"Ġpreced":4646,"Ġfarmer":4647,"Ġsubs":4648,"Ġtroubled":4649,"urity":4650,"Ġexch":4651,"Ġteach":4652,"Ġinterests":4653,"Ġgazed":4654,"hend":4655,"Ġpir":4656,"Ġkinds":4657,"Ġtrial":4658,"Ġnineteen":4659,"Ġsylvia":4660,"Ġwretched":4661,"Ġbade":4662,"Ġkings":4663,"Ġflung":4664,"Ġconsult":4665,"Ġaddressed":4666,"Ġiv":4667,"Ġdancing":4668,"ivity":4669,"Ġswall":4670,"Ġshadows":4671,"omen":4672,"sec":4673,"Ġshone":4674,"Ġmisery":4675,"Ġcurrent":4676,"Ġcondem":4677,"Ġwisdom":4678,"Ġnest":4679,"Ġrum":4680,"Ġdefend":4681,"Ġconvent":4682,"Ġneeds":4683,"Ġthousands":4684,"have":4685,"win":4686,"Ġtis":4687,"Ġsher":4688,"Ġjose":4689,"ols":4690,"Ġamongst":4691,"atory":4692,"Ġarrest":4693,"Ġblame":4694,"Ġflore":4695,"Ġwooden":4696,"Ġapproach":4697,"Ġsensible":4698,"choly":4699,"Ġprincipal":4700,"field":4701,"Ġcas":4702,"vey":4703,"Ġmanif":4704,"cles":4705,"Ġvoy":4706,"Ġbringing":4707,"Ġpause":4708,"osen":4709,"Ġdescribed":4710,"Ġmelancholy":4711,"Ġnovel":4712,"Ġenergy":4713,"Ġpear":4714,"Ġrefuse":4715,"Ġproposed":4716,"Ġproduce":4717,"ulse":4718,"Ġcler":4719,"Ġgrate":4720,"Ġcompre":4721,"Ġsacred":4722,"Ġcredit":4723,"Ġexplanation":4724,"Ġod":4725,"Ġwhist":4726,"Ġstands":4727,"Ġsolid":4728,"Ġdeparture":4729,"Ġnational":4730,"Ġhousehold":4731,"Ġengine":4732,"Ġuseless":4733,"Ġrequire":4734,"Ġninety":4735,"Ġappreci":4736,"oke":4737,"Ġhit":4738,"Ġreven":4739,"Ġric":4740,"Ġmanners":4741,"Ġworship":4742,"Ġoutl":4743,"Ġunl":4744,"Ġarmed":4745,"Ġfollows":4746,"Ġutterly":4747,"Ġwing":4748,"icate":4749,"Ġsport":4750,"Ġtrif":4751,"Ġrespons":4752,"Ġextremely":4753,"standing":4754,"gen":4755,"Ġcam":4756,"Ġlit":4757,"Ġproc":4758,"Ġdistress":4759,"sue":4760,"Ġchosen":4761,"Ġwhence":4762,"umber":4763,"Ġrobert":4764,"Ġenorm":4765,"Ġadam":4766,"Ġhighly":4767,"Ġdelightful":4768,"Ġvictim":4769,"Ġbritish":4770,"Ġmystery":4771,"Ġward":4772,"Ġforces":4773,"Ġdece":4774,"Ġcoach":4775,"Ġteacher":4776,"Ġprecise":4777,"Ġcommission":4778,"Ġvision":4779,"Ġmounted":4780,"Ġdrift":4781,"Ġconcern":4782,"Ġagreeable":4783,"Ġpipe":4784,"Ġcorrect":4785,"owned":4786,"Ġillust":4787,"Ġrequest":4788,"Ġfigures":4789,"Ġexercise":4790,"Ġaven":4791,"Ġgest":4792,"Ġresumed":4793,"Ġends":4794,"umbled":4795,"Ġrecognized":4796,"ki":4797,"Ġthri":4798,"chie":4799,"Ġmax":4800,"Ġsentence":4801,"conom":4802,"utions":4803,"ilities":4804,"Ġaloud":4805,"Ġsuppl":4806,"Ġcontinue":4807,"Ġcentre":4808,"Ġrush":4809,"Ġknights":4810,"Ġslightly":4811,"acc":4812,"Ġatm":4813,"Ġshowing":4814,"emed":4815,"Ġsentiment":4816,"Ġparli":4817,"Ġdirected":4818,"Ġprofound":4819,"Ġmedic":4820,"Ġerr":4821,"Ġemploy":4822,"Ġassistance":4823,"Ġangel":4824,"Ġunexpected":4825,"Ġbye":4826,"Ġnob":4827,"Ġintense":4828,"Ġflood":4829,"Ġcheek":4830,"Ġmistaken":4831,"Ġtorn":4832,"Ġaffected":4833,"Ġatmosp":4834,"Ġstret":4835,"Ġsovere":4836,"Ġbrow":4837,"Ġstraw":4838,"Ġbud":4839,"Ġbath":4840,"Ġshade":4841,"Ġfeed":4842,"Ġleap":4843,"Ġpoison":4844,"Ġobserve":4845,"Ġrobin":4846,"Ġcheerful":4847,"atched":4848,"alt":4849,"Ġattitude":4850,"Ġrested":4851,"Ġconfusion":4852,"Ġprevious":4853,"Ġconnection":4854,"Ġhorrible":4855,"Ġsighed":4856,"Ġyounger":4857,"Ġphr":4858,"Ġabsurd":4859,"Ġrecovered":4860,"Ġimmediate":4861,"Ġhalt":4862,"Ġecho":4863,"Ġeconom":4864,"Ġdise":4865,"Ġsubjects":4866,"Ġriding":4867,"Ġwedding":4868,"lot":4869,"rison":4870,"Ġhaw":4871,"Ġspark":4872,"such":4873,"bour":4874,"Ġwake":4875,"Ġguide":4876,"board":4877,"Ġabsor":4878,"Ġlucy":4879,"Ġinclined":4880,"Ġmarket":4881,"Ġmagnificent":4882,"Ġconvinced":4883,"Ġstair":4884,"Ġunp":4885,"Ġsingular":4886,"Ġcomplex":4887,"Ġsenses":4888,"Ġrevolution":4889,"isions":4890,"Ġproble":4891,"Ġhandker":4892,"Ġgenius":4893,"Ġduties":4894,"Ġlocked":4895,"Ġunfortunate":4896,"Ġax":4897,"Ġpour":4898,"Ġloves":4899,"Ġcomposed":4900,"Ġswept":4901,"Ġfleet":4902,"Ġcollege":4903,"Ġhandkerchief":4904,"Ġbark":4905,"isp":4906,"Ġrele":4907,"their":4908,"Ġimpl":4909,"Ġcurtain":4910,"Ġpolic":4911,"Ġbosom":4912,"Ġsouthern":4913,"Ġfil":4914,"Ġgown":4915,"ril":4916,"Ġframe":4917,"Ġstrict":4918,"Ġutmost":4919,"Ġstayed":4920,"Ġtransp":4921,"Ġident":4922,"Ġaust":4923,"edy":4924,"Ġnurs":4925,"Ġplate":4926,"Ġplans":4927,"Ġbrid":4928,"Ġbond":4929,"Ġbreaking":4930,"Ġhoriz":4931,"Ġreader":4932,"Ġreality":4933,"Ġsouls":4934,"ounce":4935,"Ġsufficiently":4936,"Ġpraise":4937,"Ġsurrounded":4938,"Ġfaced":4939,"Ġpage":4940,"ems":4941,"Ġspar":4942,"Ġpermitted":4943,"Ġeveryone":4944,"Ġnorther":4945,"Ġawake":4946,"Ġadmin":4947,"Ġmidnight":4948,"Ġprayer":4949,"Ġbanks":4950,"Ġjoseph":4951,"Ġcath":4952,"Ġling":4953,"Ġorn":4954,"Ġpron":4955,"Ġparties":4956,"Ġphilip":4957,"Ġargument":4958,"Ġmerchant":4959,"long":4960,"Ġtrad":4961,"Ġroll":4962,"uding":4963,"Ġdevoted":4964,"Ġmachine":4965,"Ġaccompanied":4966,"Ġjesus":4967,"ault":4968,"born":4969,"Ġtheat":4970,"Ġcities":4971,"Ġchap":4972,"Ġcountess":4973,"Ġinstit":4974,"Ġconnected":4975,"Ġlouis":4976,"Ġastonishment":4977,"Ġparliament":4978,"bury":4979,"did":4980,"lle":4981,"Ġsees":4982,"Ġshaking":4983,"Ġprud":4984,"Ġglo":4985,"Ġnights":4986,"Ġdelay":4987,"Ġaddition":4988,"Ġsounded":4989,"Ġruin":4990,"Ġcraw":4991,"Ġnegro":4992,"Ġinhabitants":4993,"cle":4994,"nal":4995,"Ġrebe":4996,"Ġrib":4997,"Ġdemon":4998,"Ġscen":4999,"Ġincrease":5000,"ffee":5001,"inent":5002,"Ġgets":5003,"Ġsleeping":5004,"Ġguns":5005,"rs":5006,"Ġpil":5007,"lected":5008,"Ġsugar":5009,"Ġappointed":5010,"Ġguests":5011,"Ġconclusion":5012,"fied":5013,"Ġpian":5014,"Ġchat":5015,"Ġwhilst":5016,"Ġascend":5017,"Ġintent":5018,"Ġguest":5019,"Ġraise":5020,"Ġdegrees":5021,"Ġacquainted":5022,"pent":5023,"Ġrender":5024,"onsense":5025,"Ġdeliber":5026,"Ġannounced":5027,"Ġdivided":5028,"Ġprivile":5029,"Ġdestroyed":5030,"Ġalarm":5031,"Ġignorant":5032,"bre":5033,"liness":5034,"Ġcatherine":5035,"Ġbeheld":5036,"lebr":5037,"Ġforbid":5038,"ander":5039,"Ġsoil":5040,"Ġwondering":5041,"Ġcraft":5042,"Ġfolk":5043,"Ġrisk":5044,"Ġfisher":5045,"rey":5046,"Ġmechan":5047,"Ġstriking":5048,"Ġcommanded":5049,"Ġestablish":5050,"Ġdarling":5051,"inate":5052,"quis":5053,"uable":5054,"atives":5055,"Ġwash":5056,"uries":5057,"Ġsob":5058,"Ġquality":5059,"pless":5060,"about":5061,"Ġcontract":5062,"Ġcrack":5063,"Ġsteep":5064,"Ġthirst":5065,"Ġpractical":5066,"Ġsharply":5067,"iation":5068,"Ġeaster":5069,"sey":5070,"Ġcoffee":5071,"Ġafterward":5072,"Ġquarters":5073,"Ġragged":5074,"wed":5075,"Ġbul":5076,"Ġlibr":5077,"Ġscorn":5078,"Ġdesir":5079,"Ġconcluded":5080,"Ġpuzz":5081,"has":5082,"mber":5083,"Ġtoss":5084,"Ġretired":5085,"Ġassure":5086,"Ġrefer":5087,"Ġcauses":5088,"Ġleaf":5089,"Ġreflection":5090,"uten":5091,"Ġstat":5092,"Ġblock":5093,"Ġreflect":5094,"Ġtravell":5095,"Ġleaning":5096,"Ġcig":5097,"Ġchin":5098,"Ġchim":5099,"unning":5100,"Ġimprove":5101,"nton":5102,"Ġcontained":5103,"Ġemph":5104,"Ġcharm":5105,"Ġrealized":5106,"Ġcelebr":5107,"Ġbelonged":5108,"Ġatmosphere":5109,"Ġscient":5110,"Ġbones":5111,"anch":5112,"omp":5113,"unted":5114,"Ġpunishment":5115,"Ġdistrict":5116,"itate":5117,"arse":5118,"Ġren":5119,"Ġshake":5120,"Ġconven":5121,"Ġages":5122,"perhaps":5123,"Ġphysic":5124,"Ġintellectual":5125,"Ġwave":5126,"Ġarist":5127,"Ġspl":5128,"Ġprec":5129,"Ġtroubles":5130,"Ġuniversal":5131,"certain":5132,"ds":5133,"lie":5134,"ses":5135,"Ġmc":5136,"Ġfid":5137,"icip":5138,"Ġloft":5139,"Ġsuccessful":5140,"house":5141,"ived":5142,"Ġdefe":5143,"Ġtrack":5144,"Ġcheck":5145,"Ġpolite":5146,"Ġinvited":5147,"Ġcandle":5148,"gu":5149,"Ġtables":5150,"Ġjac":5151,"Ġleis":5152,"Ġplun":5153,"Ġovert":5154,"udes":5155,"Ġcompass":5156,"Ġfirmly":5157,"Ġseparate":5158,"Ġprotection":5159,"Ġsurround":5160,"Ġbase":5161,"Ġdir":5162,"ids":5163,"Ġanno":5164,"Ġextended":5165,"Ġsmell":5166,"Ġjob":5167,"Ġobsc":5168,"Ġmovements":5169,"Ġcrept":5170,"Ġdifficulties":5171,"Ġlocal":5172,"Ġpierre":5173,"Ġrecommend":5174,"Ġnations":5175,"Ġgas":5176,"Ġrange":5177,"Ġunif":5178,"Ġanywhere":5179,"Ġdrunk":5180,"Ġleisure":5181,"rim":5182,"Ġstor":5183,"Ġjune":5184,"Ġbushes":5185,"Ġviolence":5186,"Ġproperly":5187,"Ġastonished":5188,"Ġunusual":5189,"iday":5190,"Ġrout":5191,"Ġwept":5192,"Ġsore":5193,"Ġabo":5194,"Ġclos":5195,"Ġsimpl":5196,"Ġnumerous":5197,"Ġsorts":5198,"Ġfatal":5199,"Ġdeserted":5200,"Ġdescended":5201,"fo":5202,"Ġlately":5203,"Ġcommer":5204,"Ġsunsh":5205,"Ġvisited":5206,"Ġofficial":5207,"ris":5208,"Ġpub":5209,"Ġgates":5210,"Ġrendered":5211,"thus":5212,"Ġnearest":5213,"agger":5214,"Ġentering":5215,"Ġideal":5216,"Ġdoubtless":5217,"Ġkaty":5218,"Ġfemale":5219,"Ġenormous":5220,"uch":5221,"cture":5222,"Ġliber":5223,"Ġrepublic":5224,"Ġactions":5225,"Ġhumble":5226,"Ġcalcul":5227,"Ġjulia":5228,"Ġlap":5229,"Ġrepl":5230,"Ġrang":5231,"elia":5232,"Ġtear":5233,"Ġappet":5234,"Ġleaned":5235,"Ġmuttered":5236,"Ġprosper":5237,"Ġwestern":5238,"jud":5239,"Ġandrew":5240,"Ġinvestig":5241,"Ġsed":5242,"Ġrays":5243,"Ġstamp":5244,"Ġlev":5245,"Ġflash":5246,"Ġours":5247,"Ġlawyer":5248,"Ġlearning":5249,"Ġobserv":5250,"Ġnorthern":5251,"ales":5252,"Ġstout":5253,"Ġshows":5254,"rier":5255,"Ġchanges":5256,"Ġperpet":5257,"Ġfourteen":5258,"Ġstartled":5259,"Ġstronger":5260,"Ġtitle":5261,"Ġgloomy":5262,"bel":5263,"Ġrent":5264,"ads":5265,"Ġmankind":5266,"Ġbloom":5267,"before":5268,"Ġfinal":5269,"Ġrude":5270,"Ġclimbed":5271,"Ġintroduced":5272,"Ġcontempl":5273,"teenth":5274,"Ġsensation":5275,"Ġapartment":5276,"Ġcitizens":5277,"enger":5278,"Ġthread":5279,"Ġcompelled":5280,"Ġplants":5281,"Ġhearted":5282,"atively":5283,"Ġfanci":5284,"Ġhabits":5285,"Ġtax":5286,"Ġcared":5287,"vering":5288,"Ġstoop":5289,"icken":5290,"Ġscattered":5291,"Ġcarpet":5292,"Ġdetails":5293,"Ġslightest":5294,"Ġburned":5295,"Ġvers":5296,"Ġcoo":5297,"Ġital":5298,"Ġral":5299,"Ġfears":5300,"Ġthrowing":5301,"Ġbadly":5302,"Ġembarr":5303,"Ġgratitude":5304,"Ġaccomplished":5305,"Ġembarrass":5306,"Ġdart":5307,"Ġnonsense":5308,"aying":5309,"Ġabroad":5310,"Ġgiant":5311,"Ġtrip":5312,"Ġnumbers":5313,"Ġeffects":5314,"Ġvanished":5315,"Ġweakness":5316,"Ġaspect":5317,"Ġpainful":5318,"Ġhunger":5319,"Ġprisoners":5320,"Ġlieuten":5321,"Ġconceal":5322,"onies":5323,"quet":5324,"Ġexert":5325,"Ġlikewise":5326,"Ġobed":5327,"Ġactual":5328,"Ġterm":5329,"Ġcattle":5330,"Ġsignal":5331,"Ġlabour":5332,"Ġreckon":5333,"Ġsource":5334,"Ġempire":5335,"cast":5336,"rous":5337,"Ġlam":5338,"Ġalt":5339,"itty":5340,"Ġblaz":5341,"ffin":5342,"Ġcountries":5343,"Ġeste":5344,"Ġvex":5345,"Ġdescription":5346,"Ġfrancis":5347,"Ġthomas":5348,"Ġsupreme":5349,"eenth":5350,"see":5351,"Ġparl":5352,"Ġfifth":5353,"Ġveget":5354,"Ġeaten":5355,"Ġresolution":5356,"Ġbeaten":5357,"Ġinstrument":5358,"inated":5359,"ulate":5360,"umes":5361,"Ġwarning":5362,"Ġinsult":5363,"Ġinterview":5364,"fa":5365,"Ġoffend":5366,"Ġshud":5367,"aine":5368,"Ġridic":5369,"Ġresults":5370,"Ġwidow":5371,"Ġtad":5372,"isl":5373,"Ġpist":5374,"Ġrif":5375,"Ġabrupt":5376,"Ġstring":5377,"Ġpurple":5378,"Ġsmaller":5379,"Ġirish":5380,"Ġhesitated":5381,"Ġpainted":5382,"Ġoil":5383,"Ġmild":5384,"rived":5385,"Ġresc":5386,"Ġcommitted":5387,"Ġhelpless":5388,"Ġleader":5389,"Ġpenet":5390,"Ġoccasions":5391,"Ġcounter":5392,"Ġshelter":5393,"Ġcultiv":5394,"Ġqualities":5395,"Ġsunshine":5396,"bon":5397,"Ġshell":5398,"Ġgrasp":5399,"Ġmode":5400,"Ġguards":5401,"Ġtrem":5402,"Ġexception":5403,"Ġsafely":5404,"Ġfurniture":5405,"Ġvoyage":5406,"Ġtent":5407,"Ġpant":5408,"Ġlamb":5409,"urance":5410,"Ġsteel":5411,"Ġexamined":5412,"Ġreflected":5413,"Ġdeparted":5414,"Ġexecution":5415,"Ġspanish":5416,"att":5417,"Ġpoured":5418,"Ġknocked":5419,"Ġsteady":5420,"Ġobservation":5421,"Ġspiritual":5422,"Ġdestruction":5423,"Ġdisposition":5424,"istram":5425,"bow":5426,"ino":5427,"Ġfulf":5428,"engers":5429,"Ġray":5430,"Ġtrick":5431,"Ġscore":5432,"Ġparted":5433,"Ġinspect":5434,"Ġmadam":5435,"Ġcrowded":5436,"somet":5437,"Ġhoney":5438,"Ġpsy":5439,"Ġinex":5440,"Ġneat":5441,"Ġchapter":5442,"Ġpretend":5443,"Ġdesk":5444,"Ġcrist":5445,"Ġpursued":5446,"Ġsquire":5447,"Ġvaluable":5448,"Ġwitch":5449,"Ġwandered":5450,"burg":5451,"Ġquantity":5452,"Ġfancied":5453,"wick":5454,"Ġexcess":5455,"Ġsche":5456,"Ġbeloved":5457,"Ġgrandmother":5458,"Ġhastened":5459,"Ġborne":5460,"Ġventure":5461,"Ġfolks":5462,"Ġcaval":5463,"rily":5464,"Ġliqu":5465,"Ġunple":5466,"olas":5467,"Ġflame":5468,"Ġtells":5469,"Ġattached":5470,"Ġansw":5471,"Ġoperation":5472,"Ġalike":5473,"cence":5474,"Ġcries":5475,"Ġstaring":5476,"Ġbarn":5477,"Ġdisposed":5478,"Ġattended":5479,"hetic":5480,"Ġflorence":5481,"Ġmos":5482,"Ġmelt":5483,"Ġchain":5484,"aks":5485,"Ġdisci":5486,"Ġhappens":5487,"Ġcontinually":5488,"Ġthornton":5489,"Ġdomestic":5490,"Ġhitherto":5491,"Ġlibrary":5492,"Ġralph":5493,"wing":5494,"enc":5495,"Ġleather":5496,"Ġabst":5497,"olic":5498,"Ġtristram":5499,"Ġcommitt":5500,"Ġseriously":5501,"Ġforever":5502,"Ġdriving":5503,"Ġcreated":5504,"Ġrichard":5505,"Ġmasters":5506,"two":5507,"Ġpiano":5508,"apped":5509,"Ġmouse":5510,"Ġnav":5511,"Ġrene":5512,"Ġgoodness":5513,"Ġoccasionally":5514,"Ġpowder":5515,"Ġlieutenant":5516,"your":5517,"Ġbern":5518,"ico":5519,"step":5520,"geon":5521,"fulness":5522,"liest":5523,"Ġexpedition":5524,"edly":5525,"Ġdiana":5526,"otes":5527,"Ġshirt":5528,"Ġenjoyed":5529,"Ġdisturbed":5530,"Ġsteadily":5531,"cr":5532,"Ġton":5533,"Ġsilly":5534,"Ġdang":5535,"Ġintim":5536,"Ġard":5537,"derer":5538,"henomen":5539,"Ġsuspect":5540,"Ġheavens":5541,"Ġelectric":5542,"mo":5543,"po":5544,"Ġtones":5545,"Ġvac":5546,"Ġwherever":5547,"Ġacts":5548,"aughters":5549,"Ġtreas":5550,"Ġdrank":5551,"Ġrepeat":5552,"Ġislands":5553,"Ġventured":5554,"coln":5555,"smith":5556,"sed":5557,"inity":5558,"Ġpace":5559,"Ġphenomen":5560,"Ġconsid":5561,"lessness":5562,"plex":5563,"Ġimagined":5564,"Ġaudience":5565,"Ġbeings":5566,"Ġeternal":5567,"Ġruth":5568,"Ġstaff":5569,"Ġsult":5570,"Ġju":5571,"Ġmarilla":5572,"order":5573,"Ġmission":5574,"Ġreadily":5575,"Ġincident":5576,"Ġinfer":5577,"Ġsignific":5578,"Ġconsequently":5579,"Ġseparated":5580,"Ġbeasts":5581,"Ġdestroy":5582,"Ġnich":5583,"Ġshed":5584,"Ġdearest":5585,"Ġcock":5586,"Ġentreat":5587,"Ġassumed":5588,"Ġcondu":5589,"Ġfailure":5590,"je":5591,"oqu":5592,"work":5593,"Ġhated":5594,"Ġpine":5595,"Ġkate":5596,"thr":5597,"Ġeyed":5598,"Ġdram":5599,"Ġheavily":5600,"Ġsaddle":5601,"Ġlincoln":5602,"Ġwashington":5603,"Ġsovereign":5604,"nat":5605,"oy":5606,"Ġsne":5607,"ourage":5608,"once":5609,"Ġgil":5610,"Ġattent":5611,"Ġinsisted":5612,"Ġdevelopment":5613,"Ġdaughters":5614,"verty":5615,"Ġjar":5616,"Ġpoverty":5617,"Ġcalls":5618,"Ġlaun":5619,"Ġrelated":5620,"Ġregion":5621,"Ġdisappointed":5622,"Ġcounsel":5623,"ares":5624,"uf":5625,"Ġfund":5626,"tery":5627,"Ġisabel":5628,"Ġgranted":5629,"Ġmaybe":5630,"Ġcarol":5631,"ension":5632,"Ġtrace":5633,"Ġwalter":5634,"ground":5635,"Ġprobable":5636,"Ġclasses":5637,"Ġconcealed":5638,"warf":5639,"Ġdesperate":5640,"Ġaver":5641,"Ġdil":5642,"Ġdwarf":5643,"Ġheap":5644,"Ġhay":5645,"Ġrachel":5646,"erson":5647,"iece":5648,"Ġpolly":5649,"Ġhundreds":5650,"Ġburden":5651,"Ġattempted":5652,"Ġdescribe":5653,"Ġsailor":5654,"ipping":5655,"may":5656,"vol":5657,"Ġseeking":5658,"Ġremaining":5659,"Ġgenerous":5660,"Ġpropos":5661,"Ġprize":5662,"Ġjean":5663,"Ġmurderer":5664,"Ġanna":5665,"Ġdressing":5666,"Ġboats":5667,"Ġapplied":5668,"la":5669,"pro":5670,"Ġdus":5671,"Ġluc":5672,"Ġabund":5673,"ola":5674,"Ġrights":5675,"Ġlightning":5676,"Ġcoloured":5677,"Ġstrongly":5678,"Ġcircumstance":5679,"Ġfamilies":5680,"Ġoliver":5681,"vet":5682,"Ġsomeone":5683,"Ġdragged":5684,"Ġservices":5685,"Ġhumanity":5686,"lets":5687,"Ġmotive":5688,"Ġgreek":5689,"Ġabandoned":5690,"since":5691,"till":5692,"Ġpool":5693,"Ġshy":5694,"ferent":5695,"umble":5696,"Ġperceive":5697,"Ġconsist":5698,"Ġsincere":5699,"Ġestate":5700,"Ġchiefly":5701,"Ġdirections":5702,"Ġanticip":5703,"Ġphilosopher":5704,"ram":5705,"inations":5706,"Ġextend":5707,"Ġholl":5708,"Ġheaded":5709,"Ġdelivered":5710,"Ġgrav":5711,"Ġsummon":5712,"Ġdefinite":5713,"Ġdrinking":5714,"Ġlegisl":5715,"Ġdisturb":5716,"Ġmanifest":5717,"uer":5718,"Ġlan":5719,"aned":5720,"ado":5721,"Ġjen":5722,"Ġnoon":5723,"Ġapple":5724,"Ġcolored":5725,"Ġdisappointment":5726,"Ġwig":5727,"Ġpony":5728,"Ġanch":5729,"Ġteaching":5730,"Ġseries":5731,"Ġmonte":5732,"Ġinfant":5733,"Ġtowns":5734,"Ġdining":5735,"umbling":5736,"Ġacknowled":5737,"Ġexhausted":5738,"lict":5739,"zed":5740,"Ġvel":5741,"Ġcunning":5742,"Ġheed":5743,"Ġgover":5744,"ember":5745,"Ġstrangers":5746,"Ġattribut":5747,"Ġpropri":5748,"Ġfreely":5749,"Ġsuspected":5750,"Ġsadly":5751,"Ġquarrel":5752,"Ġviews":5753,"Ġessential":5754,"Ġdirty":5755,"Ġitalian":5756,"Ġmant":5757,"Ġtomb":5758,"Ġpars":5759,"Ġned":5760,"Ġeve":5761,"Ġstuck":5762,"Ġwrit":5763,"Ġfastened":5764,"ourable":5765,"Ġplatform":5766,"Ġenthusiasm":5767,"iqu":5768,"ipe":5769,"Ġchose":5770,"Ġouter":5771,"Ġtrot":5772,"Ġshouldn":5773,"Ġacted":5774,"Ġmortal":5775,"Ġwhit":5776,"Ġnotion":5777,"Ġovercome":5778,"whose":5779,"apping":5780,"Ġdemocr":5781,"Ġproduct":5782,"Ġmeantime":5783,"Ġgrowth":5784,"Ġexerc":5785,"Ġcritic":5786,"Ġnewspaper":5787,"iveness":5788,"rate":5789,"Ġachie":5790,"Ġoath":5791,"Ġfount":5792,"Ġsailed":5793,"Ġchann":5794,"iel":5795,"Ġmock":5796,"Ġsimon":5797,"Ġarticle":5798,"Ġdragon":5799,"oring":5800,"oration":5801,"Ġreaching":5802,"Ġtimid":5803,"Ġmarble":5804,"Ġturns":5805,"Ġknee":5806,"Ġdeliver":5807,"Ġcutting":5808,"Ġfatig":5809,"Ġfarewell":5810,"Ġvirginia":5811,"Ġapt":5812,"Ġmac":5813,"Ġwashed":5814,"Ġleaped":5815,"Ġdisag":5816,"Ġpermit":5817,"ression":5818,"Ġcontribut":5819,"Ġowner":5820,"Ġendure":5821,"Ġbrig":5822,"fortune":5823,"Ġopposition":5824,"Ġrules":5825,"Ġdoctr":5826,"off":5827,"sing":5828,"Ġbranch":5829,"Ġlightly":5830,"Ġfinds":5831,"Ġbush":5832,"Ġselfish":5833,"Ġhistor":5834,"Ġexperienced":5835,"keeper":5836,"Ġlun":5837,"ica":5838,"Ġchuck":5839,"Ġglorious":5840,"Ġappeal":5841,"Ġtrap":5842,"Ġvariety":5843,"Ġpockets":5844,"Ġbitterly":5845,"Ġdisease":5846,"lest":5847,"net":5848,"inction":5849,"Ġwre":5850,"Ġwearing":5851,"Ġench":5852,"Ġclay":5853,"Ġslip":5854,"Ġreputation":5855,"Ġsom":5856,"atch":5857,"Ġpound":5858,"Ġgal":5859,"Ġbeach":5860,"Ġweeping":5861,"Ġdesires":5862,"Ġsatur":5863,"Ġcolumn":5864,"Ġfalls":5865,"Ġbelongs":5866,"Ġhiding":5867,"Ġvolume":5868,"Ġwandering":5869,"uine":5870,"Ġtick":5871,"Ġhed":5872,"Ġnon":5873,"Ġroses":5874,"osure":5875,"Ġslain":5876,"Ġtrembled":5877,"Ġdepths":5878,"Ġindifferent":5879,"Ġped":5880,"Ġrud":5881,"Ġflut":5882,"Ġsilently":5883,"Ġrecon":5884,"Ġtreatment":5885,"Ġdisgu":5886,"Ġgrateful":5887,"Ġuniform":5888,"Ġwire":5889,"Ġos":5890,"Ġtoby":5891,"Ġrear":5892,"Ġshield":5893,"Ġjun":5894,"Ġmischief":5895,"Ġafric":5896,"Ġemily":5897,"Ġmetal":5898,"Ġobjection":5899,"Ġdeny":5900,"Ġsuggestion":5901,"Ġfrequent":5902,"Ġswiftly":5903,"Ġtin":5904,"hel":5905,"Ġitaly":5906,"Ġmisfortune":5907,"Ġboast":5908,"Ġtremend":5909,"Ġlesson":5910,"Ġinvitation":5911,"Ġfearful":5912,"Ġrepresented":5913,"Ġambition":5914,"Ġhospital":5915,"Ġinner":5916,"Ġwhirl":5917,"ums":5918,"Ġstrain":5919,"Ġembr":5920,"Ġbarbar":5921,"asha":5922,"Ġeffic":5923,"Ġgazing":5924,"Ġvessels":5925,"Ġfetch":5926,"Ġhorizon":5927,"Ġunpleasant":5928,"eed":5929,"Ġthine":5930,"Ġthither":5931,"Ġbeating":5932,"Ġsoot":5933,"Ġconsol":5934,"Ġwriter":5935,"Ġmonster":5936,"Ġfury":5937,"Ġbenefit":5938,"Ġcloser":5939,"gest":5940,"Ġfired":5941,"Ġfasc":5942,"Ġtrim":5943,"urned":5944,"Ġmonarch":5945,"Ġmale":5946,"Ġmillions":5947,"Ġlunch":5948,"alf":5949,"Ġsheet":5950,"Ġintimate":5951,"Ġeleg":5952,"Ġenterpr":5953,"Ġthreatened":5954,"Ġarticles":5955,"mal":5956,"Ġtow":5957,"Ġpup":5958,"still":5959,"Ġwond":5960,"Ġmagistr":5961,"Ġbench":5962,"Ġrespond":5963,"Ġmajority":5964,"Ġignorance":5965,"Ġneighbourhood":5966,"Ġsultan":5967,"rep":5968,"Ġmars":5969,"olate":5970,"Ġrolling":5971,"Ġcann":5972,"Ġpretended":5973,"Ġpurposes":5974,"Ġmirror":5975,"worthy":5976,"Ġgesture":5977,"Ġcristo":5978,"lord":5979,"Ġtoler":5980,"Ġstable":5981,"Ġshakes":5982,"olen":5983,"Ġcoal":5984,"Ġperplex":5985,"Ġcommunity":5986,"Ġsmoking":5987,"Ġconviction":5988,"having":5989,"Ġapprehens":5990,"Ġmixed":5991,"Ġbernard":5992,"Ġrod":5993,"Ġconfident":5994,"Ġbeds":5995,"Ġpriests":5996,"Ġshortly":5997,"Ġacquired":5998,"Ġautumn":5999,"Ġceremony":6000,"Ġdate":6001,"Ġheels":6002,"Ġgig":6003,"Ġchina":6004,"Ġvivid":6005,"coat":6006,"Ġwarn":6007,"Ġduches":6008,"Ġopinions":6009,"Ġcontrast":6010,"Ġfurnished":6011,"Ġpoetry":6012,"Ġphilosophy":6013,"Ġcommittee":6014,"Ġnet":6015,"iring":6016,"Ġsust":6017,"Ġconfused":6018,"Ġreduced":6019,"Ġcats":6020,"Ġroads":6021,"Ġhatred":6022,"Ġearlier":6023,"Ġwagon":6024,"Ġmaxim":6025,"acon":6026,"Ġincred":6027,"Ġabsent":6028,"Ġruff":6029,"Ġtouching":6030,"Ġdiscussion":6031,"Ġbewild":6032,"Ġscientific":6033,"Ġscheme":6034,"Ġsway":6035,"Ġlament":6036,"otions":6037,"Ġseas":6038,"alled":6039,"Ġjan":6040,"ifying":6041,"Ġprocl":6042,"Ġsmart":6043,"Ġmissed":6044,"withstanding":6045,"Ġcharacters":6046,"Ġvisitor":6047,"Ġencoura":6048,"Ġmingled":6049,"Ġstom":6050,"Ġdeed":6051,"Ġjap":6052,"Ġmans":6053,"Ġworry":6054,"Ġgrin":6055,"Ġdismiss":6056,"Ġstirred":6057,"Ġproblem":6058,"Ġnicholas":6059,"nel":6060,"pri":6061,"eder":6062,"anqu":6063,"Ġnaked":6064,"icing":6065,"Ġbutton":6066,"Ġpole":6067,"Ġcompet":6068,"Ġcheap":6069,"Ġslender":6070,"Ġuncertain":6071,"Ġdecision":6072,"Ġschol":6073,"cript":6074,"Ġthirteen":6075,"Ġformerly":6076,"aving":6077,"case":6078,"Ġharsh":6079,"stead":6080,"Ġmarks":6081,"Ġpossibility":6082,"Ġphot":6083,"Ġwishing":6084,"Ġfrancs":6085,"Ġdaz":6086,"Ġintr":6087,"elt":6088,"actory":6089,"Ġpointing":6090,"Ġportra":6091,"Ġpressure":6092,"Ġpsych":6093,"aved":6094,"good":6095,"Ġlust":6096,"Ġinch":6097,"icity":6098,"Ġreign":6099,"although":6100,"Ġherbert":6101,"rog":6102,"Ġbrush":6103,"Ġpeasant":6104,"Ġmarve":6105,"Ġapply":6106,"Ġapplic":6107,"Ġspecul":6108,"Ġswung":6109,"Ġregiment":6110,"Ġadmire":6111,"Ġswear":6112,"Ġstarting":6113,"Ġbatt":6114,"Ġexperiment":6115,"Ġvenge":6116,"Ġmultitude":6117,"low":6118,"Ġtide":6119,"Ġot":6120,"Ġbun":6121,"Ġfest":6122,"Ġfires":6123,"Ġdale":6124,"Ġshepher":6125,"akened":6126,"apt":6127,"nothing":6128,"Ġcheese":6129,"Ġgrounds":6130,"Ġveil":6131,"Ġtyr":6132,"Ġcontrad":6133,"Ġmotionless":6134,"Ġdistinctly":6135,"Ġshooting":6136,"Ġfeeble":6137,"Ġceter":6138,"isk":6139,"Ġsul":6140,"Ġtrunk":6141,"Ġpersist":6142,"Ġactivity":6143,"Ġmerc":6144,"Ġchris":6145,"Ġprovisions":6146,"Ġsecretary":6147,"Ġdeclare":6148,"Ġdisgrace":6149,"Ġprecisely":6150,"Ġcream":6151,"asper":6152,"omed":6153,"sters":6154,"thos":6155,"Ġdischar":6156,"Ġperformed":6157,"Ġgardens":6158,"Ġcommander":6159,"Ġclerk":6160,"Ġcetera":6161,"ih":6162,"Ġtun":6163,"Ġfant":6164,"Ġnoted":6165,"Ġlily":6166,"Ġunre":6167,"agon":6168,"Ġmarvel":6169,"Ġprejud":6170,"Ġstatement":6171,"Ġtub":6172,"Ġfitted":6173,"isy":6174,"anny":6175,"Ġagony":6176,"Ġwrath":6177,"Ġvictor":6178,"Ġnarr":6179,"chester":6180,"Ġguessed":6181,"Ġtenderness":6182,"Ġearnestly":6183,"Ġcoward":6184,"Ġinterpret":6185,"Ġindependent":6186,"uish":6187,"Ġwives":6188,"isible":6189,"Ġclergy":6190,"inkled":6191,"Ġdeeper":6192,"Ġvisitors":6193,"Ġfashioned":6194,"Ġwrapped":6195,"Ġmedicine":6196,"Ġduchess":6197,"Ġstomach":6198,"ae":6199,"ael":6200,"mes":6201,"Ġmast":6202,"Ġstag":6203,"gging":6204,"iverse":6205,"Ġlanded":6206,"Ġelement":6207,"Ġnecessarily":6208,"Ġrespectable":6209,"Ġclimb":6210,"Ġblessed":6211,"Ġyonder":6212,"Ġjewels":6213,"Ġcloak":6214,"Ġabsorbed":6215,"Ġjapan":6216,"gie":6217,"hew":6218,"Ġwheels":6219,"Ġcompared":6220,"othy":6221,"Ġterrit":6222,"Ġarrive":6223,"Ġsending":6224,"Ġsacrific":6225,"Ġduck":6226,"peare":6227,"Ġalbert":6228,"Ġcentral":6229,"Ġgravely":6230,"Ġcollar":6231,"Ġurged":6232,"Ġpersuaded":6233,"Ġingen":6234,"Ġscotland":6235,"Ġpuzzled":6236,"could":6237,"lars":6238,"rels":6239,"Ġidle":6240,"ata":6241,"Ġalter":6242,"Ġheartily":6243,"Ġwax":6244,"Ġsurre":6245,"Ġinches":6246,"until":6247,"Ġdrops":6248,"Ġjohnson":6249,"Ġmoonlight":6250,"Ġpursuit":6251,"Ġrabbit":6252,"Ġpall":6253,"itating":6254,"ili":6255,"Ġchase":6256,"Ġbrook":6257,"Ġflow":6258,"Ġremote":6259,"Ġbreed":6260,"Ġinsist":6261,"Ġdecide":6262,"Ġstole":6263,"Ġbuildings":6264,"Ġlimbs":6265,"Ġfortunate":6266,"Ġwithdra":6267,"Ġeastern":6268,"Ġdoub":6269,"Ġinev":6270,"Ġbeth":6271,"those":6272,"ifully":6273,"Ġthence":6274,"Ġperil":6275,"Ġbegins":6276,"Ġchildhood":6277,"Ġrepent":6278,"Ġfeels":6279,"Ġinsp":6280,"Ġmodest":6281,"uits":6282,"Ġwol":6283,"Ġoct":6284,"Ġire":6285,"Ġtob":6286,"amm":6287,"Ġunm":6288,"Ġboil":6289,"place":6290,"Ġflashed":6291,"Ġprey":6292,"Ġmerit":6293,"Ġtempor":6294,"Ġlively":6295,"Ġsolitary":6296,"Ġlinen":6297,"Ġabandon":6298,"Ġobeyed":6299,"Ġrevenge":6300,"Ġsink":6301,"ndy":6302,"Ġmich":6303,"Ġdamp":6304,"aning":6305,"Ġchamp":6306,"Ġupstairs":6307,"eless":6308,"Ġcoin":6309,"Ġcontents":6310,"Ġpassions":6311,"Ġdistinction":6312,"Ġcapacity":6313,"kward":6314,"met":6315,"uary":6316,"Ġbert":6317,"Ġfow":6318,"Ġadvert":6319,"Ġpermission":6320,"Ġprecip":6321,"Ġfolly":6322,"ailing":6323,"ieth":6324,"Ġbedroom":6325,"Ġsusan":6326,"Ġintelligent":6327,"Ġuneasy":6328,"Ġbreeze":6329,"Ġscenes":6330,"Ġbund":6331,"ishes":6332,"Ġpuff":6333,"Ġchall":6334,"umption":6335,"Ġdepos":6336,"Ġdutch":6337,"Ġencoun":6338,"Ġliterature":6339,"Ġwarriors":6340,"eys":6341,"Ġmoss":6342,"Ġcake":6343,"Ġashes":6344,"Ġweep":6345,"Ġsale":6346,"Ġslee":6347,"Ġbuff":6348,"Ġreasonable":6349,"Ġbelonging":6350,"Ġinquiry":6351,"Ġvengeance":6352,"lers":6353,"zing":6354,"Ġdanced":6355,"Ġpains":6356,"anz":6357,"Ġjest":6358,"ational":6359,"Ġmarian":6360,"Ġpreserved":6361,"Ġsurv":6362,"Ġfinish":6363,"Ġraising":6364,"Ġprayers":6365,"Ġgrie":6366,"Ġmessenger":6367,"Ġblew":6368,"Ġfaded":6369,"Ġeag":6370,"rie":6371,"Ġaged":6372,"Ġagent":6373,"Ġglac":6374,"Ġcontented":6375,"Ġcareer":6376,"Ġprinces":6377,"Ġawoke":6378,"Ġcease":6379,"Ġconstru":6380,"Ġencourage":6381,"Ġhomes":6382,"jean":6383,"Ġdisagree":6384,"back":6385,"Ġbind":6386,"Ġbars":6387,"Ġlosing":6388,"Ġreference":6389,"osha":6390,"Ġpepper":6391,"Ġmarched":6392,"rences":6393,"Ġimpulse":6394,"Ġwanting":6395,"Ġnorman":6396,"Ġconfeder":6397,"Ġcontinu":6398,"Ġawkward":6399,"Ġmusk":6400,"Ġrivers":6401,"Ġgallery":6402,"Ġengagement":6403,"Ġabruptly":6404,"Ġconsidering":6405,"Ġtip":6406,"Ġfence":6407,"Ġexternal":6408,"Ġflock":6409,"Ġpeas":6410,"Ġconflict":6411,"Ġelements":6412,"Ġslavery":6413,"Ġrussian":6414,"Ġcomrades":6415,"Ġcomprehend":6416,"pers":6417,"Ġlane":6418,"Ġrav":6419,"Ġchairs":6420,"Ġarrow":6421,"Ġpassengers":6422,"Ġsupported":6423,"Ġprepare":6424,"Ġgallop":6425,"Ġporthos":6426,"Ġgermany":6427,"Ġreproach":6428,"Ġtheatre":6429,"Ġappetite":6430,"iving":6431,"Ġtour":6432,"Ġpile":6433,"Ġnic":6434,"pel":6435,"Ġaltern":6436,"Ġhandle":6437,"Ġattacked":6438,"Ġacting":6439,"Ġexpense":6440,"Ġsweep":6441,"Ġmeasures":6442,"Ġplunged":6443,"ike":6444,"ique":6445,"oise":6446,"Ġaly":6447,"Ġowe":6448,"ura":6449,"Ġath":6450,"ilight":6451,"Ġdoorway":6452,"Ġdreamed":6453,"Ġpreparing":6454,"Ġshouting":6455,"Ġblessing":6456,"Ġsongs":6457,"Ġfavorite":6458,"Ġdeveloped":6459,"oleon":6460,"Ġireland":6461,"cest":6462,"inte":6463,"Ġhal":6464,"rig":6465,"Ġdaylight":6466,"Ġcontaining":6467,"Ġbarb":6468,"Ġstrangely":6469,"Ġregarding":6470,"Ġexamination":6471,"Ġhunter":6472,"Ġdimin":6473,"Ġgathering":6474,"Ġweapons":6475,"Ġcondemned":6476,"Ġtap":6477,"inth":6478,"Ġinher":6479,"ada":6480,"Ġtwilight":6481,"whel":6482,"Ġindia":6483,"Ġhappily":6484,"Ġrefuge":6485,"Ġbreathing":6486,"Ġpulling":6487,"Ġsailors":6488,"Ġgarments":6489,"Ġcalmly":6490,"Ġdomin":6491,"Ġrevealed":6492,"Ġlofty":6493,"Ġult":6494,"Ġcongress":6495,"Ġanyhow":6496,"Ġencl":6497,"Ġpond":6498,"angle":6499,"Ġkeeps":6500,"Ġcrossing":6501,"Ġtales":6502,"Ġstroke":6503,"Ġarrangement":6504,"Ġexceedingly":6505,"Ġadopted":6506,"Ġrelieved":6507,"Ġtremendous":6508,"Ġbee":6509,"Ġroused":6510,"ifted":6511,"Ġbrings":6512,"Ġclut":6513,"Ġlonged":6514,"Ġemotions":6515,"Ġpresents":6516,"Ġcounty":6517,"Ġwaved":6518,"Ġcleared":6519,"Ġdecor":6520,"Ġstopping":6521,"Ġgladly":6522,"Ġwilder":6523,"Ġscarlet":6524,"Ġcryst":6525,"ological":6526,"Ġfeathers":6527,"Ġexchange":6528,"Ġsaturday":6529,"yl":6530,"Ġsire":6531,"irmed":6532,"Ġstated":6533,"Ġspain":6534,"eling":6535,"cca":6536,"Ġartist":6537,"Ġfunny":6538,"Ġvirtues":6539,"Ġmurmur":6540,"Ġattracted":6541,"Ġamazement":6542,"Ġgifts":6543,"Ġfolded":6544,"Ġindustry":6545,"Ġrifle":6546,"car":6547,"Ġmex":6548,"ros":6549,"Ġvul":6550,"Ġanyway":6551,"inkle":6552,"Ġresour":6553,"Ġcommenced":6554,"Ġgenuine":6555,"therefore":6556,"Ġburnt":6557,"Ġfloating":6558,"Ġerror":6559,"Ġremarks":6560,"Ġcardinal":6561,"Ġindignation":6562,"Ġadministr":6563,"Ġcatholic":6564,"Ġdemonstr":6565,"Ġwhip":6566,"Ġreform":6567,"Ġreceiving":6568,"Ġtrump":6569,"Ġthanked":6570,"Ġglit":6571,"Ġneighbors":6572,"Ġincreasing":6573,"Ġmasses":6574,"Ġcommunication":6575,"Ġdiamonds":6576,"Ġarab":6577,"Ġornament":6578,"might":6579,"rain":6580,"Ġtig":6581,"Ġcub":6582,"Ġded":6583,"itz":6584,"Ġinse":6585,"Ġhaz":6586,"Ġbrut":6587,"Ġgracious":6588,"many":6589,"Ġreluct":6590,"Ġlords":6591,"Ġconcent":6592,"Ġsatisfy":6593,"Ġgallant":6594,"Ġphysician":6595,"gent":6596,"Ġtoday":6597,"ana":6598,"Ġecc":6599,"seen":6600,"Ġsolic":6601,"Ġtranqu":6602,"Ġgran":6603,"Ġlonging":6604,"Ġcontact":6605,"Ġpenny":6606,"Ġromans":6607,"Ġintervals":6608,"rors":6609,"Ġfanc":6610,"Ġmanuf":6611,"Ġfog":6612,"Ġjoke":6613,"Ġirr":6614,"Ġstruggling":6615,"Ġcrimson":6616,"Ġalyosha":6617,"Ġwilt":6618,"Ġbible":6619,"sequ":6620,"Ġdeer":6621,"usions":6622,"Ġroast":6623,"Ġoverwhel":6624,"Ġpeep":6625,"Ġscri":6626,"Ġexposed":6627,"Ġsecured":6628,"Ġruined":6629,"Ġsumm":6630,"Ġperfection":6631,"Ġcenturies":6632,"ovitch":6633,"Ġalarmed":6634,"Ġmeadow":6635,"Ġemphas":6636,"Ġshepherd":6637,"Ġtie":6638,"Ġbone":6639,"Ġtore":6640,"Ġreb":6641,"Ġreject":6642,"Ġrival":6643,"amation":6644,"Ġmend":6645,"Ġlovers":6646,"Ġserge":6647,"Ġresting":6648,"Ġincome":6649,"Ġpatch":6650,"Ġsecurity":6651,"Ġdriver":6652,"however":6653,"Ġclothing":6654,"Ġporch":6655,"Ġcivilization":6656,"Ġenjoyment":6657,"Ġowing":6658,"Ġmourn":6659,"Ġthief":6660,"rov":6661,"Ġconception":6662,"indeed":6663,"Ġusing":6664,"abled":6665,"Ġscre":6666,"Ġdistribut":6667,"Ġcenter":6668,"Ġfrost":6669,"Ġlodge":6670,"hand":6671,"pass":6672,"inous":6673,"Ġske":6674,"Ġmarsh":6675,"Ġdoth":6676,"Ġflushed":6677,"Ġperf":6678,"Ġbarg":6679,"Ġsnake":6680,"Ġanxiously":6681,"Ġpopulation":6682,"Ġporter":6683,"Ġnapoleon":6684,"Ġglimpse":6685,"Ġcree":6686,"orable":6687,"Ġnotwithstanding":6688,"ago":6689,"Ġpurse":6690,"Ġsunk":6691,"Ġjeff":6692,"Ġexamine":6693,"Ġglasses":6694,"Ġfrightful":6695,"lar":6696,"Ġdried":6697,"Ġgoose":6698,"Ġwhither":6699,"Ġsauce":6700,"ulating":6701,"Ġexquis":6702,"Ġunlike":6703,"Ġability":6704,"again":6705,"Ġspell":6706,"ensity":6707,"should":6708,"Ġrecent":6709,"Ġhenri":6710,"Ġfuneral":6711,"Ġconsequences":6712,"Ġlouise":6713,"Ġpositive":6714,"Ġzeal":6715,"Ġpronounced":6716,"Ġbust":6717,"Ġmould":6718,"Ġmul":6719,"orrow":6720,"ashes":6721,"Ġkitty":6722,"Ġsofa":6723,"cks":6724,"Ġmoist":6725,"Ġslop":6726,"ints":6727,"whether":6728,"Ġminor":6729,"Ġopposed":6730,"Ġrecognize":6731,"Ġobvious":6732,"Ġconvention":6733,"Ġtops":6734,"Ġdaring":6735,"ston":6736,"Ġstu":6737,"Ġissue":6738,"Ġgoss":6739,"Ġappar":6740,"Ġaccur":6741,"Ġlawn":6742,"Ġnatasha":6743,"Ġkeeper":6744,"Ġinvisible":6745,"Ġexpecting":6746,"Ġmurdered":6747,"Ġexisted":6748,"Ġcomplaint":6749,"Ġnewspapers":6750,"Ġshakespeare":6751,"asked":6752,"Ġatl":6753,"usive":6754,"Ġperman":6755,"Ġglow":6756,"Ġrestored":6757,"Ġbehav":6758,"Ġfinest":6759,"Ġawakened":6760,"Ġirres":6761,"Ġcape":6762,"Ġsensitive":6763,"Ġjackson":6764,"Ġstreams":6765,"Ġreminded":6766,"Ġweapon":6767,"Ġdanglars":6768,"through":6769,"Ġtobac":6770,"Ġwret":6771,"Ġpitch":6772,"itudes":6773,"Ġshaw":6774,"Ġchill":6775,"ante":6776,"Ġtramp":6777,"Ġroot":6778,"Ġindicated":6779,"Ġarts":6780,"Ġrealize":6781,"grat":6782,"Ġsuccession":6783,"Ġbells":6784,"Ġtrusted":6785,"Ġcopy":6786,"ais":6787,"Ġheir":6788,"Ġsober":6789,"Ġoutward":6790,"Ġroots":6791,"Ġspin":6792,"Ġremove":6793,"Ġcharity":6794,"Ġlaying":6795,"cribed":6796,"Ġcorners":6797,"Ġmarguer":6798,"Ġhideous":6799,"Ġmethods":6800,"Ġfavourite":6801,"Ġpromptly":6802,"Ġaristocr":6803,"Ġmarguerite":6804,"aves":6805,"nie":6806,"tte":6807,"ule":6808,"Ġbred":6809,"Ġbald":6810,"Ġfame":6811,"Ġseren":6812,"Ġjam":6813,"Ġlend":6814,"Ġcomment":6815,"aping":6816,"Ġadvised":6817,"Ġtransl":6818,"Ġsolitude":6819,"Ġdetail":6820,"Ġtorment":6821,"Ġavail":6822,"Ġloudly":6823,"Ġeldest":6824,"Ġmixture":6825,"Ġmartin":6826,"Ġdetective":6827,"oiselle":6828,"Ġexquisite":6829,"wart":6830,"tha":6831,"Ġquit":6832,"Ġquiver":6833,"Ġincon":6834,"Ġdeadly":6835,"Ġrushing":6836,"Ġtravelling":6837,"Ġsuitable":6838,"Ġadvantages":6839,"Ġlucky":6840,"Ġholes":6841,"Ġessence":6842,"Ġdistinguish":6843,"Ġpreparations":6844,"aign":6845,"cular":6846,"iency":6847,"ois":6848,"wr":6849,"inery":6850,"Ġfain":6851,"lyle":6852,"ria":6853,"Ġgoat":6854,"Ġtrained":6855,"Ġroar":6856,"pled":6857,"angled":6858,"Ġdefence":6859,"Ġplanet":6860,"Ġdisgust":6861,"Ġconquer":6862,"Ġamusement":6863,"Ġprivilege":6864,"Ġconducted":6865,"Ġmanufact":6866,"ari":6867,"Ġissued":6868,"Ġshaped":6869,"Ġeloqu":6870,"Ġsteal":6871,"Ġlanding":6872,"Ġlessons":6873,"Ġsancho":6874,"iated":6875,"Ġfishing":6876,"Ġsept":6877,"Ġcongrat":6878,"Ġjuly":6879,"Ġplot":6880,"Ġquix":6881,"resses":6882,"Ġthrong":6883,"Ġcarlyle":6884,"Ġyoungest":6885,"Ġnatured":6886,"Ġdiff":6887,"Ġmonk":6888,"Ġsunlight":6889,"Ġfootstep":6890,"Ġdetermination":6891,"Ġboxes":6892,"Ġinclination":6893,"Ġbetrayed":6894,"Ġcomrade":6895,"lance":6896,"inger":6897,"Ġnancy":6898,"veyed":6899,"idents":6900,"Ġloaded":6901,"Ġcontain":6902,"Ġresent":6903,"Ġpasses":6904,"Ġretorted":6905,"racted":6906,"Ġcompleted":6907,"Ġhesitation":6908,"Ġjealousy":6909,"Ġpud":6910,"llo":6911,"Ġnaught":6912,"Ġshill":6913,"Ġdeceived":6914,"Ġbloss":6915,"Ġpreserve":6916,"Ġconfined":6917,"bridge":6918,"Ġpalm":6919,"Ġvaljean":6920,"Ġprovin":6921,"Ġvio":6922,"Ġundoubt":6923,"Ġpolitics":6924,"besides":6925,"Ġimperfect":6926,"Ġpillow":6927,"Ġresistance":6928,"Ġuncomfort":6929,"Ġlantern":6930,"Ġchallen":6931,"eous":6932,"Ġcards":6933,"Ġdivers":6934,"Ġlav":6935,"leton":6936,"Ġkid":6937,"aph":6938,"Ġthoughtfully":6939,"Ġcharged":6940,"Ġfortnight":6941,"Ġdevotion":6942,"Ġmiller":6943,"Ġresolute":6944,"Ġdepartment":6945,"Ġcotton":6946,"Ġdebt":6947,"Ġdwelling":6948,"Ġobedience":6949,"aire":6950,"lock":6951,"sis":6952,"Ġcure":6953,"Ġdumb":6954,"Ġinward":6955,"Ġbees":6956,"Ġshells":6957,"Ġsoph":6958,"thew":6959,"Ġarise":6960,"Ġload":6961,"Ġapples":6962,"Ġbelt":6963,"Ġminded":6964,"Ġpatri":6965,"Ġmusical":6966,"Ġenglishman":6967,"Ġforests":6968,"Ġautom":6969,"Ġborrow":6970,"Ġindifference":6971,"Ġarrested":6972,"Ġchimney":6973,"Ġwick":6974,"Ġba":6975,"Ġmate":6976,"omin":6977,"Ġstolen":6978,"Ġancest":6979,"Ġallah":6980,"emoiselle":6981,"agues":6982,"Ġflor":6983,"Ġpope":6984,"Ġedith":6985,"Ġsigned":6986,"Ġeasier":6987,"Ġangels":6988,"Ġwilson":6989,"Ġdorothy":6990,"Ġholland":6991,"each":6992,"Ġsie":6993,"Ġdre":6994,"Ġpages":6995,"Ġumb":6996,"rious":6997,"Ġdisple":6998,"Ġflames":6999,"Ġemma":7000,"Ġaccounts":7001,"Ġtomorrow":7002,"Ġpaying":7003,"Ġlimited":7004,"Ġlegal":7005,"Ġgrove":7006,"Ġrejoined":7007,"Ġjews":7008,"leness":7009,"ux":7010,"Ġstim":7011,"Ġchances":7012,"Ġunwill":7013,"Ġimages":7014,"Ġcopper":7015,"Ġlasted":7016,"Ġattain":7017,"Ġfathers":7018,"Ġsubd":7019,"Ġdrowned":7020,"Ġadmired":7021,"Ġladder":7022,"Ġvanity":7023,"Ġidiot":7024,"Ġexcellency":7025,"Ġbrandon":7026,"Ġfreder":7027,"Ġcelebrated":7028,"Ġdisagreeable":7029,"Ġtobacco":7030,"eur":7031,"vest":7032,"inence":7033,"Ġwip":7034,"orse":7035,"Ġbeef":7036,"Ġshag":7037,"Ġchanging":7038,"Ġquoth":7039,"Ġgrows":7040,"Ġscare":7041,"Ġparting":7042,"Ġletting":7043,"Ġtreacher":7044,"Ġcorrid":7045,"Ġprayed":7046,"Ġcreep":7047,"Ġlimit":7048,"Ġauthorities":7049,"Ġwarmth":7050,"Ġsticks":7051,"Ġrubbed":7052,"Ġteleph":7053,"Ġpreferred":7054,"Ġcitizen":7055,"Ġashore":7056,"Ġsarah":7057,"Ġesteem":7058,"during":7059,"put":7060,"Ġpacked":7061,"Ġnerves":7062,"icable":7063,"sell":7064,"Ġascertain":7065,"ulations":7066,"Ġjones":7067,"Ġuniverse":7068,"Ġplains":7069,"Ġblows":7070,"Ġinterior":7071,"Ġsunset":7072,"Ġflee":7073,"Ġrobber":7074,"Ġinquire":7075,"Ġromantic":7076,"Ġdisappear":7077,"Ġadventures":7078,"Ġrisen":7079,"Ġliterary":7080,"Ġmaintain":7081,"Ġalexand":7082,"Ġpistol":7083,"ients":7084,"Ġbess":7085,"omon":7086,"Ġrh":7087,"Ġdeeds":7088,"Ġinsol":7089,"Ġappropri":7090,"Ġprovince":7091,"Ġlandsc":7092,"Ġrescue":7093,"Ġinferior":7094,"sir":7095,"uously":7096,"Ġtum":7097,"Ġmail":7098,"Ġthorn":7099,"Ġrein":7100,"Ġthereby":7101,"Ġloyal":7102,"Ġscale":7103,"Ġslid":7104,"Ġrelative":7105,"Ġaffl":7106,"Ġelsewhere":7107,"Ġannie":7108,"Ġstudied":7109,"Ġangrily":7110,"Ġgraceful":7111,"Ġoperations":7112,"Ġmutual":7113,"Ġinnocence":7114,"piration":7115,"Ġhospit":7116,"Ġrigid":7117,"Ġtossed":7118,"Ġpublished":7119,"Ġridiculous":7120,"natural":7121,"oen":7122,"Ġmic":7123,"Ġdad":7124,"Ġpip":7125,"Ġink":7126,"Ġgn":7127,"Ġgang":7128,"Ġbears":7129,"three":7130,"Ġjos":7131,"Ġunjust":7132,"Ġcounted":7133,"Ġpractically":7134,"Ġcampaign":7135,"Ġindividuals":7136,"Ġdepends":7137,"Ġgroups":7138,"Ġaccomplish":7139,"Ġyielded":7140,"Ġinstruments":7141,"Ġinvolunt":7142,"Ġjacob":7143,"Ġfountain":7144,"Ġresponded":7145,"Ġencounter":7146,"Ġtil":7147,"Ġbost":7148,"Ġmap":7149,"Ġtoil":7150,"itively":7151,"Ġine":7152,"Ġreception":7153,"Ġdew":7154,"Ġorange":7155,"Ġunb":7156,"Ġbron":7157,"Ġstandard":7158,"Ġextrem":7159,"Ġfurious":7160,"Ġseconds":7161,"Ġrecover":7162,"Ġtorrent":7163,"Ġcollected":7164,"Ġprocession":7165,"Ġteleg":7166,"Ġcriminal":7167,"Ġstaircase":7168,"Ġquixote":7169,"oided":7170,"ront":7171,"Ġhood":7172,"Ġdru":7173,"Ġpac":7174,"oman":7175,"Ġbeck":7176,"verted":7177,"Ġdeaf":7178,"igs":7179,"Ġbrisk":7180,"Ġboot":7181,"Ġboiled":7182,"Ġregions":7183,"Ġsixth":7184,"Ġartific":7185,"Ġholds":7186,"Ġillness":7187,"mean":7188,"Ġsatisfactory":7189,"Ġcharacteristic":7190,"Ġratt":7191,"Ġivan":7192,"Ġadministration":7193,"arn":7194,"Ġshru":7195,"inder":7196,"Ġabbe":7197,"uming":7198,"Ġmiser":7199,"Ġamused":7200,"Ġcoffin":7201,"Ġadorn":7202,"Ġimpressed":7203,"cules":7204,"Ġconvict":7205,"Ġoccupation":7206,"Ġpunish":7207,"Ġprevented":7208,"Ġrailway":7209,"Ġinstructions":7210,"eg":7211,"Ġhook":7212,"Ġfacing":7213,"Ġpush":7214,"orter":7215,"anim":7216,"Ġseize":7217,"Ġnep":7218,"Ġorch":7219,"Ġbrass":7220,"Ġresign":7221,"Ġjolly":7222,"Ġswar":7223,"Ġgeneration":7224,"Ġcuriously":7225,"Ġskirt":7226,"appe":7227,"Ġstephen":7228,"Ġrichmond":7229,"Ġexists":7230,"Ġdenied":7231,"Ġmachinery":7232,"Ġrosy":7233,"Ġassembled":7234,"Ġsearching":7235,"Ġaverage":7236,"Ġacknowledged":7237,"Ġvelvet":7238,"Ġtid":7239,"Ġhu":7240,"Ġdangers":7241,"Ġlikes":7242,"Ġspur":7243,"Ġener":7244,"Ġoffering":7245,"berry":7246,"Ġimpart":7247,"Ġimprison":7248,"Ġfollowers":7249,"Ġcontinent":7250,"Ġspeaker":7251,"Ġavoided":7252,"Ġcandid":7253,"Ġcombat":7254,"Ġerect":7255,"Ġcaptured":7256,"Ġfortunes":7257,"Ġspani":7258,"Ġtotal":7259,"Ġneighborhood":7260,"Ġbending":7261,"Ġpirates":7262,"Ġdusk":7263,"Ġcannon":7264,"Ġboston":7265,"hire":7266,"lay":7267,"ping":7268,"Ġcush":7269,"Ġfaster":7270,"oner":7271,"Ġpave":7272,"Ġrevel":7273,"welt":7274,"Ġspear":7275,"Ġassume":7276,"Ġproposition":7277,"Ġcorpor":7278,"Ġdoubtful":7279,"Ġfloated":7280,"Ġmotor":7281,"Ġballs":7282,"Ġpreviously":7283,"Ġbalance":7284,"Ġstores":7285,"Ġarchite":7286,"ded":7287,"mans":7288,"Ġcu":7289,"Ġlil":7290,"Ġetern":7291,"utor":7292,"Ġconceived":7293,"Ġindic":7294,"Ġsummit":7295,"gram":7296,"Ġfrog":7297,"Ġfaintly":7298,"Ġsolemnly":7299,"encies":7300,"Ġnephew":7301,"Ġles":7302,"Ġseats":7303,"Ġvest":7304,"Ġaren":7305,"achment":7306,"Ġcrou":7307,"forth":7308,"Ġmatthew":7309,"Ġhorrid":7310,"Ġphoen":7311,"Ġsentiments":7312,"Ġpropose":7313,"Ġtribe":7314,"Ġmademoiselle":7315,"Ġprofit":7316,"Ġcommonly":7317,"Ġamericans":7318,"Ġimmort":7319,"Ġshores":7320,"Ġimpatient":7321,"Ġphrase":7322,"Ġsummoned":7323,"Ġchannel":7324,"Ġvulgar":7325,"ray":7326,"Ġapr":7327,"Ġwont":7328,"Ġoy":7329,"Ġcars":7330,"irst":7331,"Ġfrown":7332,"force":7333,"into":7334,"Ġrepose":7335,"Ġhelping":7336,"Ġassembly":7337,"Ġdoctrine":7338,"Ġmichael":7339,"ai":7340,"fold":7341,"iour":7342,"Ġhull":7343,"Ġbou":7344,"Ġdine":7345,"celot":7346,"Ġwheat":7347,"Ġupward":7348,"Ġprow":7349,"aging":7350,"Ġdishes":7351,"Ġdeserve":7352,"Ġslope":7353,"Ġwarned":7354,"rup":7355,"Ġpleasures":7356,"Ġillum":7357,"Ġtransfer":7358,"Ġseventh":7359,"Ġincluding":7360,"Ġcompliment":7361,"Ġembro":7362,"Ġhealthy":7363,"Ġassistant":7364,"Ġerrand":7365,"Ġintentions":7366,"Ġsurrounding":7367,"Ġshudder":7368,"Ġlauncelot":7369,"Ġdwelt":7370,"Ġrese":7371,"Ġrand":7372,"Ġdoc":7373,"Ġtram":7374,"Ġtraining":7375,"Ġclasped":7376,"Ġblown":7377,"Ġreported":7378,"Ġmonkey":7379,"ucky":7380,"Ġlatin":7381,"Ġcorrupt":7382,"Ġapril":7383,"ernal":7384,"Ġspecim":7385,"Ġspectacle":7386,"Ġperformance":7387,"Ġrarely":7388,"Ġfatigue":7389,"Ġeagle":7390,"Ġcreek":7391,"Ġfootsteps":7392,"itute":7393,"Ġrings":7394,"adel":7395,"arts":7396,"Ġleon":7397,"Ġaroused":7398,"Ġdownstairs":7399,"tell":7400,"Ġstruct":7401,"Ġglowing":7402,"athan":7403,"Ġruns":7404,"Ġbloody":7405,"Ġpencil":7406,"grim":7407,"Ġsolomon":7408,"Ġdelicious":7409,"Ġconfession":7410,"Ġaffectionate":7411,"Ġfanny":7412,"Ġrailroad":7413,"lon":7414,"Ġshalt":7415,"keys":7416,"Ġupright":7417,"Ġjury":7418,"Ġbrood":7419,"Ġblast":7420,"abell":7421,"Ġresidence":7422,"Ġregards":7423,"Ġhumour":7424,"Ġsuspend":7425,"Ġsensations":7426,"Ġbreathe":7427,"Ġbreathed":7428,"Ġschools":7429,"Ġmedical":7430,"Ġverse":7431,"Ġprudence":7432,"Ġconvenient":7433,"Ġseptember":7434,"Ġshaggy":7435,"came":7436,"rical":7437,"rane":7438,"Ġted":7439,"Ġdashed":7440,"Ġthresh":7441,"Ġgw":7442,"Ġwasted":7443,"Ġnove":7444,"Ġthoughtful":7445,"Ġbackward":7446,"Ġassurance":7447,"Ġterribly":7448,"Ġgeor":7449,"Ġdespite":7450,"Ġviolently":7451,"Ġsails":7452,"Ġkilling":7453,"Ġswords":7454,"Ġtravelled":7455,"Ġaccompany":7456,"Ġinjured":7457,"Ġdisplay":7458,"Ġacknowledge":7459,"Ġrecalled":7460,"Ġprosperity":7461,"Ġgilbert":7462,"Ġportrait":7463,"dig":7464,"jac":7465,"Ġdug":7466,"Ġnaut":7467,"Ġrasc":7468,"Ġboiling":7469,"Ġhasn":7470,"Ġmissing":7471,"enses":7472,"Ġinstances":7473,"Ġnormal":7474,"Ġsubmit":7475,"Ġeighth":7476,"Ġquestioned":7477,"Ġdemands":7478,"Ġpressing":7479,"Ġpersuade":7480,"Ġvigor":7481,"Ġpolicem":7482,"Ġsimplicity":7483,"Ġterritory":7484,"Ġwilderness":7485,"Ġthreshold":7486,"aus":7487,"aunt":7488,"lady":7489,"Ġanaly":7490,"cts":7491,"Ġaltered":7492,"Ġspots":7493,"ceptible":7494,"Ġwoe":7495,"Ġtraged":7496,"Ġadvancing":7497,"Ġparish":7498,"Ġfawn":7499,"Ġapost":7500,"Ġsecretly":7501,"Ġturkey":7502,"Ġjimmy":7503,"Ġsteamer":7504,"Ġpurchase":7505,"Ġswallowed":7506,"Ġtravellers":7507,"Ġafrica":7508,"Ġfrederick":7509,"Ġlandscape":7510,"Ġtumult":7511,"iate":7512,"port":7513,"Ġdense":7514,"asion":7515,"Ġliver":7516,"Ġvine":7517,"Ġtrous":7518,"itya":7519,"Ġbrains":7520,"ressing":7521,"Ġpartner":7522,"Ġowned":7523,"nedy":7524,"Ġridge":7525,"Ġcheerfully":7526,"Ġinjury":7527,"regular":7528,"Ġdisplayed":7529,"looking":7530,"Ġsearched":7531,"Ġcomplexion":7532,"Ġoffended":7533,"ban":7534,"Ġay":7535,"Ġlace":7536,"asy":7537,"apes":7538,"Ġagitation":7539,"Ġcanv":7540,"fts":7541,"Ġoffence":7542,"Ġserpent":7543,"Ġharder":7544,"Ġhumor":7545,"Ġhopeless":7546,"Ġruins":7547,"Ġexpectation":7548,"Ġannounce":7549,"Ġtorture":7550,"Ġhoping":7551,"Ġfrozen":7552,"Ġstirring":7553,"Ġpotat":7554,"Ġenvy":7555,"Ġmaintained":7556,"Ġsupplied":7557,"Ġcurtains":7558,"Ġestablishment":7559,"bet":7560,"Ġdot":7561,"Ġstall":7562,"ores":7563,"Ġwhoever":7564,"Ġtheirs":7565,"Ġprime":7566,"Ġpoets":7567,"Ġconsented":7568,"lands":7569,"Ġcareless":7570,"Ġdecent":7571,"Ġraw":7572,"Ġranks":7573,"Ġchurches":7574,"Ġheavenly":7575,"Ġfunction":7576,"Ġstruggled":7577,"Ġmagician":7578,"Ġpositively":7579,"Ġimpatience":7580,"Ġstrictly":7581,"Ġcompassion":7582,"Ġgossip":7583,"Ġundoubtedly":7584,"Ġtu":7585,"Ġcrest":7586,"Ġcents":7587,"onic":7588,"ita":7589,"Ġlic":7590,"Ġhare":7591,"Ġhaired":7592,"Ġrend":7593,"Ġfors":7594,"Ġflies":7595,"Ġprem":7596,"izz":7597,"Ġaccess":7598,"Ġsupposing":7599,"Ġcatching":7600,"Ġdropping":7601,"Ġsprings":7602,"Ġtort":7603,"Ġshoe":7604,"Ġcreation":7605,"Ġneglected":7606,"Ġhurrying":7607,"Ġaddressing":7608,"Ġdishon":7609,"Ġprecaut":7610,"Ġwreck":7611,"atically":7612,"Ġstove":7613,"Ġkin":7614,"Ġsaving":7615,"Ġalight":7616,"Ġfelic":7617,"umps":7618,"Ġbrick":7619,"Ġenqu":7620,"Ġoverhead":7621,"Ġguilt":7622,"Ġsubl":7623,"Ġrestless":7624,"Ġincap":7625,"Ġanguish":7626,"Ġjournal":7627,"Ġembrace":7628,"Ġsympt":7629,"Ġspeedily":7630,"Ġtestim":7631,"Ġcellar":7632,"Ġraggedy":7633,"Ġanchor":7634,"Ġuncomfortable":7635,"awn":7636,"both":7637,"greg":7638,"kh":7639,"Ġwoo":7640,"Ġtools":7641,"ste":7642,"Ġrecei":7643,"alla":7644,"Ġlip":7645,"Ġrobe":7646,"osette":7647,"Ġcoarse":7648,"Ġadjust":7649,"Ġnatives":7650,"Ġjohnny":7651,"Ġleaders":7652,"Ġlimits":7653,"Ġpunished":7654,"Ġvenus":7655,"Ġbags":7656,"Ġendeavour":7657,"Ġavenue":7658,"Ġdiscipl":7659,"Ġhedge":7660,"ober":7661,"tr":7662,"Ġmou":7663,"aration":7664,"Ġsem":7665,"chio":7666,"Ġbutt":7667,"Ġbutler":7668,"Ġfriday":7669,"Ġdost":7670,"raham":7671,"Ġflowing":7672,"Ġwhereas":7673,"Ġelbow":7674,"Ġhighness":7675,"Ġdreaming":7676,"Ġleads":7677,"Ġrequires":7678,"Ġmotives":7679,"Ġbills":7680,"Ġswimming":7681,"Ġengineer":7682,"Ġriches":7683,"Ġdazz":7684,"Ġbargain":7685,"course":7686,"mie":7687,"Ġgorge":7688,"Ġrice":7689,"Ġanton":7690,"Ġambit":7691,"Ġamiable":7692,"Ġgrain":7693,"Ġdisd":7694,"Ġscott":7695,"Ġfounded":7696,"being":7697,"Ġcertainty":7698,"Ġconfirmed":7699,"Ġsket":7700,"Ġtribes":7701,"Ġrecently":7702,"Ġpenn":7703,"ovna":7704,"Ġpainting":7705,"Ġpoliteness":7706,"Ġadmiral":7707,"Ġtemperature":7708,"Ġderived":7709,"Ġimpatiently":7710,"Ġindependence":7711,"Ġpeasants":7712,"uz":7713,"Ġbret":7714,"lying":7715,"Ġseal":7716,"Ġjail":7717,"Ġyourselves":7718,"ounted":7719,"Ġwherein":7720,"Ġjustified":7721,"Ġconspic":7722,"Ġnighting":7723,"Ġkeys":7724,"Ġneedle":7725,"Ġparad":7726,"Ġspeaks":7727,"Ġirregular":7728,"Ġobserving":7729,"Ġjudged":7730,"Ġdivision":7731,"Ġunfortunately":7732,"Ġemployment":7733,"Ġliberal":7734,"Ġaltar":7735,"Ġmagistrate":7736,"Ġrows":7737,"Ġkick":7738,"Ġfranz":7739,"Ġconceive":7740,"unken":7741,"Ġwillingly":7742,"Ġplanted":7743,"Ġtwisted":7744,"Ġfoundation":7745,"Ġbelieving":7746,"Ġsteward":7747,"Ġwalks":7748,"Ġstaying":7749,"Ġlifting":7750,"Ġtenderly":7751,"Ġmagnet":7752,"Ġwander":7753,"Ġimpressions":7754,"Ġlocks":7755,"Ġwithdrew":7756,"Ġproposal":7757,"Ġwounds":7758,"Ġcens":7759,"Ġcash":7760,"Ġshrew":7761,"rian":7762,"Ġsailing":7763,"ula":7764,"Ġvote":7765,"Ġpersec":7766,"ountered":7767,"whom":7768,"Ġlordship":7769,"Ġcavern":7770,"Ġsuperst":7771,"burgh":7772,"Ġassociation":7773,"Ġobscure":7774,"Ġachieve":7775,"Ġmansion":7776,"Ġbundle":7777,"Ġwretch":7778,"hic":7779,"nic":7780,"Ġlur":7781,"Ġnan":7782,"Ġbea":7783,"Ġeust":7784,"Ġseed":7785,"Ġshan":7786,"ilus":7787,"Ġprodig":7788,"Ġamend":7789,"Ġblowing":7790,"Ġdiscl":7791,"Ġmuse":7792,"Ġreserve":7793,"pson":7794,"ibilities":7795,"ucked":7796,"Ġrocky":7797,"Ġmemories":7798,"Ġplanned":7799,"Ġcruelty":7800,"Ġgleam":7801,"Ġcautiously":7802,"Ġgreeted":7803,"Ġpilgrim":7804,"Ġenterprise":7805,"Ġapplication":7806,"bable":7807,"cow":7808,"Ġbapt":7809,"iser":7810,"Ġrational":7811,"Ġhercules":7812,"aments":7813,"Ġsection":7814,"Ġsullen":7815,"Ġcha":7816,"Ġvap":7817,"Ġexagger":7818,"Ġbrist":7819,"Ġconsisted":7820,"oths":7821,"Ġarmies":7822,"Ġchecked":7823,"Ġinsens":7824,"Ġsymb":7825,"Ġcouch":7826,"Ġromance":7827,"Ġballoon":7828,"Ġbowl":7829,"Ġpassionate":7830,"Ġprair":7831,"Ġboldly":7832,"Ġvigorous":7833,"Ġimprovement":7834,"Ġaboard":7835,"Ġelegant":7836,"Ġglittering":7837,"Ġumbre":7838,"Ġmun":7839,"Ġcosette":7840,"Ġsheer":7841,"Ġviz":7842,"Ġpled":7843,"Ġprosec":7844,"inks":7845,"Ġpoem":7846,"Ġsme":7847,"Ġdescent":7848,"Ġbeggar":7849,"Ġretire":7850,"Ġmadness":7851,"Ġsque":7852,"Ġjudges":7853,"Ġencountered":7854,"Ġmoderate":7855,"Ġcollection":7856,"Ġrecollection":7857,"Ġsheriff":7858,"Ġhalted":7859,"Ġlevin":7860,"Ġperpetual":7861,"Ġinspired":7862,"gre":7863,"Ġawe":7864,"Ġwages":7865,"Ġmitya":7866,"Ġchau":7867,"Ġfeature":7868,"Ġagric":7869,"Ġflora":7870,"Ġbacks":7871,"Ġmob":7872,"Ġmonday":7873,"Ġforming":7874,"Ġwoke":7875,"Ġsmallest":7876,"Ġintercourse":7877,"Ġdrum":7878,"Ġmorgan":7879,"Ġreasoning":7880,"Ġremembr":7881,"Ġceiling":7882,"Ġlads":7883,"Ġvalent":7884,"Ġattempts":7885,"Ġwelcom":7886,"Ġarrangements":7887,"Ġcaution":7888,"Ġcliffs":7889,"Ġsupplies":7890,"foot":7891,"Ġunwilling":7892,"made":7893,"oft":7894,"heard":7895,"Ġsins":7896,"Ġpav":7897,"Ġlid":7898,"Ġchop":7899,"Ġclam":7900,"Ġprel":7901,"Ġmustn":7902,"Ġcarved":7903,"Ġaccused":7904,"Ġendless":7905,"Ġclearing":7906,"Ġlandlord":7907,"Ġprotested":7908,"Ġproceeding":7909,"Ġconfessed":7910,"Ġsufferings":7911,"Ġtemptation":7912,"Ġseverely":7913,"Ġceremon":7914,"Ġmourning":7915,"Ġreferred":7916,"Ġcommerce":7917,"Ġobservations":7918,"Ġverses":7919,"Ġinspector":7920,"Ġembraced":7921,"uity":7922,"uting":7923,"thren":7924,"Ġenable":7925,"Ġmule":7926,"Ġoffices":7927,"Ġstricken":7928,"Ġcontri":7929,"Ġconsists":7930,"Ġwaving":7931,"Ġinterfe":7932,"Ġcorpse":7933,"Ġrespects":7934,"Ġpeaceful":7935,"Ġdissol":7936,"Ġhypnot":7937,"Ġpolicy":7938,"Ġbonds":7939,"Ġinconven":7940,"Ġnovember":7941,"Ġnautilus":7942,"aur":7943,"intend":7944,"Ġthumb":7945,"Ġreass":7946,"Ġnowhere":7947,"Ġsmiles":7948,"Ġentit":7949,"Ġattained":7950,"Ġswam":7951,"Ġbrethren":7952,"Ġpleasing":7953,"Ġcolors":7954,"Ġtemp":7955,"Ġforgetting":7956,"Ġhurriedly":7957,"Ġbidding":7958,"Ġtightly":7959,"Ġmeadows":7960,"Ġpreparation":7961,"Ġpropriet":7962,"Ġbewildered":7963,"cried":7964,"fish":7965,"loc":7966,"nay":7967,"take":7968,"ya":7969,"inating":7970,"Ġsinking":7971,"Ġdict":7972,"Ġlions":7973,"cel":7974,"Ġrhy":7975,"roll":7976,"Ġvice":7977,"Ġbrute":7978,"Ġdisorder":7979,"ilet":7980,"Ġretain":7981,"Ġinduced":7982,"Ġmonot":7983,"Ġgodd":7984,"Ġsoup":7985,"Ġincom":7986,"Ġbestowed":7987,"Ġharmony":7988,"Ġprovidence":7989,"Ġcrazy":7990,"Ġneglect":7991,"oonful":7992,"Ġcovering":7993,"Ġeducated":7994,"Ġbasin":7995,"Ġbritain":7996,"Ġfiercely":7997,"Ġkennedy":7998,"Ġluxury":7999,"Ġstretch":8000,"Ġtelegraph":8001,"elf":8002,"Ġost":8003,"Ġbows":8004,"ena":8005,"ona":8006,"Ġpul":8007,"Ġgasped":8008,"Ġshaken":8009,"allel":8010,"Ġfruits":8011,"Ġscold":8012,"Ġfoe":8013,"Ġfogg":8014,"Ġseeming":8015,"Ġmonstr":8016,"Ġinterval":8017,"Ġprophe":8018,"Ġprophet":8019,"Ġconcert":8020,"Ġsecrets":8021,"Ġneighbours":8022,"Ġcombined":8023,"Ġtendency":8024,"Ġdismay":8025,"Ġobviously":8026,"Ġprocure":8027,"Ġrebecca":8028,"Ġparlour":8029,"Ġmoscow":8030,"Ġdisguise":8031,"Ġirresist":8032,"Ġviolet":8033,"Ġtrousers":8034,"ko":8035,"och":8036,"vag":8037,"yard":8038,"Ġbite":8039,"Ġfoul":8040,"Ġliken":8041,"ulars":8042,"Ġjason":8043,"ourt":8044,"Ġarrows":8045,"Ġglancing":8046,"Ġcrushed":8047,"Ġcurse":8048,"Ġindef":8049,"Ġgraham":8050,"Ġadvise":8051,"Ġhearth":8052,"Ġcaes":8053,"Ġcares":8054,"Ġdestiny":8055,"Ġmeasured":8056,"Ġaxe":8057,"Ġmarvell":8058,"Ġsurrender":8059,"Ġsergeant":8060,"gue":8061,"hin":8062,"kers":8063,"Ġtenth":8064,"herent":8065,"Ġwars":8066,"inge":8067,"Ġthie":8068,"itious":8069,"Ġlent":8070,"anor":8071,"another":8072,"Ġec":8073,"stri":8074,"Ġbrows":8075,"Ġdislike":8076,"Ġremedy":8077,"Ġdeserved":8078,"Ġmothers":8079,"Ġassault":8080,"Ġawaken":8081,"Ġcommands":8082,"Ġdresses":8083,"Ġmedium":8084,"Ġeagerness":8085,"Ġdecidedly":8086,"Ġpicking":8087,"Ġclaims":8088,"Ġcomparison":8089,"Ġtradition":8090,"atisf":8091,"arly":8092,"Ġram":8093,"Ġwherefore":8094,"udge":8095,"Ġslipp":8096,"Ġformal":8097,"Ġrestore":8098,"Ġharmon":8099,"Ġpatron":8100,"Ġdoubts":8101,"Ġjacket":8102,"Ġadmirable":8103,"Ġextravag":8104,"Ġwealthy":8105,"Ġintroduce":8106,"etta":8107,"Ġinquiries":8108,"Ġfaculty":8109,"Ġdecember":8110,"Ġabode":8111,"Ġtreasures":8112,"burn":8113,"lor":8114,"nut":8115,"Ġwits":8116,"ania":8117,"Ġdefect":8118,"Ġallan":8119,"Ġconj":8120,"Ġconvey":8121,"abor":8122,"izes":8123,"neys":8124,"Ġlargest":8125,"Ġoppress":8126,"Ġirre":8127,"Ġmaggie":8128,"Ġsquir":8129,"Ġequality":8130,"Ġexisting":8131,"Ġterrified":8132,"Ġstreng":8133,"Ġfilling":8134,"Ġrepresentative":8135,"Ġentertained":8136,"Ġduration":8137,"Ġexperiences":8138,"Ġawaiting":8139,"Ġannoy":8140,"erving":8141,"Ġcows":8142,"Ġstub":8143,"arded":8144,"Ġplague":8145,"Ġclung":8146,"Ġclosing":8147,"assad":8148,"Ġpeer":8149,"Ġcomposition":8150,"Ġimpuls":8151,"Ġsubtle":8152,"Ġtread":8153,"Ġeditor":8154,"Ġpolished":8155,"Ġrobbed":8156,"Ġcomplain":8157,"Ġmaterials":8158,"Ġrussia":8159,"Ġroute":8160,"sometimes":8161,"Ġmelted":8162,"Ġnightingale":8163,"line":8164,"mod":8165,"Ġsack":8166,"Ġfern":8167,"esy":8168,"Ġgy":8169,"Ġhaul":8170,"Ġhaught":8171,"Ġshine":8172,"Ġupset":8173,"Ġens":8174,"Ġenabled":8175,"Ġclad":8176,"Ġcontest":8177,"Ġmostly":8178,"necess":8179,"Ġbeautifully":8180,"Ġadding":8181,"Ġnamely":8182,"Ġlargely":8183,"Ġplays":8184,"Ġeleph":8185,"Ġhush":8186,"Ġprett":8187,"Ġestr":8188,"Ġjulius":8189,"Ġfortunately":8190,"Ġbetray":8191,"Ġpearls":8192,"Ġreleased":8193,"Ġrebell":8194,"Ġtraveller":8195,"Ġcigar":8196,"Ġtelephone":8197,"Ġparadise":8198,"bru":8199,"heus":8200,"Ġwy":8201,"Ġbits":8202,"Ġdiver":8203,"Ġwhim":8204,"Ġkent":8205,"rial":8206,"Ġamusing":8207,"Ġclover":8208,"Ġtext":8209,"Ġscand":8210,"Ġcru":8211,"Ġformid":8212,"Ġministers":8213,"Ġinval":8214,"Ġdoubted":8215,"Ġmuscular":8216,"Ġapolog":8217,"Ġdispute":8218,"except":8219,"Ġturtle":8220,"Ġsickness":8221,"Ġsavages":8222,"Ġhostile":8223,"Ġreports":8224,"Ġgloves":8225,"Ġnavig":8226,"crow":8227,"last":8228,"tes":8229,"inter":8230,"Ġpag":8231,"usal":8232,"Ġconject":8233,"Ġlemon":8234,"Ġtwas":8235,"apsed":8236,"Ġbehalf":8237,"Ġbigger":8238,"Ġoccasional":8239,"Ġrecognised":8240,"Ġlouder":8241,"Ġpurely":8242,"Ġfiery":8243,"Ġadopt":8244,"Ġunconsciously":8245,"Ġpreceding":8246,"Ġcommercial":8247,"Ġtremble":8248,"Ġphotograph":8249,"Ġcorridor":8250,"Ġpavement":8251,"des":8252,"ox":8253,"Ġbub":8254,"atter":8255,"Ġgames":8256,"adem":8257,"among":8258,"Ġshir":8259,"Ġshiver":8260,"ilton":8261,"Ġdeemed":8262,"antial":8263,"umm":8264,"Ġamelia":8265,"Ġgrind":8266,"Ġreserved":8267,"Ġchildish":8268,"Ġhearty":8269,"Ġskil":8270,"Ġvisits":8271,"inese":8272,"Ġoccupy":8273,"Ġsituated":8274,"Ġambassad":8275,"Ġrelease":8276,"Ġphenomena":8277,"Ġgravity":8278,"Ġlikeness":8279,"Ġformidable":8280,"cap":8281,"rise":8282,"ridge":8283,"sp":8284,"ta":8285,"uated":8286,"uction":8287,"zil":8288,"Ġbunch":8289,"ington":8290,"Ġdame":8291,"Ġpaces":8292,"Ġnails":8293,"Ġstained":8294,"Ġket":8295,"Ġchamb":8296,"Ġvib":8297,"Ġvale":8298,"Ġknelt":8299,"Ġcarr":8300,"Ġattorn":8301,"Ġcolon":8302,"Ġpromises":8303,"Ġraoul":8304,"Ġlearnt":8305,"Ġprovide":8306,"Ġhasty":8307,"Ġveins":8308,"Ġstudent":8309,"Ġsandy":8310,"Ġinvention":8311,"Ġhorns":8312,"Ġawaited":8313,"Ġprofessional":8314,"Ġtransport":8315,"Ġrenewed":8316,"Ġresources":8317,"bot":8318,"Ġoven":8319,"Ġhan":8320,"Ġbough":8321,"atus":8322,"itors":8323,"Ġellen":8324,"Ġstool":8325,"Ġanthe":8326,"Ġsund":8327,"ctive":8328,"Ġgos":8329,"Ġabraham":8330,"Ġscent":8331,"Ġwhereupon":8332,"Ġcrumb":8333,"Ġserving":8334,"Ġwrought":8335,"Ġworkmen":8336,"Ġdearly":8337,"Ġelection":8338,"asping":8339,"Ġclimbing":8340,"Ġprevailed":8341,"Ġcooking":8342,"Ġfaults":8343,"Ġdavy":8344,"borne":8345,"Ġstooped":8346,"Ġcavalry":8347,"Ġanswers":8348,"Ġanswering":8349,"abella":8350,"aired":8351,"cons":8352,"gins":8353,"ji":8354,"occ":8355,"ero":8356,"Ġstal":8357,"Ġathen":8358,"Ġshelf":8359,"thor":8360,"Ġtracks":8361,"Ġclust":8362,"cian":8363,"Ġmarius":8364,"Ġremorse":8365,"Ġmayor":8366,"Ġhousekeeper":8367,"Ġindisp":8368,"Ġfaire":8369,"Ġdiscourse":8370,"Ġsurprising":8371,"Ġpeters":8372,"Ġringing":8373,"Ġapartments":8374,"Ġarguments":8375,"Ġreverence":8376,"Ġcordial":8377,"Ġresponsibility":8378,"Ġglobe":8379,"Ġforbidden":8380,"Ġgigantic":8381,"Ġencouraged":8382,"Ġjapanese":8383,"Ġconspicuous":8384,"Ġmol":8385,"Ġmare":8386,"onstr":8387,"Ġpad":8388,"arin":8389,"Ġnom":8390,"Ġgulf":8391,"omb":8392,"imer":8393,"alog":8394,"Ġrash":8395,"iforn":8396,"Ġgrasped":8397,"Ġfiring":8398,"Ġcontains":8399,"Ġslew":8400,"Ġsnapped":8401,"Ġharness":8402,"Ġdeprived":8403,"cription":8404,"Ġvillain":8405,"Ġsuperintend":8406,"Ġconvuls":8407,"anna":8408,"Ġenjoying":8409,"Ġincluded":8410,"Ġdolls":8411,"Ġguarded":8412,"Ġrecognition":8413,"Ġheroes":8414,"ikov":8415,"Ġlodging":8416,"Ġundertake":8417,"Ġtempted":8418,"Ġfederal":8419,"Ġapron":8420,"Ġremembrance":8421,"Ġmonstrous":8422,"ien":8423,"maid":8424,"ody":8425,"wind":8426,"Ġoars":8427,"Ġcakes":8428,"Ġnun":8429,"Ġnigh":8430,"ican":8431,"Ġrider":8432,"anda":8433,"riages":8434,"quest":8435,"Ġjaws":8436,"Ġnois":8437,"Ġquart":8438,"Ġblade":8439,"Ġgreatness":8440,"Ġslay":8441,"Ġlaura":8442,"Ġinduce":8443,"Ġdrake":8444,"Ġcolours":8445,"Ġsunny":8446,"Ġdrown":8447,"Ġdrunken":8448,"Ġspoil":8449,"Ġlowest":8450,"Ġestim":8451,"Ġappearances":8452,"Ġeyeb":8453,"Ġwildly":8454,"Ġsweetness":8455,"Ġreflections":8456,"Ġdreaded":8457,"Ġthankful":8458,"Ġfragments":8459,"Ġprinted":8460,"Ġresponsible":8461,"Ġeconomic":8462,"Ġdismissed":8463,"Ġnarrative":8464,"Ġinevitable":8465,"Ġtiger":8466,"Ġtragedy":8467,"Ġinterfere":8468,"Ġmask":8469,"Ġfitting":8470,"ingham":8471,"Ġdub":8472,"Ġpushing":8473,"Ġheel":8474,"lym":8475,"sever":8476,"Ġselect":8477,"gend":8478,"Ġvault":8479,"Ġlecture":8480,"Ġleagues":8481,"Ġunnecess":8482,"Ġpassages":8483,"Ġwinding":8484,"Ġchem":8485,"Ġdroop":8486,"Ġfairies":8487,"Ġexplos":8488,"Ġcaliforn":8489,"Ġeffective":8490,"Ġguardian":8491,"Ġholiday":8492,"Ġcomprehens":8493,"Ġechoed":8494,"Ġsparkling":8495,"Ġdeliberately":8496,"Ġscreen":8497,"Ġpermanent":8498,"Ġgoddess":8499,"Ġcaesar":8500,"rating":8501,"zes":8502,"arian":8503,"Ġchinese":8504,"Ġmisfortun":8505,"Ġbru":8506,"Ġflowed":8507,"Ġimpert":8508,"phia":8509,"Ġraven":8510,"Ġdestined":8511,"Ġremainder":8512,"Ġpaths":8513,"justice":8514,"Ġrubbing":8515,"Ġexecuted":8516,"Ġbriefly":8517,"Ġuncommon":8518,"Ġwarrior":8519,"Ġstamped":8520,"Ġparson":8521,"Ġbattles":8522,"oked":8523,"pense":8524,"othes":8525,"Ġrot":8526,"Ġdod":8527,"Ġprolong":8528,"Ġagitated":8529,"ineas":8530,"Ġperish":8531,"Ġearliest":8532,"ensions":8533,"Ġearthly":8534,"occhio":8535,"Ġlowered":8536,"Ġsquee":8537,"Ġbrightly":8538,"Ġremembering":8539,"Ġbenevol":8540,"Ġgriev":8541,"Ġtails":8542,"Ġalexander":8543,"Ġresemblance":8544,"Ġabstract":8545,"Ġoctober":8546,"Ġbreton":8547,"vial":8548,"heart":8549,"Ġcel":8550,"Ġpel":8551,"othed":8552,"Ġrecess":8553,"Ġrou":8554,"Ġrue":8555,"Ġlee":8556,"Ġark":8557,"Ġflu":8558,"soever":8559,"Ġopenly":8560,"aneously":8561,"ifications":8562,"Ġtailor":8563,"Ġcandles":8564,"Ġafforded":8565,"Ġtrifle":8566,"Ġliquid":8567,"Ġpacific":8568,"Ġcorporal":8569,"Ġstructure":8570,"Ġentitled":8571,"Ġmisfortunes":8572,"gle":8573,"hor":8574,"mun":8575,"time":8576,"Ġfert":8577,"Ġhem":8578,"Ġlud":8579,"Ġinjustice":8580,"Ġniece":8581,"Ġhaunted":8582,"Ġeh":8583,"Ġselected":8584,"Ġdegr":8585,"Ġexpend":8586,"Ġnod":8587,"anting":8588,"Ġintently":8589,"Ġspy":8590,"Ġperch":8591,"Ġpoly":8592,"Ġappointment":8593,"Ġsets":8594,"bear":8595,"Ġassass":8596,"Ġskull":8597,"Ġbarr":8598,"Ġbarrel":8599,"Ġsyn":8600,"Ġeleanor":8601,"Ġcloset":8602,"Ġmuscles":8603,"Ġthyself":8604,"Ġfurnish":8605,"Ġbullet":8606,"iscilla":8607,"Ġconquered":8608,"Ġshriek":8609,"Ġbonnet":8610,"Ġcondemn":8611,"Ġwonders":8612,"Ġvalentine":8613,"Ġecst":8614,"gence":8615,"ias":8616,"master":8617,"went":8618,"Ġx":8619,"Ġwaking":8620,"Ġbart":8621,"eding":8622,"Ġdix":8623,"Ġlung":8624,"Ġnick":8625,"Ġell":8626,"Ġsuited":8627,"uscript":8628,"Ġmanuscript":8629,"Ġlegend":8630,"Ġplates":8631,"Ġuses":8632,"Ġmartha":8633,"Ġglances":8634,"Ġnewly":8635,"neath":8636,"Ġnora":8637,"retion":8638,"Ġrelate":8639,"Ġpatiently":8640,"Ġmerr":8641,"Ġstrongest":8642,"Ġangle":8643,"Ġgardener":8644,"Ġville":8645,"Ġfrenchman":8646,"Ġdollar":8647,"Ġdelicacy":8648,"Ġmodel":8649,"Ġagreement":8650,"Ġuniversity":8651,"Ġscreamed":8652,"Ġnuts":8653,"Ġcomparatively":8654,"Ġpearl":8655,"Ġspargo":8656,"Ġinstitutions":8657,"Ġdesirable":8658,"Ġdemocratic":8659,"Ġconsolation":8660,"Ġpatriot":8661,"Ġartificial":8662,"Ġshrewd":8663,"Ġpang":8664,"Ġpsmith":8665,"Ġlots":8666,"iche":8667,"irs":8668,"Ġweighed":8669,"Ġchate":8670,"Ġvital":8671,"Ġplacing":8672,"Ġtrout":8673,"Ġbluff":8674,"Ġremonstr":8675,"Ġcontrived":8676,"Ġbetty":8677,"Ġslumber":8678,"Ġcharms":8679,"Ġcolumb":8680,"Ġmilton":8681,"Ġraft":8682,"Ġaffirm":8683,"Ġmouths":8684,"zzie":8685,"Ġdamsel":8686,"Ġcustoms":8687,"Ġimproved":8688,"Ġbodily":8689,"Ġnobility":8690,"Ġpouring":8691,"Ġapprehension":8692,"Ġwolves":8693,"Ġdiscipline":8694,"mble":8695,"rained":8696,"sud":8697,"Ġwool":8698,"Ġhoof":8699,"Ġstif":8700,"amis":8701,"Ġchor":8702,"Ġchicken":8703,"istered":8704,"Ġprostr":8705,"Ġowners":8706,"Ġjustify":8707,"Ġslim":8708,"Ġcris":8709,"Ġcompare":8710,"Ġrighteous":8711,"Ġswamp":8712,"Ġswinging":8713,"Ġsurm":8714,"Ġextensive":8715,"Ġelev":8716,"Ġtemples":8717,"Ġcalam":8718,"Ġexamining":8719,"Ġprobability":8720,"going":8721,"Ġsanct":8722,"Ġfrankly":8723,"Ġthreatening":8724,"Ġdurham":8725,"Ġasserted":8726,"Ġexhibited":8727,"Ġpirate":8728,"Ġsports":8729,"Ġfisherman":8730,"Ġdefeat":8731,"adelphia":8732,"Ġumbrella":8733,"Ġthieves":8734,"ua":8735,"Ġsant":8736,"onse":8737,"Ġinit":8738,"Ġgau":8739,"roft":8740,"gered":8741,"Ġmuff":8742,"Ġscul":8743,"Ġhoarse":8744,"Ġstillness":8745,"Ġmathem":8746,"Ġgenerations":8747,"Ġdraught":8748,"Ġcathed":8749,"Ġoppon":8750,"Ġstudents":8751,"Ġantiqu":8752,"Ġvolcan":8753,"Ġcousins":8754,"Ġrags":8755,"Ġsuspicious":8756,"Ġrejoiced":8757,"Ġdunbar":8758,"accord":8759,"something":8760,"Ġwriters":8761,"Ġemphasis":8762,"Ġcanvas":8763,"sudden":8764,"give":8765,"inement":8766,"Ġarea":8767,"Ġtwist":8768,"Ġadvers":8769,"pton":8770,"inkling":8771,"Ġunderneath":8772,"Ġbackground":8773,"Ġaccum":8774,"Ġpleaded":8775,"Ġpersisted":8776,"phy":8777,"Ġrefresh":8778,"Ġevol":8779,"Ġsnatched":8780,"Ġstartling":8781,"Ġclothed":8782,"Ġphiladelphia":8783,"Ġmarrying":8784,"Ġseparation":8785,"rers":8786,"Ġbarely":8787,"Ġbravely":8788,"Ġbasis":8789,"Ġeuropean":8790,"Ġimperial":8791,"Ġassociated":8792,"Ġculture":8793,"Ġnobles":8794,"Ġnursery":8795,"Ġcigaret":8796,"Ġfowl":8797,"Ġglacier":8798,"Ġcrystal":8799,"Ġorchard":8800,"Ġspaniards":8801,"Ġeternity":8802,"ranean":8803,"Ġtestimony":8804,"Ġeustace":8805,"Ġcalifornia":8806,"Ġsculpt":8807,"away":8808,"da":8809,"dra":8810,"dled":8811,"gate":8812,"pres":8813,"vant":8814,"Ġaught":8815,"Ġdum":8816,"Ġdash":8817,"oting":8818,"Ġford":8819,"urre":8820,"ills":8821,"Ġchoo":8822,"Ġchains":8823,"Ġexh":8824,"Ġtroop":8825,"Ġclara":8826,"Ġpoems":8827,"Ġsmote":8828,"Ġspecially":8829,"Ġputs":8830,"Ġguided":8831,"boy":8832,"Ġharbour":8833,"Ġhats":8834,"Ġdispos":8835,"Ġcreeping":8836,"Ġmaidens":8837,"Ġhesitate":8838,"Ġfavorable":8839,"chers":8840,"Ġattractive":8841,"Ġruler":8842,"Ġbrandy":8843,"Ġentertainment":8844,"Ġmanagement":8845,"Ġinstitution":8846,"Ġsignificance":8847,"Ġclergyman":8848,"Ġserene":8849,"Ġattorney":8850,"down":8851,"fly":8852,"lace":8853,"ode":8854,"rus":8855,"Ġtull":8856,"replied":8857,"Ġbother":8858,"Ġcad":8859,"itan":8860,"Ġgab":8861,"Ġwelf":8862,"adle":8863,"Ġshocked":8864,"resa":8865,"Ġwholes":8866,"Ġspared":8867,"Ġamy":8868,"Ġadams":8869,"Ġscared":8870,"Ġswore":8871,"Ġelabor":8872,"Ġsubsequ":8873,"Ġrelax":8874,"Ġcarelessly":8875,"Ġcurt":8876,"Ġbarrier":8877,"Ġtribut":8878,"aneous":8879,"Ġdiscont":8880,"Ġexpressions":8881,"Ġcustomary":8882,"Ġamidst":8883,"Ġluxur":8884,"Ġcoachman":8885,"Ġscarecrow":8886,"Ġphoenix":8887,"Ġincapable":8888,"suddenly":8889,"Ġwelfare":8890,"god":8891,"har":8892,"vin":8893,"reet":8894,"Ġhud":8895,"Ġmit":8896,"Ġmoses":8897,"Ġrises":8898,"Ġshared":8899,"Ġsoap":8900,"rael":8901,"Ġplum":8902,"Ġpriscilla":8903,"Ġtimber":8904,"Ġclaimed":8905,"Ġaccent":8906,"Ġcommend":8907,"Ġlazy":8908,"Ġrelatives":8909,"Ġphant":8910,"Ġbehaved":8911,"alem":8912,"Ġspoon":8913,"Ġpersonally":8914,"Ġpersonality":8915,"Ġhorseback":8916,"Ġcircular":8917,"Ġvehic":8918,"Ġstudying":8919,"Ġdeclined":8920,"Ġdeclaration":8921,"Ġvolunt":8922,"Ġshops":8923,"Ġroughly":8924,"Ġcapture":8925,"Ġjerry":8926,"Ġamazed":8927,"Ġrecords":8928,"Ġsenator":8929,"Ġjewel":8930,"Ġscotch":8931,"Ġbolt":8932,"Ġdarted":8933,"Ġjanuary":8934,"Ġwiped":8935,"Ġsublime":8936,"Ġchateau":8937,"din":8938,"little":8939,"instead":8940,"Ġsid":8941,"Ġmall":8942,"Ġmice":8943,"Ġjung":8944,"Ġtherein":8945,"Ġintol":8946,"Ġabol":8947,"Ġroaring":8948,"Ġquaint":8949,"Ġtwent":8950,"Ġample":8951,"Ġenlight":8952,"Ġscant":8953,"Ġwrites":8954,"Ġacadem":8955,"Ġreturns":8956,"Ġpursue":8957,"Ġfactory":8958,"Ġpattern":8959,"Ġpatsy":8960,"version":8961,"Ġjoyous":8962,"Ġdetermine":8963,"cheon":8964,"Ġspreading":8965,"Ġresponse":8966,"Ġlamps":8967,"Ġfancies":8968,"Ġsuspended":8969,"Ġpoliceman":8970,"Ġsymptoms":8971,"Ġestralla":8972,"gic":8973,"must":8974,"yss":8975,"Ġhired":8976,"athetic":8977,"lder":8978,"Ġstare":8979,"urable":8980,"Ġisol":8981,"Ġsealed":8982,"Ġjasper":8983,"unities":8984,"Ġcrust":8985,"Ġentr":8986,"ulties":8987,"Ġcharlot":8988,"unders":8989,"Ġgenerosity":8990,"Ġvisiting":8991,"Ġparticulars":8992,"Ġquarre":8993,"Ġbreathless":8994,"Ġcivilized":8995,"Ġhunted":8996,"Ġinvolved":8997,"Ġappreciate":8998,"Ġconstructed":8999,"Ġhugh":9000,"Ġdisdain":9001,"Ġagricult":9002,"bruary":9003,"bled":9004,"mary":9005,"oll":9006,"Ġoun":9007,"ench":9008,"Ġtooth":9009,"llor":9010,"Ġincess":9011,"Ġsax":9012,"Ġfemin":9013,"Ġunworthy":9014,"Ġblush":9015,"Ġpert":9016,"Ġperceiving":9017,"Ġpeop":9018,"Ġoldest":9019,"Ġcrash":9020,"Ġcarpent":9021,"Ġvoc":9022,"Ġtermin":9023,"Ġdefin":9024,"Ġdares":9025,"Ġkissing":9026,"Ġmachines":9027,"Ġtriumphant":9028,"Ġsettlement":9029,"break":9030,"Ġenchanted":9031,"Ġgranite":9032,"Ġatlantic":9033,"Ġvillefort":9034,"pen":9035,"xter":9036,"za":9037,"Ġgamb":9038,"utive":9039,"Ġkar":9040,"thou":9041,"Ġvary":9042,"iston":9043,"Ġabyss":9044,"Ġsphere":9045,"Ġprohib":9046,"Ġloaf":9047,"Ġdesolate":9048,"Ġaccus":9049,"Ġrepair":9050,"Ġburg":9051,"Ġcircles":9052,"Ġexcurs":9053,"Ġpaste":9054,"Ġdiscom":9055,"Ġprovision":9056,"Ġfools":9057,"Ġscrut":9058,"Ġdiscussed":9059,"Ġmerchants":9060,"Ġassertion":9061,"borough":9062,"Ġvexed":9063,"Ġpupils":9064,"Ġincredible":9065,"Ġtemporary":9066,"Ġscript":9067,"Ġpotatoes":9068,"Ġprairie":9069,"Ġanthea":9070,"brew":9071,"first":9072,"Ġtune":9073,"iner":9074,"Ġcass":9075,"Ġdirt":9076,"anne":9077,"omy":9078,"Ġjude":9079,"Ġfebruary":9080,"Ġworm":9081,"akers":9082,"ittered":9083,"Ġafore":9084,"Ġperception":9085,"Ġmarching":9086,"Ġstrained":9087,"Ġcommons":9088,"Ġgregg":9089,"Ġneedn":9090,"Ġcourtesy":9091,"Ġproduction":9092,"Ġpunct":9093,"Ġconclude":9094,"Ġcombination":9095,"Ġapprehend":9096,"Ġregularly":9097,"Ġpinocchio":9098,"Ġchristianity":9099,"Ġrestraint":9100,"Ġprimitive":9101,"Ġwaistcoat":9102,"Ġpigs":9103,"Ġannoyed":9104,"Ġsiege":9105,"Ġsubdued":9106,"Ġalexandrov":9107,"Ġmarvellous":9108,"Ġunnecessary":9109,"gon":9110,"wa":9111,"Ġhoop":9112,"Ġbour":9113,"Ġbachel":9114,"Ġmute":9115,"Ġwhir":9116,"Ġripe":9117,"Ġweigh":9118,"Ġstake":9119,"Ġstately":9120,"Ġseam":9121,"Ġsheets":9122,"Ġsobs":9123,"Ġdeceive":9124,"Ġdexter":9125,"ulously":9126,"Ġchape":9127,"Ġexult":9128,"unless":9129,"Ġworried":9130,"olk":9131,"wel":9132,"Ġobli":9133,"inted":9134,"Ġguy":9135,"Ġassisted":9136,"inson":9137,"Ġwonderfully":9138,"Ġstrikes":9139,"Ġstudies":9140,"Ġvillages":9141,"Ġverd":9142,"Ġmiracle":9143,"Ġprotected":9144,"Ġdignified":9145,"Ġfaculties":9146,"ography":9147,"Ġabundance":9148,"Ġmusket":9149,"Ġwelcomed":9150,"giving":9151,"Ġtus":9152,"Ġtact":9153,"Ġpic":9154,"Ġeug":9155,"Ġster":9156,"Ġsag":9157,"usalem":9158,"Ġknot":9159,"Ġplac":9160,"Ġtraces":9161,"cible":9162,"Ġmarie":9163,"Ġstrings":9164,"Ġscrew":9165,"Ġmatt":9166,"neither":9167,"Ġindicate":9168,"Ġcondes":9169,"Ġcommanding":9170,"Ġsadness":9171,"Ġcomforted":9172,"Ġcomfortably":9173,"Ġrobes":9174,"Ġattendant":9175,"Ġscramb":9176,"Ġfalsehood":9177,"Ġinvented":9178,"Ġdismal":9179,"Ġexhaust":9180,"Ġadditional":9181,"Ġembarrassment":9182,"Ġcultivated":9183,"Ġpudding":9184,"Ġbronze":9185,"iary":9186,"Ġsledge":9187,"Ġbased":9188,"era":9189,"Ġandy":9190,"Ġhebrew":9191,"itations":9192,"Ġlum":9193,"Ġgross":9194,"Ġgird":9195,"Ġbeau":9196,"icious":9197,"Ġyawn":9198,"Ġstump":9199,"Ġisrael":9200,"Ġshower":9201,"Ġdolly":9202,"Ġchic":9203,"antes":9204,"Ġalert":9205,"Ġunacc":9206,"Ġunseen":9207,"Ġquitted":9208,"Ġbliss":9209,"Ġflashing":9210,"Ġscout":9211,"Ġsurpass":9212,"Ġbehave":9213,"Ġreaders":9214,"Ġreadiness":9215,"Ġincons":9216,"Ġcontinual":9217,"Ġfuriously":9218,"Ġbrace":9219,"Ġdefined":9220,"Ġsolution":9221,"ervation":9222,"Ġdreadfully":9223,"Ġninth":9224,"Ġmirth":9225,"Ġhamm":9226,"Ġrevolver":9227,"Ġliterally":9228,"Ġcherished":9229,"Ġgreeting":9230,"Ġrelieve":9231,"Ġswallow":9232,"Ġidentity":9233,"Ġphenomenon":9234,"Ġinherit":9235,"Ġquivering":9236,"Ġcrisis":9237,"Ġcathedral":9238,"Ġcharlotte":9239,"dles":9240,"atching":9241,"Ġna":9242,"Ġsel":9243,"Ġmeek":9244,"Ġrost":9245,"Ġquad":9246,"Ġagents":9247,"Ġagnes":9248,"Ġbrim":9249,"Ġteam":9250,"Ġmoves":9251,"Ġcrimes":9252,"Ġkeith":9253,"Ġassent":9254,"rude":9255,"Ġexciting":9256,"Ġcoldly":9257,"Ġapprove":9258,"Ġcasting":9259,"Ġconsiderably":9260,"Ġpainter":9261,"Ġrobbers":9262,"Ġcrowds":9263,"Ġgarment":9264,"Ġsenate":9265,"Ġmulti":9266,"Ġsternly":9267,"addin":9268,"Ġegyptian":9269,"Ġsplit":9270,"Ġmules":9271,"ariably":9272,"fare":9273,"sky":9274,"water":9275,"Ġtart":9276,"Ġmike":9277,"ller":9278,"idity":9279,"stood":9280,"urg":9281,"urred":9282,"aciously":9283,"Ġprover":9284,"augh":9285,"Ġflav":9286,"Ġhandful":9287,"Ġglen":9288,"Ġlaure":9289,"Ġpleasantly":9290,"velin":9291,"Ġuncon":9292,"Ġswell":9293,"versed":9294,"Ġvaried":9295,"Ġshouts":9296,"Ġhymn":9297,"Ġfitz":9298,"Ġintelligible":9299,"Ġjimmie":9300,"Ġjerusalem":9301,"Ġfarmers":9302,"Ġspectacles":9303,"Ġgaunt":9304,"Ġcritical":9305,"Ġinterposed":9306,"Ġfishes":9307,"Ġparker":9308,"Ġexchanged":9309,"Ġcalculated":9310,"Ġparlor":9311,"Ġgoverned":9312,"Ġcontradict":9313,"Ġtulliver":9314,"equ":9315,"Ġpoo":9316,"Ġnour":9317,"Ġisle":9318,"chn":9319,"ques":9320,"Ġjon":9321,"unte":9322,"Ġgoin":9323,"Ġintensity":9324,"Ġouts":9325,"Ġunch":9326,"Ġenvelop":9327,"pling":9328,"Ġjustly":9329,"Ġimpet":9330,"Ġpresume":9331,"Ġworkers":9332,"Ġelm":9333,"Ġconfront":9334,"Ġadvoc":9335,"Ġhasten":9336,"Ġimagin":9337,"Ġexperiments":9338,"Ġwiser":9339,"Ġattendants":9340,"Ġbitterness":9341,"Ġgleaming":9342,"Ġeliza":9343,"Ġwhistle":9344,"Ġdesirous":9345,"interest":9346,"Ġapparatus":9347,"Ġchallenge":9348,"Ġtempest":9349,"Ġape":9350,"Ġawhile":9351,"inarily":9352,"nde":9353,"Ġfist":9354,"Ġpump":9355,"orial":9356,"Ġmeals":9357,"Ġsuck":9358,"thy":9359,"inda":9360,"Ġunkind":9361,"ifies":9362,"Ġmisunder":9363,"Ġroger":9364,"Ġcane":9365,"cope":9366,"Ġcommit":9367,"Ġphara":9368,"Ġcolony":9369,"Ġharris":9370,"Ġhonourable":9371,"Ġelected":9372,"Ġmagaz":9373,"Ġaccommod":9374,"Ġsorrows":9375,"Ġwitnessed":9376,"Ġorganization":9377,"Ġcabinet":9378,"Ġcorrespondence":9379,"Ġdoctors":9380,"Ġreplaced":9381,"Ġjuice":9382,"Ġpipes":9383,"Ġchambers":9384,"Ġchicago":9385,"ere":9386,"gone":9387,"vid":9388,"Ġware":9389,"Ġbisc":9390,"Ġfug":9391,"atical":9392,"anks":9393,"Ġyer":9394,"Ġonward":9395,"Ġrans":9396,"ession":9397,"Ġdoom":9398,"Ġchast":9399,"Ġorg":9400,"ieu":9401,"Ġque":9402,"Ġimpr":9403,"Ġimposed":9404,"Ġendured":9405,"Ġdistressed":9406,"Ġrepuls":9407,"bell":9408,"nox":9409,"Ġdrawer":9410,"odor":9411,"Ġdeepest":9412,"Ġbattery":9413,"Ġexpressing":9414,"ouncing":9415,"Ġtalent":9416,"Ġcreate":9417,"Ġwarmly":9418,"Ġdependent":9419,"Ġpierced":9420,"Ġwitnesses":9421,"Ġfolds":9422,"Ġcyril":9423,"Ġoutline":9424,"Ġfundament":9425,"Ġexercised":9426,"Ġcups":9427,"Ġlungs":9428,"eked":9429,"list":9430,"inqu":9431,"Ġwist":9432,"Ġbefall":9433,"Ġhaunt":9434,"Ġraces":9435,"ands":9436,"Ġliking":9437,"Ġja":9438,"Ġfearing":9439,"olph":9440,"umerable":9441,"Ġaramis":9442,"Ġclinging":9443,"Ġoverfl":9444,"Ġoffers":9445,"Ġslaughter":9446,"Ġcourte":9447,"Ġhappening":9448,"ggs":9449,"ceptions":9450,"Ġladyship":9451,"Ġmorality":9452,"Ġinvariably":9453,"Ġdefiance":9454,"Ġresolve":9455,"Ġthicket":9456,"does":9457,"coming":9458,"Ġproudly":9459,"Ġcaptive":9460,"Ġbobby":9461,"Ġpicturesque":9462,"Ġbulk":9463,"Ġsleeve":9464,"Ġtrumpet":9465,"Ġprovinces":9466,"Ġtidings":9467,"bles":9468,"eches":9469,"gings":9470,"looked":9471,"Ġboss":9472,"eration":9473,"Ġfab":9474,"Ġgale":9475,"Ġhail":9476,"Ġbutcher":9477,"ilian":9478,"Ġthereupon":9479,"Ġplough":9480,"Ġpluck":9481,"Ġponder":9482,"Ġappoint":9483,"Ġdonkey":9484,"Ġhappier":9485,"Ġexpert":9486,"Ġstealing":9487,"Ġskins":9488,"Ġrefres":9489,"Ġbarric":9490,"Ġparallel":9491,"Ġhurled":9492,"Ġexplore":9493,"Ġpenc":9494,"Ġaffections":9495,"Ġyouthful":9496,"Ġnegot":9497,"Ġvolumes":9498,"Ġvolunte":9499,"Ġhunters":9500,"Ġtasted":9501,"Ġhammer":9502,"Ġbutterfly":9503,"Ġintroduction":9504,"Ġmartyr":9505,"Ġghast":9506,"Ġdistrust":9507,"Ġstretching":9508,"Ġencouragement":9509,"Ġbehaviour":9510,"bows":9511,"upt":9512,"woman":9513,"Ġoz":9514,"Ġborder":9515,"Ġtoast":9516,"Ġherd":9517,"ama":9518,"ooge":9519,"Ġallen":9520,"Ġconveyed":9521,"Ġupro":9522,"itte":9523,"Ġtricks":9524,"Ġspeeches":9525,"Ġbackwards":9526,"Ġcrooked":9527,"Ġwrist":9528,"Ġconfirm":9529,"Ġcurate":9530,"Ġinternal":9531,"velope":9532,"Ġchristians":9533,"Ġrequis":9534,"Ġfavourable":9535,"Ġinquis":9536,"Ġreview":9537,"Ġfashionable":9538,"Ġtemperament":9539,"Ġthrob":9540,"Ġowl":9541,"Ġreckoned":9542,"Ġshrill":9543,"Ġwhispering":9544,"poor":9545,"Ġchauvelin":9546,"Ġcrumbs":9547,"Ġeyebrows":9548,"Ġdixon":9549,"Ġtwentieth":9550,"Ġpharaoh":9551,"bation":9552,"cont":9553,"fur":9554,"part":9555,"rons":9556,"Ġeric":9557,"rea":9558,"Ġbi":9559,"Ġment":9560,"Ġfost":9561,"Ġpomp":9562,"Ġlined":9563,"amble":9564,"illery":9565,"rol":9566,"Ġvag":9567,"iend":9568,"Ġtrun":9569,"Ġclaws":9570,"Ġloos":9571,"Ġdisli":9572,"Ġadjo":9573,"Ġpeered":9574,"Ġscound":9575,"Ġcommence":9576,"ixt":9577,"Ġsuppressed":9578,"Ġmah":9579,"Ġbelieves":9580,"Ġrefined":9581,"john":9582,"Ġladen":9583,"Ġstrait":9584,"Ġpenal":9585,"Ġdefense":9586,"Ġtreaty":9587,"Ġtypes":9588,"Ġconseil":9589,"Ġproceedings":9590,"arers":9591,"Ġbanker":9592,"Ġsubstantial":9593,"Ġhamilton":9594,"Ġdepended":9595,"Ġcrowned":9596,"Ġowed":9597,"Ġinnumerable":9598,"Ġenthusiastic":9599,"Ġpurchased":9600,"Ġtrifling":9601,"Ġleaping":9602,"Ġascended":9603,"Ġdilig":9604,"Ġanticipated":9605,"Ġcolumns":9606,"Ġtowers":9607,"Ġpupil":9608,"Ġcoinc":9609,"Ġextremity":9610,"Ġleslie":9611,"Ġfeminine":9612,"Ġchapel":9613,"ba":9614,"wal":9615,"Ġsic":9616,"Ġbake":9617,"Ġmaker":9618,"ouch":9619,"itched":9620,"leg":9621,"Ġeth":9622,"ioned":9623,"Ġliable":9624,"Ġaladdin":9625,"unting":9626,"Ġdiso":9627,"Ġeyel":9628,"Ġcarries":9629,"Ġcargo":9630,"Ġattachment":9631,"Ġsunrise":9632,"Ġedison":9633,"Ġsweat":9634,"Ġdecre":9635,"Ġconstance":9636,"Ġconstruction":9637,"Ġrespected":9638,"Ġproducing":9639,"Ġdivide":9640,"Ġfaithfully":9641,"uesday":9642,"Ġsubstances":9643,"Ġhonorable":9644,"Ġpraised":9645,"Ġbands":9646,"Ġhunts":9647,"Ġhypothes":9648,"Ġtotally":9649,"Ġindignant":9650,"Ġstatue":9651,"Ġinvestigation":9652,"Ġintimacy":9653,"Ġvacant":9654,"Ġresentment":9655,"Ġimmortal":9656,"Ġirresistible":9657,"bird":9658,"hur":9659,"ipper":9660,"Ġaye":9661,"Ġcooked":9662,"Ġfuss":9663,"Ġlakes":9664,"Ġasks":9665,"alling":9666,"Ġenlar":9667,"Ġoverp":9668,"Ġpref":9669,"Ġrightly":9670,"getic":9671,"Ġmomentary":9672,"Ġwaiter":9673,"Ġhardship":9674,"Ġmines":9675,"Ġhighway":9676,"Ġchancellor":9677,"Ġpett":9678,"Ġchoked":9679,"Ġvenerable":9680,"Ġvalleys":9681,"Ġdarcy":9682,"Ġheroic":9683,"Ġinstinctively":9684,"Ġradiant":9685,"Ġuneasiness":9686,"Ġemerged":9687,"Ġvictims":9688,"Ġteachers":9689,"Ġlingered":9690,"Ġmechanical":9691,"Ġliquor":9692,"Ġabundant":9693,"Ġinfantry":9694,"Ġcriticism":9695,"Ġfantastic":9696,"Ġdreary":9697,"Ġleonora":9698,"Ġskilful":9699,"dro":9700,"nings":9701,"oly":9702,"yon":9703,"rec":9704,"Ġhears":9705,"itably":9706,"iron":9707,"Ġchick":9708,"Ġworsh":9709,"Ġungr":9710,"Ġroared":9711,"Ġspake":9712,"Ġenvelope":9713,"aren":9714,"Ġmaria":9715,"Ġevenings":9716,"Ġresort":9717,"iph":9718,"Ġcompact":9719,"Ġretained":9720,"gger":9721,"Ġhumming":9722,"Ġcursed":9723,"Ġcorps":9724,"Ġbatter":9725,"Ġdespise":9726,"Ġtalents":9727,"Ġbelle":9728,"Ġposts":9729,"Ġattending":9730,"cella":9731,"Ġtraveling":9732,"Ġopportunities":9733,"Ġbabylon":9734,"Ġheights":9735,"Ġdigging":9736,"Ġpilot":9737,"Ġdischarge":9738,"Ġbuffal":9739,"Ġgrieved":9740,"Ġrebu":9741,"Ġambitious":9742,"cus":9743,"rin":9744,"vis":9745,"Ġhub":9746,"Ġpious":9747,"Ġnerve":9748,"utter":9749,"Ġrip":9750,"Ġisabella":9751,"riel":9752,"Ġmyth":9753,"osis":9754,"Ġplane":9755,"Ġlob":9756,"Ġcove":9757,"Ġtearing":9758,"erted":9759,"Ġprest":9760,"ilda":9761,"Ġpartial":9762,"Ġcourty":9763,"ivities":9764,"Ġconfer":9765,"asonable":9766,"Ġartistic":9767,"Ġextract":9768,"Ġprior":9769,"Ġirrit":9770,"Ġapproved":9771,"Ġexclamation":9772,"Ġsalvation":9773,"Ġdealing":9774,"Ġacquire":9775,"Ġbabies":9776,"Ġhyster":9777,"Ġcommunic":9778,"Ġerected":9779,"Ġshrub":9780,"Ġreckless":9781,"Ġendeavoured":9782,"Ġgaily":9783,"Ġconsulted":9784,"Ġdrifted":9785,"Ġbudd":9786,"bourne":9787,"Ġbridle":9788,"Ġrecommended":9789,"Ġblazing":9790,"Ġancestors":9791,"Ġfelicity":9792,"Ġghastly":9793,"ez":9794,"Ġcyn":9795,"Ġfy":9796,"Ġtoes":9797,"Ġdial":9798,"Ġdora":9799,"Ġpiled":9800,"Ġheath":9801,"itimate":9802,"Ġbeer":9803,"Ġreaction":9804,"Ġrack":9805,"ainty":9806,"Ġsung":9807,"Ġcarriages":9808,"iah":9809,"Ġmonks":9810,"Ġcurled":9811,"Ġharp":9812,"Ġawfully":9813,"Ġpatty":9814,"Ġpromising":9815,"Ġarriving":9816,"Ġanimated":9817,"Ġdisappro":9818,"Ġmills":9819,"Ġcomplicated":9820,"Ġremarkably":9821,"zzle":9822,"Ġchopped":9823,"Ġdimly":9824,"Ġjulie":9825,"Ġstockings":9826,"Ġsamuel":9827,"Ġinhabited":9828,"nesday":9829,"Ġardent":9830,"Ġscholars":9831,"Ġhospitality":9832,"Ġshrugged":9833,"Ġjungle":9834,"ders":9835,"far":9836,"obs":9837,"Ġomn":9838,"Ġponies":9839,"Ġheated":9840,"Ġlor":9841,"Ġlame":9842,"Ġgret":9843,"Ġmyles":9844,"Ġorph":9845,"Ġexting":9846,"asty":9847,"Ġunw":9848,"ortions":9849,"Ġflush":9850,"Ġscru":9851,"soon":9852,"Ġeminent":9853,"inton":9854,"Ġacid":9855,"Ġformation":9856,"shall":9857,"Ġspoiled":9858,"Ġlatest":9859,"Ġinvite":9860,"Ġmeetings":9861,"Ġexcite":9862,"Ġsleepy":9863,"Ġastron":9864,"Ġconvince":9865,"Ġbounds":9866,"Ġantagon":9867,"Ġpolitic":9868,"Ġdamn":9869,"Ġjumping":9870,"Ġdissip":9871,"Ġcrawled":9872,"Ġsobbing":9873,"belie":9874,"Ġluncheon":9875,"Ġpagan":9876,"ball":9877,"bling":9878,"fred":9879,"gard":9880,"Ġti":9881,"Ġtuesday":9882,"Ġwren":9883,"erity":9884,"Ġcul":9885,"Ġcage":9886,"Ġtoad":9887,"Ġdined":9888,"oral":9889,"Ġlac":9890,"ida":9891,"irk":9892,"Ġallowing":9893,"ppers":9894,"ulus":9895,"Ġoutrage":9896,"Ġunity":9897,"Ġplump":9898,"Ġbry":9899,"Ġbeforehand":9900,"Ġscor":9901,"Ġacute":9902,"Ġappearing":9903,"Ġkindred":9904,"Ġharbor":9905,"Ġexplo":9906,"Ġrespectful":9907,"Ġrespectfully":9908,"Ġprincesses":9909,"Ġgarrison":9910,"Ġgroaned":9911,"Ġvirtuous":9912,"Ġsinister":9913,"Ġscrooge":9914,"Ġcommunicate":9915,"Ġdusty":9916,"Ġsuperiority":9917,"Ġobstin":9918,"Ġsexual":9919,"Ġfeverish":9920,"Ġdaniel":9921,"Ġprocured":9922,"Ġfeeding":9923,"Ġsobbed":9924,"han":9925,"mates":9926,"uv":9927,"Ġhanged":9928,"Ġhann":9929,"Ġbib":9930,"Ġcant":9931,"Ġcrop":9932,"Ġfren":9933,"Ġstur":9934,"ripp":9935,"usively":9936,"Ġconverse":9937,"Ġdoomed":9938,"Ġupwards":9939,"Ġexter":9940,"Ġthereof":9941,"Ġtray":9942,"Ġtwins":9943,"Ġtechn":9944,"abby":9945,"ciences":9946,"Ġdownward":9947,"Ġwatson":9948,"Ġsurgeon":9949,"Ġmetaph":9950,"Ġrugged":9951,"Ġestates":9952,"Ġhusbands":9953,"Ġtorch":9954,"Ġdespised":9955,"Ġcomplained":9956,"Ġmassive":9957,"Ġturk":9958,"sylv":9959,"Ġsolely":9960,"Ġtastes":9961,"Ġopera":9962,"Ġdamage":9963,"Ġsuspicions":9964,"anyard":9965,"Ġhypocr":9966,"Ġcommissioner":9967,"Ġthrill":9968,"certainly":9969,"Ġpolitely":9970,"seeing":9971,"crates":9972,"Ġpropriety":9973,"Ġbarbara":9974,"Ġeccles":9975,"got":9976,"iantly":9977,"poonful":9978,"rants":9979,"Ġcough":9980,"Ġfret":9981,"Ġdainty":9982,"Ġpyr":9983,"Ġginger":9984,"icit":9985,"idences":9986,"entially":9987,"Ġrever":9988,"Ġtract":9989,"plom":9990,"Ġbegging":9991,"Ġcomprom":9992,"Ġrestaur":9993,"Ġassigned":9994,"Ġgenerals":9995,"Ġbuzz":9996,"Ġprominent":9997,"Ġearthqu":9998,"Ġverloc":9999,"Ġspectators":10000,"everything":10001,"Ġgreece":10002,"Ġelderly":10003,"Ġprudent":10004,"abouts":10005,"Ġstormy":10006,"Ġembarrassed":10007,"Ġshuddered":10008,"Ġgoverness":10009,"Ġtyranny":10010,"mighty":10011,"Ġeloquence":10012,"Ġshillings":10013,"Ġpetersburg":10014,"Ġbachelor":10015,"bons":10016,"lings":10017,"uate":10018,"Ġwreat":10019,"Ġcos":10020,"Ġheaps":10021,"armed":10022,"Ġyor":10023,"andy":10024,"Ġseasons":10025,"Ġshapes":10026,"Ġallies":10027,"Ġrolls":10028,"agers":10029,"elity":10030,"Ġpeg":10031,"Ġmarquis":10032,"Ġimpud":10033,"Ġexpenses":10034,"Ġstealth":10035,"Ġsnuff":10036,"Ġoppressed":10037,"joy":10038,"Ġridden":10039,"Ġrepeating":10040,"Ġbottles":10041,"Ġgrowled":10042,"chet":10043,"Ġsticking":10044,"Ġcostume":10045,"Ġtongues":10046,"Ġaugustine":10047,"Ġinfinitely":10048,"Ġtavern":10049,"Ġdefeated":10050,"Ġnavy":10051,"Ġsincerely":10052,"Ġmantle":10053,"Ġsulph":10054,"Ġgorgeous":10055,"gage":10056,"ige":10057,"uing":10058,"eries":10059,"Ġcelia":10060,"Ġfiend":10061,"isen":10062,"Ġpadd":10063,"lyn":10064,"entric":10065,"advant":10066,"chus":10067,"ushes":10068,"Ġchanced":10069,"people":10070,"Ġexal":10071,"ifting":10072,"Ġcoats":10073,"Ġpend":10074,"Ġconsumption":10075,"Ġdiffer":10076,"Ġtragic":10077,"Ġgravel":10078,"Ġsweeping":10079,"Ġobjected":10080,"Ġdivor":10081,"Ġhiggins":10082,"Ġsaints":10083,"Ġspringing":10084,"Ġwestward":10085,"strong":10086,"Ġpanic":10087,"Ġwednesday":10088,"Ġdiplom":10089,"Ġmysteries":10090,"Ġundertaking":10091,"Ġretreated":10092,"Ġblankets":10093,"Ġtransparent":10094,"Ġnegroes":10095,"Ġrepublican":10096,"Ġfulfil":10097,"Ġstaggered":10098,"Ġbrutal":10099,"Ġappropriate":10100,"Ġembroidered":10101,"further":10102,"Ġcourtyard":10103,"dened":10104,"vous":10105,"Ġtank":10106,"Ġwrest":10107,"Ġmes":10108,"Ġferv":10109,"Ġdiet":10110,"Ġpans":10111,"Ġpulse":10112,"othe":10113,"Ġwhale":10114,"Ġconform":10115,"Ġabuse":10116,"akable":10117,"Ġspotted":10118,"Ġbruce":10119,"Ġblushed":10120,"Ġimitation":10121,"ffic":10122,"Ġjove":10123,"Ġcounting":10124,"Ġswing":10125,"Ġmonaster":10126,"Ġphill":10127,"Ġdragging":10128,"Ġinsign":10129,"Ġincomp":10130,"Ġsimult":10131,"Ġbarren":10132,"Ġsprung":10133,"Ġdevice":10134,"Ġstrip":10135,"Ġescort":10136,"Ġwhiskers":10137,"Ġarray":10138,"Ġmaids":10139,"Ġcostly":10140,"Ġhesitating":10141,"Ġshadowy":10142,"Ġruled":10143,"Ġrecorded":10144,"Ġkeenly":10145,"Ġneighboring":10146,"Ġrestrain":10147,"Ġunusually":10148,"Ġvicar":10149,"Ġvaguely":10150,"Ġcontemplation":10151,"Ġtreasury":10152,"Ġattentively":10153,"Ġexercises":10154,"Ġprejudice":10155,"Ġadvertis":10156,"Ġmanufacture":10157,"Ġrascal":10158,"Ġchorus":10159,"urrection":10160,"Ġfundamental":10161,"Ġfyodor":10162,"Ġecclesi":10163,"bro":10164,"spr":10165,"wall":10166,"yers":10167,"Ġtack":10168,"Ġtumbled":10169,"rehens":10170,"Ġmoo":10171,"Ġmabel":10172,"Ġced":10173,"Ġfits":10174,"Ġdyn":10175,"Ġnail":10176,"Ġgild":10177,"Ġreigned":10178,"Ġwendy":10179,"Ġdeject":10180,"Ġvit":10181,"Ġmanager":10182,"istry":10183,"oles":10184,"Ġtraced":10185,"Ġcanoe":10186,"orders":10187,"Ġremo":10188,"Ġglor":10189,"Ġpassive":10190,"Ġarmour":10191,"Ġworlds":10192,"Ġsubmitted":10193,"Ġincense":10194,"Ġbestow":10195,"Ġedges":10196,"Ġfiner":10197,"Ġtrib":10198,"aza":10199,"Ġrealm":10200,"Ġdiscern":10201,"Ġesther":10202,"Ġwinchester":10203,"Ġcourts":10204,"uffic":10205,"Ġlimb":10206,"Ġlimp":10207,"Ġattraction":10208,"Ġoxford":10209,"Ġshaft":10210,"Ġtablespoonful":10211,"Ġpanting":10212,"Ġlegislature":10213,"Ġsustained":10214,"Ġoverwhelmed":10215,"Ġadorned":10216,"Ġanalysis":10217,"Ġhaughty":10218,"Ġadjoining":10219,"mad":10220,"oons":10221,"Ġtet":10222,"Ġbacked":10223,"isive":10224,"Ġpint":10225,"icy":10226,"imble":10227,"Ġripp":10228,"Ġsting":10229,"Ġalmighty":10230,"raft":10231,"osa":10232,"Ġtrades":10233,"agin":10234,"Ġperce":10235,"Ġdeserves":10236,"Ġcracked":10237,"Ġconserv":10238,"Ġeverlast":10239,"Ġpleases":10240,"bod":10241,"Ġsnap":10242,"Ġsniff":10243,"Ġuttering":10244,"Ġtommy":10245,"Ġpraying":10246,"Ġlabore":10247,"Ġtalks":10248,"Ġnegative":10249,"Ġnicely":10250,"Ġargue":10251,"ippi":10252,"Ġfetched":10253,"Ġnineteenth":10254,"blest":10255,"Ġdetected":10256,"Ġresembled":10257,"Ġprotestant":10258,"Ġunexpectedly":10259,"Ġthirsty":10260,"Ġsurroundings":10261,"Ġesteemed":10262,"Ġsignificant":10263,"Ġphilosophers":10264,"Ġextending":10265,"Ġwigg":10266,"Ġingenious":10267,"Ġorgans":10268,"dri":10269,"Ġhounds":10270,"Ġoft":10271,"Ġdou":10272,"Ġdins":10273,"Ġdagger":10274,"Ġlyn":10275,"Ġlumber":10276,"Ġreappe":10277,"Ġwegg":10278,"urous":10279,"hers":10280,"Ġsocrates":10281,"Ġalliance":10282,"Ġarbit":10283,"Ġblunt":10284,"Ġpercy":10285,"Ġearned":10286,"Ġacres":10287,"Ġcapit":10288,"Ġcurls":10289,"Ġsentences":10290,"Ġparr":10291,"Ġsyll":10292,"Ġpoles":10293,"Ġexclaim":10294,"Ġconsiderations":10295,"Ġtouches":10296,"Ġequip":10297,"Ġsaluted":10298,"Ġtyrant":10299,"Ġlanguid":10300,"Ġadmiring":10301,"Ġidol":10302,"Ġclimate":10303,"Ġoriginally":10304,"Ġspecific":10305,"Ġbursting":10306,"Ġgreeks":10307,"Ġapplause":10308,"Ġblanket":10309,"Ġknocking":10310,"Ġstorms":10311,"Ġdramatic":10312,"Ġperplexity":10313,"Ġenclosed":10314,"Ġarchitecture":10315,"Ġboughs":10316,"Ġdinsmore":10317,"ees":10318,"rich":10319,"Ġbann":10320,"eron":10321,"Ġmim":10322,"Ġig":10323,"Ġcate":10324,"Ġrect":10325,"imately":10326,"Ġsecl":10327,"ersed":10328,"Ġleague":10329,"uman":10330,"Ġropes":10331,"Ġlogs":10332,"Ġdisadvant":10333,"irect":10334,"Ġunderground":10335,"Ġhereafter":10336,"Ġconspir":10337,"ensed":10338,"Ġcountless":10339,"ivable":10340,"Ġlighter":10341,"Ġsentin":10342,"Ġharvest":10343,"Ġadmission":10344,"Ġcorp":10345,"Ġexplaining":10346,"Ġdiscoura":10347,"Ġbreaks":10348,"Ġpractised":10349,"Ġwidely":10350,"Ġmessages":10351,"Ġgroan":10352,"Ġhostess":10353,"Ġdescending":10354,"Ġroofs":10355,"Ġindustrial":10356,"Ġobtaining":10357,"Ġindulgence":10358,"Ġeconomy":10359,"Ġfulfilled":10360,"Ġnaughty":10361,"Ġinvoluntarily":10362,"Ġmuseum":10363,"Ġsymbol":10364,"Ġpavl":10365,"Ġgospel":10366,"Ġathenians":10367,"Ġdisposal":10368,"Ġacademy":10369,"Ġpencroft":10370,"iage":10371,"iations":10372,"pool":10373,"rat":10374,"inn":10375,"Ġbot":10376,"enet":10377,"Ġdome":10378,"Ġdantes":10379,"Ġlanyard":10380,"aser":10381,"Ġgust":10382,"Ġgert":10383,"omer":10384,"also":10385,"Ġnotions":10386,"amin":10387,"Ġshots":10388,"Ġdeem":10389,"Ġneut":10390,"unned":10391,"fell":10392,"olo":10393,"Ġstrang":10394,"Ġglare":10395,"covered":10396,"Ġplead":10397,"undered":10398,"Ġexpand":10399,"Ġclement":10400,"Ġeighteenth":10401,"Ġharold":10402,"Ġfinan":10403,"Ġsounding":10404,"Ġoppose":10405,"Ġbury":10406,"Ġtempered":10407,"Ġhorsemen":10408,"Ġcalf":10409,"Ġdiscretion":10410,"Ġsuspense":10411,"Ġfreck":10412,"Ġsoftened":10413,"Ġdecline":10414,"Ġgrip":10415,"rington":10416,"Ġweariness":10417,"Ġmammy":10418,"Ġrejoice":10419,"Ġshrank":10420,"Ġharmless":10421,"marg":10422,"Ġproofs":10423,"Ġbirthday":10424,"Ġproblems":10425,"Ġsoothing":10426,"Ġwondrous":10427,"Ġdeposited":10428,"gra":10429,"mouth":10430,"press":10431,"Ġhart":10432,"Ġhark":10433,"Ġfuel":10434,"Ġandrea":10435,"Ġdal":10436,"itous":10437,"Ġnoticing":10438,"anders":10439,"Ġkicked":10440,"Ġshattered":10441,"Ġchip":10442,"Ġjess":10443,"Ġviv":10444,"oph":10445,"Ġbored":10446,"assed":10447,"Ġblushing":10448,"Ġadj":10449,"Ġmargin":10450,"Ġpreacher":10451,"Ġmississ":10452,"Ġmole":10453,"Ġsatin":10454,"Ġconfounded":10455,"Ġinterven":10456,"Ġdepri":10457,"Ġcoroner":10458,"Ġjelly":10459,"Ġsalute":10460,"Ġstudio":10461,"Ġportions":10462,"Ġverily":10463,"annie":10464,"Ġstrokes":10465,"Ġsympathetic":10466,"Ġcrowns":10467,"Ġdesigned":10468,"Ġdoris":10469,"Ġneighbouring":10470,"cerity":10471,"Ġvigil":10472,"Ġrabb":10473,"Ġpreceded":10474,"Ġconcerns":10475,"Ġornaments":10476,"Ġtonight":10477,"adok":10478,"Ġinterpretation":10479,"Ġeccentric":10480,"Ġhenrietta":10481,"Ġtransferred":10482,"Ġvizier":10483,"Ġintolerable":10484,"Ġrostov":10485,"ca":10486,"Ġtas":10487,"Ġaus":10488,"Ġwi":10489,"Ġhue":10490,"Ġbacon":10491,"anning":10492,"Ġhermit":10493,"thel":10494,"thened":10495,"Ġintox":10496,"Ġflint":10497,"Ġresigned":10498,"Ġcradle":10499,"Ġhappiest":10500,"Ġarmor":10501,"ggy":10502,"Ġwarrant":10503,"Ġuntr":10504,"Ġfireplace":10505,"Ġfifteenth":10506,"Ġwallace":10507,"Ġbathed":10508,"Ġexamples":10509,"Ġfrock":10510,"Ġoccurrence":10511,"Ġrainbow":10512,"Ġpacket":10513,"Ġrejoicing":10514,"Ġaudible":10515,"Ġrepresentatives":10516,"Ġhenceforth":10517,"Ġnodding":10518,"Ġnaples":10519,"Ġrustling":10520,"Ġscraps":10521,"Ġillustration":10522,"Ġreflecting":10523,"Ġblaze":10524,"Ġneatly":10525,"Ġefficient":10526,"Ġathos":10527,"Ġshawl":10528,"Ġsuperintendent":10529,"Ġexalted":10530,"margaret":10531,"ele":10532,"ras":10533,"Ġbounded":10534,"icular":10535,"Ġnotary":10536,"Ġshift":10537,"rod":10538,"Ġfry":10539,"ppy":10540,"ulent":10541,"qual":10542,"Ġvass":10543,"istics":10544,"Ġleve":10545,"eled":10546,"inea":10547,"Ġmarcella":10548,"Ġwhereby":10549,"Ġslipping":10550,"Ġcarn":10551,"Ġopens":10552,"Ġinstruction":10553,"Ġworldly":10554,"Ġsubord":10555,"Ġexpensive":10556,"Ġmaz":10557,"Ġhardy":10558,"Ġelevation":10559,"Ġcircuit":10560,"Ġdifferently":10561,"Ġstriving":10562,"Ġescaping":10563,"Ġfailing":10564,"Ġthorpe":10565,"Ġlanguages":10566,"Ġmodesty":10567,"Ġgait":10568,"Ġobstacle":10569,"Ġaustral":10570,"Ġlingering":10571,"Ġrejected":10572,"Ġmournful":10573,"Ġbessy":10574,"Ġdaddy":10575,"Ġelephant":10576,"Ġkettle":10577,"Ġmississippi":10578,"dling":10579,"inald":10580,"ato":10581,"ithe":10582,"acinth":10583,"Ġseeds":10584,"Ġdean":10585,"Ġfrail":10586,"Ġweren":10587,"agne":10588,"Ġdisreg":10589,"Ġfoam":10590,"Ġspeck":10591,"Ġcrue":10592,"sole":10593,"ometer":10594,"Ġendowed":10595,"Ġguar":10596,"Ġstepping":10597,"Ġinspiration":10598,"ieties":10599,"Ġmorals":10600,"henka":10601,"Ġquestioning":10602,"Ġmistakes":10603,"Ġdevour":10604,"Ġforgiven":10605,"Ġrequested":10606,"Ġpossessions":10607,"Ġledge":10608,"Ġshades":10609,"Ġauthors":10610,"Ġwithered":10611,"Ġbreadth":10612,"Ġpassionately":10613,"Ġjuliet":10614,"Ġpitched":10615,"Ġhonestly":10616,"Ġbleeding":10617,"Ġoxen":10618,"Ġcontempor":10619,"Ġquantities":10620,"Ġvegetable":10621,"Ġhistorical":10622,"Ġenchant":10623,"Ġsleeves":10624,"Ġbriskly":10625,"Ġceremonies":10626,"Ġindefinite":10627,"Ġscandal":10628,"Ġuproar":10629,"four":10630,"lain":10631,"mah":10632,"Ġbery":10633,"enched":10634,"Ġdul":10635,"Ġnig":10636,"idious":10637,"Ġreef":10638,"Ġreaches":10639,"Ġfork":10640,"Ġkil":10641,"illes":10642,"Ġfrowned":10643,"Ġlizzie":10644,"Ġconverted":10645,"Ġmanly":10646,"Ġplunder":10647,"Ġsped":10648,"Ġdidst":10649,"Ġadel":10650,"Ġletty":10651,"Ġshallow":10652,"Ġdistract":10653,"Ġdelayed":10654,"Ġforemost":10655,"amped":10656,"Ġpersonage":10657,"Ġpolish":10658,"Ġsuffrage":10659,"ficial":10660,"Ġjeh":10661,"Ġapproval":10662,"Ġwinning":10663,"Ġcrab":10664,"Ġturf":10665,"Ġacquaintances":10666,"Ġvenice":10667,"Ġruby":10668,"Ġsplendor":10669,"Ġlodgings":10670,"Ġdesperately":10671,"Ġalexey":10672,"Ġhawk":10673,"Ġplunge":10674,"Ġexertion":10675,"Ġvegetables":10676,"Ġchuckled":10677,"Ġchampion":10678,"Ġtreachery":10679,"Ġbuttons":10680,"Ġambassador":10681,"Ġhoofs":10682,"Ġgabriel":10683,"Ġvehicle":10684,"Ġcondescend":10685,"Ġperceval":10686,"fin":10687,"fig":10688,"van":10689,"Ġbin":10690,"Ġmord":10691,"ingle":10692,"Ġdow":10693,"Ġpest":10694,"Ġpaw":10695,"Ġlink":10696,"leby":10697,"Ġrecl":10698,"Ġasyl":10699,"child":10700,"kered":10701,"ushenka":10702,"ardier":10703,"Ġjaw":10704,"Ġunnatural":10705,"Ġhob":10706,"Ġcrush":10707,"Ġswed":10708,"Ġsurvey":10709,"Ġhelm":10710,"ials":10711,"Ġcolonies":10712,"Ġrefusal":10713,"Ġlawyers":10714,"Ġvisions":10715,"Ġpatent":10716,"ocation":10717,"Ġrug":10718,"Ġdiscon":10719,"Ġgovernments":10720,"Ġrichly":10721,"Ġbrighter":10722,"Ġpainfully":10723,"Ġsuccessfully":10724,"Ġaccordance":10725,"Ġhalls":10726,"Ġluke":10727,"Ġfrighten":10728,"verend":10729,"Ġrapidity":10730,"ursday":10731,"Ġattacks":10732,"Ġfoliage":10733,"Ġcommunicated":10734,"Ġdiscussing":10735,"Ġunfold":10736,"Ġdebts":10737,"Ġendeavored":10738,"Ġsheltered":10739,"Ġradiance":10740,"Ġgrimly":10741,"Ġlynde":10742,"Ġfemales":10743,"Ġillustrious":10744,"Ġgestures":10745,"Ġintensely":10746,"Ġdrama":10747,"Ġattentive":10748,"Ġcaroline":10749,"Ġirritated":10750,"Ġrebellion":10751,"Ġpeoples":10752,"Ġeverlasting":10753,"half":10754,"pre":10755,"rice":10756,"took":10757,"tical":10758,"inently":10759,"Ġbast":10760,"Ġbowing":10761,"escri":10762,"Ġeb":10763,"Ġwhipped":10764,"Ġreared":10765,"Ġriv":10766,"Ġweb":10767,"Ġstamm":10768,"Ġsage":10769,"think":10770,"Ġcontend":10771,"Ġcongreg":10772,"Ġchival":10773,"Ġexasper":10774,"Ġfel":10775,"unci":10776,"Ġknit":10777,"ounding":10778,"olis":10779,"Ġpeak":10780,"Ġpeaks":10781,"fton":10782,"Ġeman":10783,"Ġwrinkled":10784,"Ġindisc":10785,"Ġrepet":10786,"Ġmonop":10787,"Ġmonkeys":10788,"Ġhomeward":10789,"Ġcurve":10790,"Ġsuffice":10791,"ocity":10792,"Ġobserver":10793,"Ġfloat":10794,"Ġterrific":10795,"Ġchiefs":10796,"Ġseventeenth":10797,"Ġdamned":10798,"Ġstrode":10799,"Ġnobleman":10800,"Ġastonishing":10801,"Ġpeculiarly":10802,"Ġpitiful":10803,"Ġreveal":10804,"Ġcyl":10805,"Ġsources":10806,"Ġcautious":10807,"Ġcorresponding":10808,"Ġdisturbance":10809,"Ġmarvelous":10810,"Ġcontinuing":10811,"Ġinsects":10812,"Ġslopes":10813,"Ġtilney":10814,"Ġpulp":10815,"dam":10816,"main":10817,"much":10818,"Ġtac":10819,"inor":10820,"Ġtheod":10821,"Ġsly":10822,"Ġhug":10823,"Ġcoss":10824,"Ġfu":10825,"Ġfou":10826,"Ġtoken":10827,"Ġgaw":10828,"Ġascent":10829,"Ġank":10830,"Ġanth":10831,"Ġdemean":10832,"Ġdove":10833,"Ġnoises":10834,"Ġnoisy":10835,"Ġnostri":10836,"rap":10837,"raged":10838,"Ġlew":10839,"Ġbrushed":10840,"Ġclaw":10841,"Ġclapped":10842,"Ġusur":10843,"Ġoverboard":10844,"dear":10845,"Ġschem":10846,"Ġcrisp":10847,"ensation":10848,"bella":10849,"Ġrelating":10850,"Ġhumph":10851,"Ġrefrain":10852,"Ġrounded":10853,"Ġdiscreet":10854,"Ġbrightness":10855,"Ġsmoked":10856,"Ġoccasioned":10857,"Ġthickness":10858,"Ġsorrowful":10859,"Ġstrolled":10860,"Ġvainly":10861,"Ġpitcher":10862,"Ġholmes":10863,"Ġessentially":10864,"ynpl":10865,"Ġrattle":10866,"Ġarabella":10867,"Ġvicinity":10868,"Ġlacking":10869,"Ġemerald":10870,"Ġscrap":10871,"Ġivory":10872,"Ġfilm":10873,"Ġribbon":10874,"Ġscholar":10875,"Ġhazard":10876,"Ġspinning":10877,"Ġresolutely":10878,"Ġgnaw":10879,"Ġcigarette":10880,"Ġcarpenter":10881,"Ġtrunks":10882,"Ġnostrils":10883,"pa":10884,"inc":10885,"Ġsi":10886,"Ġsill":10887,"requ":10888,"Ġcured":10889,"Ġpuss":10890,"Ġthursday":10891,"Ġinfect":10892,"Ġbellow":10893,"Ġego":10894,"Ġyan":10895,"Ġwhar":10896,"Ġreverse":10897,"Ġstumbled":10898,"Ġherald":10899,"Ġselling":10900,"Ġsally":10901,"Ġfrantic":10902,"Ġvices":10903,"Ġorle":10904,"Ġmanhood":10905,"astrop":10906,"Ġleop":10907,"Ġunim":10908,"Ġunsu":10909,"Ġclar":10910,"ops":10911,"Ġgrotes":10912,"Ġcommod":10913,"Ġkneeling":10914,"Ġrefusing":10915,"Ġgreed":10916,"Ġgrab":10917,"Ġgraves":10918,"Ġartists":10919,"Ġsecre":10920,"Ġchronic":10921,"Ġfootman":10922,"aware":10923,"Ġpasture":10924,"Ġdevils":10925,"cribe":10926,"Ġapology":10927,"Ġcourtiers":10928,"Ġbabe":10929,"Ġsouthward":10930,"Ġhyacinth":10931,"Ġevils":10932,"Ġpetty":10933,"Ġwisely":10934,"Ġsettling":10935,"Ġmalice":10936,"Ġurge":10937,"Ġamazing":10938,"Ġdesigns":10939,"Ġpositions":10940,"Ġspending":10941,"Ġhinder":10942,"Ġdefended":10943,"Ġcasual":10944,"Ġtroublesome":10945,"Ġprosperous":10946,"Ġstooping":10947,"castle":10948,"Ġexcessive":10949,"Ġotter":10950,"Ġdoubled":10951,"Ġafflicted":10952,"Ġmonoton":10953,"Ġsanta":10954,"Ġplacid":10955,"Ġpyram":10956,"ynplaine":10957,"bra":10958,"eight":10959,"either":10960,"fet":10961,"gia":10962,"iors":10963,"jah":10964,"sure":10965,"Ġtang":10966,"Ġsciences":10967,"Ġbaff":10968,"Ġbaked":10969,"Ġicy":10970,"Ġpont":10971,"Ġlance":10972,"Ġlime":10973,"Ġgid":10974,"always":10975,"Ġdoings":10976,"ferences":10977,"Ġplent":10978,"Ġproves":10979,"Ġcanad":10980,"rying":10981,"Ġcoax":10982,"answered":10983,"Ġyea":10984,"Ġyell":10985,"anchet":10986,"Ġjoint":10987,"Ġindist":10988,"Ġchariot":10989,"Ġpurity":10990,"Ġincidents":10991,"Ġdarkened":10992,"Ġparas":10993,"Ġtrivial":10994,"Ġartillery":10995,"Ġcatastrop":10996,"Ġsecondly":10997,"Ġstripped":10998,"Ġmotions":10999,"Ġforthwith":11000,"Ġdiscovering":11001,"Ġalien":11002,"Ġregretted":11003,"Ġundertaken":11004,"Ġsubsist":11005,"Ġwhistling":11006,"Ġsentimental":11007,"Ġfidelity":11008,"Ġefficiency":11009,"Ġsacrifices":11010,"Ġtranquil":11011,"Ġpeeped":11012,"Ġhenriette":11013,"Ġdazzling":11014,"Ġannoyance":11015,"Ġinvalid":11016,"Ġtribute":11017,"Ġinsignific":11018,"Ġwiggily":11019,"bably":11020,"gom":11021,"gil":11022,"great":11023,"gency":11024,"mons":11025,"mont":11026,"tic":11027,"Ġtiss":11028,"Ġtents":11029,"Ġsits":11030,"atics":11031,"Ġlag":11032,"Ġlark":11033,"Ġgap":11034,"oming":11035,"Ġbeam":11036,"Ġelf":11037,"icide":11038,"Ġwhites":11039,"stra":11040,"Ġsewing":11041,"Ġsaul":11042,"Ġframed":11043,"Ġallison":11044,"quar":11045,"Ġvind":11046,"Ġalb":11047,"Ġplaint":11048,"Ġboards":11049,"Ġpeering":11050,"icking":11051,"Ġcarav":11052,"Ġconsumed":11053,"Ġindescri":11054,"Ġreporter":11055,"Ġsworn":11056,"Ġelbows":11057,"Ġmonument":11058,"Ġhorace":11059,"Ġsixteenth":11060,"Ġairship":11061,"Ġparaly":11062,"Ġmilan":11063,"Ġdecay":11064,"Ġbesie":11065,"Ġmounting":11066,"hence":11067,"Ġspray":11068,"bray":11069,"Ġgrandeur":11070,"Ġfails":11071,"Ġcompliments":11072,"Ġmiracles":11073,"Ġyoke":11074,"Ġendeavor":11075,"Ġstuffed":11076,"Ġindignantly":11077,"Ġcherry":11078,"Ġexhibit":11079,"glas":11080,"Ġofficials":11081,"Ġvexation":11082,"Ġattributed":11083,"Ġsombre":11084,"Ġbarbarous":11085,"Ġtube":11086,"Ġtranquill":11087,"Ġcomplaints":11088,"Ġborrowed":11089,"Ġspecimens":11090,"Ġalighted":11091,"Ġconfronted":11092,"Ġbarricade":11093,"Ġscoundrel":11094,"Ġberyl":11095,"Ġorleans":11096,"cut":11097,"frey":11098,"iac":11099,"mat":11100,"point":11101,"sen":11102,"west":11103,"Ġbumble":11104,"Ġditch":11105,"Ġdata":11106,"adays":11107,"Ġseizing":11108,"Ġshivered":11109,"Ġsaunders":11110,"iless":11111,"Ġvow":11112,"ements":11113,"apart":11114,"Ġcanal":11115,"areth":11116,"Ġadequ":11117,"Ġperched":11118,"Ġglist":11119,"Ġslack":11120,"Ġrests":11121,"Ġhumbly":11122,"Ġairs":11123,"Ġrecovery":11124,"Ġdevout":11125,"lson":11126,"Ġcommonplace":11127,"Ġjoyful":11128,"Ġdenis":11129,"Ġrapt":11130,"Ġcabb":11131,"Ġinfluences":11132,"ooner":11133,"Ġphilosoph":11134,"Ġyielding":11135,"Ġhomer":11136,"Ġconquest":11137,"Ġrelationship":11138,"Ġobstinate":11139,"Ġpursuing":11140,"Ġscreaming":11141,"Ġlogical":11142,"nevertheless":11143,"Ġunlucky":11144,"Ġscenery":11145,"Ġswayed":11146,"ihil":11147,"Ġducks":11148,"Ġdecorated":11149,"Ġconcentrated":11150,"Ġconventional":11151,"Ġblossoms":11152,"Ġenergetic":11153,"Ġoyster":11154,"Ġannouncement":11155,"Ġsquirrel":11156,"Ġelaborate":11157,"Ġjonathan":11158,"Ġecclesiast":11159,"Ġcruelly":11160,"gomery":11161,"dler":11162,"lig":11163,"lorn":11164,"mel":11165,"ran":11166,"uation":11167,"Ġtan":11168,"Ġwires":11169,"Ġojo":11170,"Ġbump":11171,"Ġcau":11172,"Ġfiction":11173,"inges":11174,"Ġbeams":11175,"ctic":11176,"thought":11177,"Ġunanim":11178,"Ġdisaster":11179,"cile":11180,"whatever":11181,"Ġglided":11182,"Ġimposing":11183,"Ġsupple":11184,"Ġpersian":11185,"Ġwaver":11186,"sses":11187,"Ġassented":11188,"Ġdarker":11189,"Ġtries":11190,"Ġdepressed":11191,"Ġunderstands":11192,"Ġdisappoint":11193,"Ġtransformed":11194,"aska":11195,"Ġlabors":11196,"Ġsends":11197,"Ġlegitimate":11198,"Ġnecklace":11199,"Ġfunctions":11200,"picious":11201,"Ġobligation":11202,"Ġflatter":11203,"Ġsubstitute":11204,"Ġtravels":11205,"Ġglee":11206,"Ġexceeding":11207,"Ġprospects":11208,"Ġexhibition":11209,"Ġappreciation":11210,"Ġwinged":11211,"Ġpistols":11212,"Ġpenetrated":11213,"Ġparsley":11214,"Ġfluttering":11215,"Ġwithdraw":11216,"Ġrepentance":11217,"Ġautomob":11218,"Ġrevelation":11219,"Ġstubborn":11220,"occup":11221,"Ġprolonged":11222,"Ġfertile":11223,"Ġproverb":11224,"Ġhypothesis":11225,"dney":11226,"houn":11227,"Ġts":11228,"Ġtons":11229,"Ġsession":11230,"Ġbount":11231,"Ġdies":11232,"Ġheaped":11233,"llie":11234,"Ġhack":11235,"otic":11236,"Ġreins":11237,"Ġstab":11238,"Ġgoal":11239,"Ġgrushenka":11240,"Ġflick":11241,"Ġpreach":11242,"Ġlighting":11243,"Ġrepaired":11244,"Ġcaps":11245,"Ġhumili":11246,"Ġterrace":11247,"Ġedwin":11248,"Ġsnar":11249,"Ġsnakes":11250,"Ġmerrily":11251,"Ġdevote":11252,"Ġeffected":11253,"Ġrespecting":11254,"Ġtyp":11255,"Ġsands":11256,"Ġstarved":11257,"Ġprevail":11258,"Ġintending":11259,"combe":11260,"Ġscrub":11261,"Ġscratched":11262,"Ġcupboard":11263,"Ġearnestness":11264,"Ġshroud":11265,"Ġinventor":11266,"Ġhinted":11267,"Ġresembling":11268,"Ġsarc":11269,"Ġdrifting":11270,"Ġrevolutionary":11271,"Ġdeliberate":11272,"Ġbunny":11273,"Ġdischarged":11274,"Ġunmist":11275,"Ġultimate":11276,"Ġpledge":11277,"Ġprelim":11278,"Ġextravagant":11279,"thorpe":11280,"Ġbuffalo":11281,"ufficient":11282,"Ġgrotesque":11283,"making":11284,"turned":11285,"vo":11286,"Ġaj":11287,"Ġmum":11288,"Ġcask":11289,"Ġpines":11290,"Ġpiles":11291,"Ġlonel":11292,"lection":11293,"Ġejac":11294,"utable":11295,"stretched":11296,"Ġstalk":11297,"Ġanon":11298,"Ġkins":11299,"Ġsuits":11300,"roy":11301,"Ġabide":11302,"Ġspaces":11303,"Ġnowadays":11304,"Ġflaming":11305,"actor":11306,"Ġremn":11307,"Ġslide":11308,"forward":11309,"Ġreprodu":11310,"Ġsatan":11311,"ainted":11312,"Ġappealed":11313,"Ġgotten":11314,"Ġinfall":11315,"Ġrealised":11316,"Ġmists":11317,"Ġsalary":11318,"Ġmajestic":11319,"Ġcreed":11320,"Ġoccurs":11321,"Ġfaltered":11322,"Ġfurnace":11323,"Ġdamon":11324,"Ġhabitual":11325,"Ġperiods":11326,"Ġmalign":11327,"Ġorganized":11328,"Ġinstincts":11329,"Ġcontracted":11330,"Ġblocks":11331,"Ġcoolly":11332,"Ġdisciples":11333,"Ġperplexed":11334,"Ġproclaimed":11335,"Ġsacrificed":11336,"Ġmexico":11337,"Ġresignation":11338,"Ġoysters":11339,"Ġreceipt":11340,"Ġnoiseless":11341,"Ġdisliked":11342,"five":11343,"Ġties":11344,"Ġtab":11345,"Ġtheories":11346,"Ġwiz":11347,"Ġwither":11348,"Ġgaining":11349,"Ġsof":11350,"Ġaloft":11351,"Ġtheme":11352,"Ġensued":11353,"urning":11354,"Ġadap":11355,"actions":11356,"Ġfoes":11357,"cling":11358,"forced":11359,"next":11360,"Ġloveliness":11361,"Ġcharlie":11362,"Ġclearer":11363,"Ġhorrors":11364,"Ġminer":11365,"ocks":11366,"uthbert":11367,"Ġparcel":11368,"Ġpatches":11369,"Ġhonesty":11370,"Ġillusion":11371,"Ġcuts":11372,"Ġestimate":11373,"Ġseverity":11374,"Ġjudging":11375,"Ġrushes":11376,"Ġrussell":11377,"Ġdealt":11378,"Ġnorthward":11379,"Ġconclusions":11380,"Ġfainted":11381,"Ġbanner":11382,"Ġurgent":11383,"Ġsincerity":11384,"Ġalarming":11385,"Ġpillars":11386,"Ġplato":11387,"Ġnervously":11388,"Ġawait":11389,"Ġwhistled":11390,"Ġdeceased":11391,"Ġribbons":11392,"Ġprivileges":11393,"Ġreconc":11394,"Ġconfidential":11395,"Ġwithdrawn":11396,"Ġloyalty":11397,"Ġimprisoned":11398,"Ġgwynplaine":11399,"Ġvigorously":11400,"Ġbeaver":11401,"Ġinsensible":11402,"Ġsmelling":11403,"Ġindispens":11404,"Ġextingu":11405,"Ġtacit":11406,"ew":11407,"eers":11408,"taking":11409,"Ġtay":11410,"Ġbard":11411,"Ġmow":11412,"isons":11413,"isms":11414,"especially":11415,"Ġlore":11416,"Ġlump":11417,"Ġbever":11418,"almost":11419,"Ġrhe":11420,"Ġstan":11421,"kee":11422,"Ġvile":11423,"Ġexile":11424,"aston":11425,"Ġgoats":11426,"Ġarisen":11427,"Ġthenardier":11428,"Ġcla":11429,"Ġclare":11430,"ishly":11431,"ishness":11432,"Ġperceptible":11433,"Ġyelled":11434,"Ġcrom":11435,"Ġseemingly":11436,"Ġmatches":11437,"Ġending":11438,"Ġswo":11439,"Ġhelmet":11440,"Ġdelir":11441,"Ġgrapes":11442,"Ġinfirm":11443,"Ġcontinuous":11444,"Ġsignor":11445,"Ġbiggest":11446,"Ġpalaces":11447,"Ġdestination":11448,"Ġdetest":11449,"Ġattempting":11450,"Ġgarret":11451,"Ġpetition":11452,"Ġmelod":11453,"Ġpiercing":11454,"Ġdissatisf":11455,"bbles":11456,"Ġmechanically":11457,"Ġdemocracy":11458,"Ġfascinating":11459,"Ġprejudices":11460,"Ġmarianne":11461,"Ġsummons":11462,"Ġmoisture":11463,"Ġaristocratic":11464,"Ġavailable":11465,"Ġspecimen":11466,"Ġmoust":11467,"captain":11468,"Ġtipt":11469,"Ġdouglas":11470,"Ġsecrecy":11471,"bu":11472,"cill":11473,"die":11474,"dens":11475,"kash":11476,"upp":11477,"yle":11478,"Ġwider":11479,"Ġolym":11480,"Ġbure":11481,"Ġpam":11482,"Ġpite":11483,"Ġlain":11484,"Ġlones":11485,"leaving":11486,"lysses":11487,"Ġulysses":11488,"Ġrim":11489,"Ġrats":11490,"amations":11491,"Ġsequ":11492,"Ġshabby":11493,"thank":11494,"Ġchalk":11495,"Ġjem":11496,"Ġjup":11497,"Ġalph":11498,"Ġwhatsoever":11499,"Ġplaster":11500,"Ġafar":11501,"Ġbricks":11502,"Ġcanada":11503,"Ġclue":11504,"Ġcrick":11505,"anche":11506,"Ġcomposure":11507,"Ġheadlong":11508,"Ġimpass":11509,"Ġpreservation":11510,"Ġjoys":11511,"Ġelinor":11512,"Ġregained":11513,"Ġlatch":11514,"Ġharri":11515,"Ġcoral":11516,"Ġcausing":11517,"Ġmuslin":11518,"Ġobjections":11519,"Ġexpressive":11520,"Ġsweetest":11521,"Ġdefar":11522,"Ġpublicly":11523,"Ġcrev":11524,"Ġpostp":11525,"Ġsnowy":11526,"Ġgermans":11527,"Ġkisses":11528,"Ġrepeatedly":11529,"Ġgratification":11530,"asmuch":11531,"Ġepis":11532,"Ġfragrant":11533,"Ġuneasily":11534,"Ġindulge":11535,"Ġmontgomery":11536,"Ġodious":11537,"Ġobscurity":11538,"Ġtaxes":11539,"Ġmissionary":11540,"Ġproducts":11541,"Ġlava":11542,"Ġinvoluntary":11543,"Ġcrouched":11544,"Ġresemble":11545,"Ġprecaution":11546,"Ġwholesome":11547,"Ġdefinition":11548,"Ġremoving":11549,"Ġigno":11550,"tom":11551,"Ġtough":11552,"Ġbang":11553,"Ġbully":11554,"Ġblend":11555,"Ġmason":11556,"Ġcale":11557,"isle":11558,"Ġpane":11559,"Ġgord":11560,"Ġbef":11561,"Ġonion":11562,"Ġreverend":11563,"eties":11564,"Ġforlorn":11565,"urbed":11566,"Ġshah":11567,"riend":11568,"Ġconference":11569,"Ġjur":11570,"Ġvamp":11571,"Ġtherewith":11572,"rable":11573,"Ġintrig":11574,"Ġunique":11575,"umsy":11576,"Ġafresh":11577,"asses":11578,"Ġhandled":11579,"Ġpoll":11580,"Ġstrand":11581,"ixed":11582,"new":11583,"Ġcharmed":11584,"Ġactors":11585,"Ġelph":11586,"Ġpossibilities":11587,"Ġfores":11588,"Ġparag":11589,"Ġcontinues":11590,"Ġdifferences":11591,"Ġexpectations":11592,"Ġmediter":11593,"parable":11594,"Ġproceeds":11595,"Ġpickwick":11596,"Ġdisgusted":11597,"Ġsplendour":11598,"Ġexecutive":11599,"Ġconstituted":11600,"Ġshrink":11601,"Ġwickedness":11602,"Ġberth":11603,"Ġrosal":11604,"piring":11605,"Ġshrieked":11606,"Ġmuddy":11607,"Ġrusty":11608,"Ġinstructed":11609,"Ġachieved":11610,"Ġchannels":11611,"Ġtimidly":11612,"Ġwhirling":11613,"Ġotto":11614,"Ġclutched":11615,"Ġskeleton":11616,"Ġbehavior":11617,"Ġdisappearance":11618,"Ġprecautions":11619,"Ġshirley":11620,"Ġdaresay":11621,"Ġwhirled":11622,"Ġcourteous":11623,"Ġdivorce":11624,"rehensible":11625,"Ġdiscouraged":11626,"Ġasylum":11627,"Ġschemes":11628,"Ġmediterranean":11629,"found":11630,"hard":11631,"iots":11632,"mitting":11633,"pie":11634,"pence":11635,"piece":11636,"wixt":11637,"Ġsled":11638,"Ġfath":11639,"athed":11640,"Ġnib":11641,"Ġrece":11642,"Ġron":11643,"Ġstables":11644,"Ġherds":11645,"Ġdefic":11646,"Ġchich":11647,"thest":11648,"Ġuna":11649,"Ġcanst":11650,"Ġclumsy":11651,"Ġcovers":11652,"Ġteresa":11653,"ountable":11654,"Ġpartially":11655,"Ġremov":11656,"Ġsermon":11657,"Ġworkman":11658,"Ġcharley":11659,"Ġinsin":11660,"Ġbeauties":11661,"Ġincor":11662,"Ġskies":11663,"Ġproportions":11664,"Ġcountrymen":11665,"Ġsydney":11666,"Ġcalhoun":11667,"Ġsquad":11668,"Ġequipped":11669,"Ġsaloon":11670,"Ġpossesses":11671,"Ġexcepting":11672,"Ġsweetly":11673,"Ġdaisy":11674,"Ġbaba":11675,"Ġaccepting":11676,"Ġcomplac":11677,"Ġvanqu":11678,"Ġbanished":11679,"Ġhamlet":11680,"Ġdestroying":11681,"Ġheathen":11682,"Ġpinch":11683,"Ġassociations":11684,"Ġclubs":11685,"Ġplantation":11686,"Ġghosts":11687,"Ġindulged":11688,"Ġnovelty":11689,"Ġerrors":11690,"Ġvegetation":11691,"Ġfluttered":11692,"Ġinsolent":11693,"Ġabbey":11694,"Ġsemi":11695,"Ġproprietor":11696,"Ġmuffled":11697,"Ġsubsequent":11698,"Ġearthquake":11699,"Ġmonotonous":11700,"Ġindispensable":11701,"Ġjupiter":11702,"bal":11703,"ga":11704,"Ġtam":11705,"Ġmack":11706,"Ġmused":11707,"Ġcable":11708,"Ġcripp":11709,"isation":11710,"Ġpaws":11711,"Ġgit":11712,"Ġgan":11713,"iliation":11714,"thm":11715,"Ġvin":11716,"Ġvotes":11717,"ousing":11718,"raw":11719,"Ġbrun":11720,"Ġboffin":11721,"Ġblake":11722,"Ġdaybreak":11723,"Ġflanders":11724,"Ġperished":11725,"Ġthrice":11726,"Ġpartners":11727,"Ġcompart":11728,"Ġcarbon":11729,"Ġlasting":11730,"Ġassail":11731,"Ġohio":11732,"Ġinterference":11733,"Ġtraps":11734,"Ġlesser":11735,"Ġalongside":11736,"Ġdepression":11737,"Ġsonya":11738,"Ġsprinkle":11739,"Ġschooner":11740,"Ġcaptains":11741,"Ġimaginary":11742,"Ġshaded":11743,"Ġsuperb":11744,"Ġlucian":11745,"Ġfirmness":11746,"Ġblessings":11747,"Ġemptied":11748,"Ġbalin":11749,"Ġinterruption":11750,"Ġolive":11751,"Ġberries":11752,"flies":11753,"Ġkenn":11754,"Ġwheeled":11755,"Ġrewarded":11756,"Ġbreeches":11757,"Ġpretending":11758,"Ġcarolina":11759,"Ġticket":11760,"Ġinevitably":11761,"Ġravine":11762,"Ġperfume":11763,"Ġshilling":11764,"Ġskirts":11765,"Ġsketch":11766,"Ġconjecture":11767,"Ġsynony":11768,"according":11769,"Ġscrambled":11770,"Ġinheritance":11771,"Ġmonastery":11772,"Ġcanadian":11773,"bishop":11774,"cony":11775,"dal":11776,"dem":11777,"gus":11778,"mark":11779,"oor":11780,"rates":11781,"zo":11782,"zan":11783,"Ġmig":11784,"Ġmung":11785,"Ġfult":11786,"oning":11787,"Ġdat":11788,"Ġpitt":11789,"Ġnought":11790,"Ġnaval":11791,"Ġgill":11792,"Ġrede":11793,"Ġriot":11794,"Ġstem":11795,"Ġshorter":11796,"Ġallusion":11797,"Ġchant":11798,"pecial":11799,"Ġunin":11800,"Ġarc":11801,"Ġquoted":11802,"Ġtwelf":11803,"Ġclown":11804,"Ġcode":11805,"berg":11806,"berries":11807,"Ġemig":11808,"Ġattire":11809,"Ġmatrim":11810,"ceded":11811,"Ġsubur":11812,"Ġcheering":11813,"Ġbuying":11814,"shire":11815,"Ġinfancy":11816,"Ġcompanies":11817,"Ġsignature":11818,"Ġconstitu":11819,"Ġsights":11820,"Ġcaliph":11821,"Ġdiscord":11822,"Ġhairs":11823,"Ġfinely":11824,"Ġpenit":11825,"Ġdeclaring":11826,"Ġenglishmen":11827,"Ġsuccessive":11828,"Ġlennox":11829,"Ġmemorable":11830,"Ġpractise":11831,"Ġwatchful":11832,"Ġattendance":11833,"Ġmirac":11834,"Ġmutton":11835,"Ġutterance":11836,"Ġbalcony":11837,"Ġwilliams":11838,"Ġfranklin":11839,"Ġgleamed":11840,"Ġtelegram":11841,"Ġwagons":11842,"Ġoaks":11843,"Ġfeebly":11844,"Ġpoisoned":11845,"Ġascending":11846,"Ġconsisting":11847,"Ġjenny":11848,"Ġsustain":11849,"Ġswaying":11850,"Ġtunnel":11851,"Ġvictoria":11852,"Ġreluctantly":11853,"Ġmarshal":11854,"Ġprodigious":11855,"Ġcalamity":11856,"Ġisolated":11857,"Ġexcursion":11858,"Ġluminous":11859,"Ġmagazine":11860,"Ġbryce":11861,"Ġadela":11862,"Ġlewis":11863,"Ġloneliness":11864,"Ġcromwell":11865,"Ġdefarge":11866,"Ġtwelfth":11867,"bus":11868,"ns":11869,"pat":11870,"ties":11871,"Ġcert":11872,"Ġpy":11873,"Ġgir":11874,"alm":11875,"Ġasia":11876,"Ġrotten":11877,"acies":11878,"Ġsue":11879,"alls":11880,"Ġlivel":11881,"Ġlifet":11882,"Ġmanor":11883,"unction":11884,"Ġknives":11885,"Ġabomin":11886,"Ġplanchet":11887,"Ġcanoes":11888,"Ġcanyon":11889,"Ġblot":11890,"pty":11891,"Ġpepp":11892,"Ġprete":11893,"Ġpreference":11894,"Ġglaring":11895,"Ġcrut":11896,"Ġsubmission":11897,"Ġgiants":11898,"Ġtreason":11899,"Ġtermed":11900,"Ġideals":11901,"Ġoppression":11902,"Ġcreator":11903,"Ġchurchyard":11904,"Ġstrife":11905,"Ġjoyfully":11906,"Ġduly":11907,"Ġverge":11908,"Ġrevived":11909,"Ġrecognise":11910,"Ġpunch":11911,"Ġphysi":11912,"doctor":11913,"Ġstruggles":11914,"Ġrubber":11915,"Ġmainly":11916,"Ġgratified":11917,"Ġpacking":11918,"Ġtito":11919,"Ġhorribly":11920,"Ġaimed":11921,"Ġbishops":11922,"Ġodor":11923,"Ġobedient":11924,"Ġfrancisco":11925,"Ġcultivation":11926,"Ġexecutioner":11927,"Ġattributes":11928,"writing":11929,"Ġrobbery":11930,"Ġimprisonment":11931,"Ġrandom":11932,"between":11933,"Ġfairest":11934,"Ġcelest":11935,"Ġprostrate":11936,"Ġantiquity":11937,"Ġvarying":11938,"Ġrepetition":11939,"Ġtranquillity":11940,"Ġlifetime":11941,"dis":11942,"lit":11943,"oir":11944,"rations":11945,"walk":11946,"Ġtrop":11947,"Ġtips":11948,"Ġaz":11949,"Ġsno":11950,"Ġhire":11951,"Ġbaking":11952,"Ġhey":11953,"Ġgould":11954,"Ġbelly":11955,"uther":11956,"Ġraz":11957,"Ġshady":11958,"Ġjug":11959,"fellow":11960,"Ġoutstretched":11961,"Ġabhor":11962,"Ġmischie":11963,"Ġplank":11964,"aux":11965,"Ġbooth":11966,"Ġimplied":11967,"Ġoverheard":11968,"Ġflank":11969,"Ġhowl":11970,"Ġwatches":11971,"Ġcarth":11972,"Ġimpost":11973,"Ġhomely":11974,"Ġsilvery":11975,"Ġinsane":11976,"Ġtraversed":11977,"Ġdrain":11978,"Ġbucc":11979,"Ġbarber":11980,"Ġdecisive":11981,"Ġfortress":11982,"Ġmush":11983,"Ġcircus":11984,"Ġparticles":11985,"Ġsupernatural":11986,"Ġvictorious":11987,"Ġsucceeding":11988,"Ġpotent":11989,"Ġsanction":11990,"Ġconstitute":11991,"Ġbasil":11992,"Ġcompanionship":11993,"Ġtraveler":11994,"Ġlogic":11995,"Ġtraditions":11996,"Ġphysicians":11997,"Ġgrasping":11998,"Ġwritings":11999,"Ġruddy":12000,"Ġwhirlwind":12001,"Ġgrinned":12002,"Ġcontradiction":12003,"Ġperilous":12004,"Ġdiminished":12005,"Ġmexican":12006,"Ġdistributed":12007,"Ġreceives":12008,"Ġsuperstition":12009,"Ġslippers":12010,"Ġadversary":12011,"Ġrequisite":12012,"Ġungrate":12013,"Ġbanners":12014,"Ġstammered":12015,"bish":12016,"dale":12017,"gory":12018,"laid":12019,"none":12020,"sim":12021,"sil":12022,"Ġaversion":12023,"ouched":12024,"Ġion":12025,"Ġcuthbert":12026,"Ġfib":12027,"attering":12028,"Ġtoilet":12029,"Ġdanc":12030,"Ġpork":12031,"ito":12032,"Ġreeds":12033,"Ġrak":12034,"Ġstain":12035,"Ġmeets":12036,"Ġsuicide":12037,"throw":12038,"quite":12039,"Ġarcher":12040,"Ġspont":12041,"Ġscales":12042,"Ġcrus":12043,"igneur":12044,"Ġworker":12045,"venth":12046,"Ġmaur":12047,"issy":12048,"Ġinterrog":12049,"Ġedition":12050,"Ġhonors":12051,"Ġmerits":12052,"Ġhurst":12053,"Ġtruths":12054,"Ġveter":12055,"Ġdelights":12056,"Ġangles":12057,"Ġpayment":12058,"Ġthickly":12059,"ugged":12060,"Ġfrogs":12061,"Ġcosts":12062,"Ġeastward":12063,"burst":12064,"Ġmartian":12065,"Ġsenior":12066,"Ġexpedient":12067,"Ġrestrained":12068,"Ġprompted":12069,"Ġnovels":12070,"Ġhorizont":12071,"Ġpenetrate":12072,"Ġingenuity":12073,"Ġflocks":12074,"Ġtreacherous":12075,"Ġdrug":12076,"Ġvalet":12077,"Ġgirdle":12078,"Ġsimultaneously":12079,"Ġfulton":12080,"gave":12081,"lishing":12082,"Ġcem":12083,"encer":12084,"Ġethel":12085,"Ġyach":12086,"Ġrebel":12087,"Ġforbear":12088,"Ġstages":12089,"Ġanew":12090,"chin":12091,"Ġalle":12092,"Ġchil":12093,"Ġlegged":12094,"ittens":12095,"Ġquer":12096,"Ġovercoat":12097,"Ġhandy":12098,"Ġperv":12099,"Ġpell":12100,"Ġoffensive":12101,"whilst":12102,"Ġspears":12103,"Ġconscient":12104,"Ġserves":12105,"Ġsupposition":12106,"Ġrelics":12107,"Ġsteed":12108,"Ġbedside":12109,"Ġreasonably":12110,"Ġeleventh":12111,"Ġrecru":12112,"Ġstatements":12113,"Ġdripping":12114,"Ġrecovering":12115,"Ġannihil":12116,"Ġdraws":12117,"Ġtransform":12118,"Ġgracefully":12119,"Ġobliv":12120,"Ġgroom":12121,"Ġpopul":12122,"Ġtraveled":12123,"Ġargued":12124,"Ġrevolt":12125,"Ġgratify":12126,"Ġrulers":12127,"Ġlodged":12128,"Ġcoolness":12129,"Ġentertaining":12130,"Ġrosa":12131,"Ġpaula":12132,"Ġbaronet":12133,"Ġconsulting":12134,"Ġphrases":12135,"Ġechoes":12136,"Ġsingularly":12137,"Ġelectricity":12138,"Ġfascinated":12139,"Ġmagistrates":12140,"Ġdispleasure":12141,"Ġrhythm":12142,"Ġenveloped":12143,"Ġeyelids":12144,"Ġfrenzy":12145,"Ġsturdy":12146,"Ġrestaurant":12147,"Ġindistinct":12148,"Ġtaylor":12149,"Ġswollen":12150,"kashka":12151,"Ġcemeter":12152,"lan":12153,"tieth":12154,"inged":12155,"itching":12156,"arm":12157,"arth":12158,"anter":12159,"Ġnathan":12160,"Ġonions":12161,"Ġonto":12162,"Ġracing":12163,"Ġweeds":12164,"Ġherod":12165,"Ġalley":12166,"Ġunav":12167,"abet":12168,"Ġhandling":12169,"Ġmoor":12170,"Ġslice":12171,"Ġeminence":12172,"Ġguid":12173,"Ġelapsed":12174,"Ġgodfrey":12175,"Ġassuming":12176,"Ġskim":12177,"Ġtraitor":12178,"Ġlandlady":12179,"Ġmorland":12180,"Ġburton":12181,"Ġwales":12182,"Ġpretence":12183,"Ġbadger":12184,"Ġdevoured":12185,"Ġvalued":12186,"Ġfavoured":12187,"Ġviewed":12188,"Ġdenom":12189,"Ġsuggestions":12190,"supp":12191,"Ġeventually":12192,"Ġturret":12193,"Ġbanquet":12194,"Ġbaggage":12195,"sett":12196,"Ġdebate":12197,"Ġsupporting":12198,"Ġchestnut":12199,"Ġsexes":12200,"Ġphronsie":12201,"Ġidentical":12202,"Ġsparks":12203,"Ġcooper":12204,"Ġinspection":12205,"Ġentreated":12206,"Ġdusky":12207,"Ġselfishness":12208,"Ġflutter":12209,"Ġencouraging":12210,"Ġspeculation":12211,"Ġconfederate":12212,"Ġaccurate":12213,"Ġilluminated":12214,"Ġcomprehension":12215,"Ġecstasy":12216,"Ġcolumbia":12217,"Ġdiscomfort":12218,"Ġwreath":12219,"Ġcatastrophe":12220,"Ġchichikov":12221,"Ġbuccane":12222,"lu":12223,"ocious":12224,"yne":12225,"Ġopt":12226,"Ġbout":12227,"erp":12228,"Ġfen":12229,"Ġfists":12230,"Ġpou":12231,"Ġhagg":12232,"owered":12233,"seigneur":12234,"Ġstress":12235,"Ġnemo":12236,"Ġnoah":12237,"Ġwillow":12238,"Ġprick":12239,"Ġscal":12240,"Ġsciss":12241,"Ġglowed":12242,"achuse":12243,"Ġcrude":12244,"Ġpassenger":12245,"Ġjoining":12246,"Ġlastly":12247,"Ġmature":12248,"Ġmatilda":12249,"Ġfarms":12250,"Ġsteer":12251,"Ġgreedy":12252,"Ġairy":12253,"prom":12254,"Ġtenn":12255,"Ġrugg":12256,"Ġdevices":12257,"Ġexclusively":12258,"ovah":12259,"Ġannual":12260,"Ġstrive":12261,"Ġstriped":12262,"Ġrocking":12263,"hammed":12264,"Ġproduces":12265,"Ġtopic":12266,"Ġconsec":12267,"Ġviolin":12268,"Ġantip":12269,"Ġflattered":12270,"Ġblinded":12271,"Ġcontrolled":12272,"Ġarchbishop":12273,"Ġferocious":12274,"Ġwidth":12275,"Ġuniversally":12276,"Ġsteadfast":12277,"Ġbeware":12278,"Ġthompson":12279,"Ġtapped":12280,"Ġflorent":12281,"Ġfishermen":12282,"Ġperpetually":12283,"Ġeloquent":12284,"Ġcushions":12285,"Ġlilies":12286,"Ġmagnetic":12287,"question":12288,"Ġphantom":12289,"Ġarbitr":12290,"Ġfinancial":12291,"Ġadapted":12292,"achuset":12293,"him":12294,"iences":12295,"mering":12296,"run":12297,"wich":12298,"Ġaching":12299,"Ġsized":12300,"Ġbail":12301,"Ġbower":12302,"Ġbrew":12303,"Ġbaza":12304,"Ġbicy":12305,"Ġcot":12306,"atures":12307,"Ġnasty":12308,"Ġgor":12309,"Ġgore":12310,"Ġgren":12311,"Ġwearily":12312,"Ġante":12313,"Ġanalog":12314,"Ġshifted":12315,"ilion":12316,"oreal":12317,"Ġfrances":12318,"Ġalleg":12319,"Ġfeud":12320,"Ġknitting":12321,"Ġplung":12322,"Ġprogram":12323,"Ġtwin":12324,"Ġclump":12325,"Ġteasp":12326,"Ġado":12327,"Ġresisted":12328,"Ġcarroll":12329,"Ġbelg":12330,"Ġloveliest":12331,"Ġrestoration":12332,"Ġhardened":12333,"Ġconfinement":12334,"Ġhumiliation":12335,"Ġbarry":12336,"Ġblackness":12337,"Ġlawrence":12338,"Ġinfam":12339,"Ġmilit":12340,"Ġtrials":12341,"Ġinviting":12342,"Ġspirited":12343,"Ġstepmother":12344,"Ġworthless":12345,"ricate":12346,"Ġdetained":12347,"Ġrobinson":12348,"Ġlugg":12349,"Ġprivately":12350,"Ġundo":12351,"mitri":12352,"Ġchoking":12353,"Ġsubstit":12354,"Ġmortals":12355,"Ġspeedy":12356,"Ġcontrovers":12357,"Ġferry":12358,"moreover":12359,"Ġdiameter":12360,"Ġaccidental":12361,"Ġbucket":12362,"Ġassuredly":12363,"Ġclerks":12364,"Ġrichest":12365,"Ġwarden":12366,"Ġridicule":12367,"Ġmantel":12368,"Ġdisguised":12369,"Ġproclaim":12370,"Ġalternative":12371,"Ġhazel":12372,"Ġbrooding":12373,"Ġcontriv":12374,"Ġimpulses":12375,"Ġopponent":12376,"Ġvoluntary":12377,"Ġverdict":12378,"Ġpenalty":12379,"hurst":12380,"Ġsulphur":12381,"Ġphillips":12382,"Ġguarant":12383,"Ġjehovah":12384,"Ġinsignificant":12385,"Ġindescribable":12386,"Ġharriet":12387,"Ġpopulace":12388,"achusetts":12389,"hound":12390,"hol":12391,"iard":12392,"lier":12393,"pole":12394,"tow":12395,"Ġther":12396,"Ġsate":12397,"Ġscept":12398,"Ġwipe":12399,"Ġbaker":12400,"Ġmaud":12401,"oux":12402,"Ġll":12403,"arked":12404,"Ġgul":12405,"Ġgasp":12406,"Ġbeet":12407,"Ġbeech":12408,"Ġstam":12409,"Ġshuff":12410,"Ġthereafter":12411,"oso":12412,"oughby":12413,"ignt":12414,"Ġprose":12415,"Ġtwinkling":12416,"Ġoverh":12417,"Ġscow":12418,"Ġscour":12419,"Ġbetwixt":12420,"cloth":12421,"Ġdesol":12422,"Ġresume":12423,"Ġearle":12424,"Ġindication":12425,"Ġcharges":12426,"Ġsurveyed":12427,"Ġvoid":12428,"note":12429,"Ġphineas":12430,"oubled":12431,"Ġhumility":12432,"Ġforef":12433,"Ġtraffic":12434,"Ġfactories":12435,"Ġhonored":12436,"Ġranch":12437,"Ġvaliant":12438,"Ġprovoked":12439,"Ġforwards":12440,"Ġsuperfl":12441,"Ġposted":12442,"Ġprofessed":12443,"Ġundist":12444,"Ġanti":12445,"Ġweaker":12446,"Ġstreaming":12447,"Ġboarding":12448,"Ġloung":12449,"Ġmales":12450,"Ġmelody":12451,"Ġsuffe":12452,"cerf":12453,"Ġingred":12454,"Ġdawned":12455,"Ġobstacles":12456,"Ġsmoothly":12457,"Ġcurrents":12458,"Ġbridges":12459,"Ġmechanism":12460,"Ġovertook":12461,"Ġconductor":12462,"Ġattentions":12463,"Ġcontributed":12464,"Ġcompetition":12465,"Ġgalloped":12466,"Ġblossom":12467,"Ġunbro":12468,"Ġdocument":12469,"Ġtedious":12470,"Ġhauled":12471,"Ġevolution":12472,"Ġscrutin":12473,"Ġoblige":12474,"Ġjavert":12475,"sylvania":12476,"Ġrabbits":12477,"Ġextinguished":12478,"Ġlonesome":12479,"Ġluggage":12480,"bble":12481,"bie":12482,"bted":12483,"cun":12484,"fax":12485,"too":12486,"wright":12487,"inals":12488,"Ġwailing":12489,"Ġomin":12490,"onne":12491,"Ġtoy":12492,"Ġding":12493,"Ġhered":12494,"Ġnile":12495,"Ġgut":12496,"Ġhailed":12497,"Ġeames":12498,"imo":12499,"alas":12500,"acre":12501,"Ġbuttered":12502,"ighted":12503,"Ġworms":12504,"Ġtruck":12505,"Ġprices":12506,"Ġgrated":12507,"Ġbland":12508,"Ġimpelled":12509,"Ġflask":12510,"Ġpew":12511,"Ġmohammed":12512,"Ġcruc":12513,"Ġenters":12514,"Ġentry":12515,"Ġbreach":12516,"oubles":12517,"Ġindebted":12518,"Ġfinn":12519,"Ġhopeful":12520,"Ġespecial":12521,"Ġmorcerf":12522,"Ġsecuring":12523,"Ġmuscle":12524,"Ġquicker":12525,"Ġexcused":12526,"Ġsighted":12527,"Ġsubjected":12528,"Ġgladness":12529,"Ġparticip":12530,"Ġdestru":12531,"umbered":12532,"Ġacquies":12533,"Ġlabours":12534,"Ġdenial":12535,"Ġshutting":12536,"Ġstarving":12537,"Ġoperate":12538,"Ġoperator":12539,"Ġallowance":12540,"Ġscratch":12541,"Ġpackard":12542,"Ġcros":12543,"Ġdismounted":12544,"Ġhateful":12545,"Ġcorrected":12546,"Ġprojected":12547,"Ġtrod":12548,"Ġprofoundly":12549,"Ġsovereignt":12550,"Ġleapt":12551,"Ġroutine":12552,"Ġrescued":12553,"Ġtremulous":12554,"Ġmerciful":12555,"Ġunreasonable":12556,"Ġbreeding":12557,"Ġultimately":12558,"Ġdemonstration":12559,"Ġaffliction":12560,"Ġchopin":12561,"Ġexplosion":12562,"presently":12563,"Ġchickens":12564,"Ġfreckles":12565,"Ġdisconc":12566,"Ġfouquet":12567,"Ġwaverley":12568,"Ġbureau":12569,"Ġalphabet":12570,"Ġremoval":12571,"Ġscissors":12572,"iating":12573,"make":12574,"nets":12575,"norm":12576,"piers":12577,"say":12578,"vard":12579,"Ġtut":12580,"Ġtess":12581,"Ġtame":12582,"Ġtel":12583,"Ġhipp":12584,"Ġbass":12585,"Ġbomb":12586,"Ġfried":12587,"Ġpots":12588,"anth":12589,"Ġnie":12590,"Ġeu":12591,"Ġrely":12592,"Ġrouse":12593,"Ġroubles":12594,"Ġwears":12595,"Ġathens":12596,"Ġkitten":12597,"champ":12598,"Ġjet":12599,"Ġvines":12600,"Ġcomte":12601,"Ġwilloughby":12602,"apse":12603,"Ġspider":12604,"Ġspencer":12605,"Ġquivered":12606,"Ġbrink":12607,"Ġbroth":12608,"Ġclou":12609,"Ġgrub":12610,"Ġblamed":12611,"Ġcoals":12612,"Ġstray":12613,"Ġhopped":12614,"Ġfrivol":12615,"Ġindirect":12616,"bey":12617,"Ġengines":12618,"Ġcurly":12619,"Ġbarred":12620,"Ġblacksmith":12621,"within":12622,"Ġgentleness":12623,"Ġmagdal":12624,"Ġexcuses":12625,"Ġfooting":12626,"Ġveiled":12627,"Ġaccounted":12628,"Ġdestitute":12629,"Ġbravery":12630,"Ġduel":12631,"Ġwisest":12632,"Ġjourne":12633,"Ġembarked":12634,"Ġstarlight":12635,"Ġblindly":12636,"Ġcustomer":12637,"Ġimproper":12638,"Ġcommunion":12639,"Ġtestament":12640,"Ġepoch":12641,"Ġsighing":12642,"Ġcyrus":12643,"Ġmagnificence":12644,"Ġappreciated":12645,"Ġfulfill":12646,"Ġafrican":12647,"Ġpersistent":12648,"Ġinherited":12649,"Ġdominion":12650,"Ġdistribution":12651,"Ġaristocracy":12652,"Ġbeckoned":12653,"Ġrattled":12654,"Ġscottish":12655,"Ġchaos":12656,"Ġprophecy":12657,"Ġexhaustion":12658,"Ġqueens":12659,"Ġfoster":12660,"Ġorphan":12661,"Ġgilded":12662,"Ġauspicious":12663,"quarters":12664,"Ġolymp":12665,"Ġcelestial":12666,"Ġunbroken":12667,"mate":12668,"sat":12669,"Ġtires":12670,"Ġtangled":12671,"Ġwines":12672,"erby":12673,"Ġches":12674,"Ġdipped":12675,"orph":12676,"Ġlull":12677,"arath":12678,"Ġinland":12679,"Ġecl":12680,"Ġramp":12681,"Ġweird":12682,"Ġstunned":12683,"Ġherbs":12684,"Ġselection":12685,"rigg":12686,"Ġnelson":12687,"Ġdol":12688,"quiet":12689,"Ġalmah":12690,"ustra":12691,"Ġspurs":12692,"Ġammun":12693,"Ġpeac":12694,"ords":12695,"Ġmissy":12696,"Ġsliding":12697,"Ġcrushing":12698,"ipsy":12699,"Ġdistracted":12700,"told":12701,"Ġgenie":12702,"Ġmonseigneur":12703,"boat":12704,"Ġblacks":12705,"Ġreduce":12706,"Ġsnapping":12707,"Ġdeput":12708,"Ġhonoured":12709,"Ġfearfully":12710,"Ġnecessities":12711,"Ġforgiveness":12712,"Ġbrazil":12713,"Ġterrier":12714,"Ġdispersed":12715,"Ġpausing":12716,"Ġdrinks":12717,"suing":12718,"Ġsandford":12719,"Ġdelicately":12720,"Ġoneself":12721,"Ġstrove":12722,"Ġstationed":12723,"Ġdespairing":12724,"Ġjersey":12725,"Ġfragment":12726,"Ġlyd":12727,"Ġconstitutional":12728,"Ġtroy":12729,"Ġdeceit":12730,"Ġadministered":12731,"Ġblooming":12732,"Ġpenetrating":12733,"Ġjarvis":12734,"Ġdeliverance":12735,"Ġdoctrines":12736,"Ġfestival":12737,"Ġinsect":12738,"Ġbustle":12739,"Ġdispleased":12740,"meanwhile":12741,"Ġpremises":12742,"Ġawakening":12743,"Ġstrengthened":12744,"Ġdrooping":12745,"Ġnickleby":12746,"Ġchoosing":12747,"interested":12748,"Ġparrot":12749,"Ġneutral":12750,"Ġreconciled":12751,"Ġrheum":12752,"Ġparagraph":12753,"arathustra":12754,"Ġammunition":12755,"fit":12756,"groom":12757,"nish":12758,"rather":12759,"uating":12760,"Ġtutor":12761,"Ġcust":12762,"Ġtoys":12763,"Ġdmitri":12764,"Ġthwart":12765,"Ġheather":12766,"Ġheark":12767,"ano":12768,"Ġnu":12769,"utuz":12770,"Ġstony":12771,"Ġko":12772,"Ġfritz":12773,"Ġliz":12774,"Ġchart":12775,"geons":12776,"Ġorth":12777,"Ġnoblest":12778,"Ġmane":12779,"Ġwouldst":12780,"Ġunself":12781,"Ġarises":12782,"Ġcling":12783,"Ġclark":12784,"Ġgraces":12785,"Ġbohem":12786,"Ġcogn":12787,"Ġadored":12788,"Ġhowling":12789,"Ġpeers":12790,"erton":12791,"Ġobe":12792,"Ġmenace":12793,"Ġcrater":12794,"Ġindo":12795,"Ġendurance":12796,"Ġactivities":12797,"Ġwarfare":12798,"Ġsilken":12799,"Ġdelusion":12800,"Ġconfided":12801,"Ġcheval":12802,"Ġbug":12803,"Ġpatted":12804,"Ġpathetic":12805,"Ġswelling":12806,"Ġburgl":12807,"Ġorderly":12808,"Ġstrap":12809,"Ġbathing":12810,"Ġsquat":12811,"Ġheavier":12812,"Ġhens":12813,"ova":12814,"Ġcharacteristics":12815,"Ġdrawers":12816,"Ġquarrels":12817,"Ġbrake":12818,"Ġlukashka":12819,"Ġrapture":12820,"Ġburns":12821,"Ġacceptance":12822,"Ġfixing":12823,"Ġgarb":12824,"Ġsickly":12825,"Ġcandy":12826,"Ġcleaned":12827,"Ġheroine":12828,"Ġkingdoms":12829,"Ġinjure":12830,"Ġthreats":12831,"Ġdwellings":12832,"Ġenviron":12833,"Ġobstru":12834,"Ġcathol":12835,"Ġwhiteness":12836,"Ġmocking":12837,"Ġjunior":12838,"Ġgrieve":12839,"Ġenclosure":12840,"Ġrattling":12841,"Ġpennsylvania":12842,"Ġoppressive":12843,"Ġchemical":12844,"Ġhudson":12845,"Ġsaxon":12846,"Ġapprehended":12847,"Ġalexandrovitch":12848,"Ġeugen":12849,"Ġpettico":12850,"Ġworshipped":12851,"Ġlorry":12852,"Ġanthony":12853,"Ġvincent":12854,"Ġmushroom":12855,"Ġungrateful":12856,"Ġcloudy":12857,"utuzov":12858,"cies":12859,"gies":12860,"sw":12861,"vir":12862,"hement":12863,"Ġborders":12864,"Ġfile":12865,"atches":12866,"ener":12867,"Ġpau":12868,"Ġhet":12869,"Ġlass":12870,"Ġgull":12871,"Ġbeads":12872,"Ġstations":12873,"Ġanat":12874,"Ġdepl":12875,"Ġconcess":12876,"raz":12877,"rapher":12878,"Ġunce":12879,"Ġabnorm":12880,"Ġspun":12881,"Ġbroo":12882,"Ġgrains":12883,"Ġusage":12884,"Ġpeck":12885,"Ġsmashed":12886,"Ġpreaching":12887,"Ġstrat":12888,"ected":12889,"Ġheadquarters":12890,"Ġmonton":12891,"Ġengaging":12892,"Ġharding":12893,"Ġcheered":12894,"Ġfuller":12895,"odox":12896,"Ġswelled":12897,"Ġburial":12898,"Ġirony":12899,"Ġstrewn":12900,"Ġforts":12901,"ogue":12902,"Ġjewell":12903,"Ġjudic":12904,"Ġvehement":12905,"grad":12906,"Ġmilly":12907,"Ġaffecting":12908,"Ġcomforts":12909,"Ġwitches":12910,"Ġshutters":12911,"chell":12912,"Ġbenches":12913,"Ġiceland":12914,"Ġmartial":12915,"Ġdisturbing":12916,"Ġbulls":12917,"Ġaccidentally":12918,"Ġemotional":12919,"Ġsparkled":12920,"Ġbarking":12921,"Ġlouisa":12922,"Ġsorely":12923,"Ġreckoning":12924,"Ġraymond":12925,"Ġmockery":12926,"Ġosborne":12927,"Ġmonarchy":12928,"Ġproclamation":12929,"Ġlustre":12930,"Ġcowardly":12931,"Ġcongratulate":12932,"Ġwicker":12933,"Ġmichel":12934,"Ġcandidate":12935,"Ġwhims":12936,"Ġshivering":12937,"Ġelevated":12938,"Ġsterling":12939,"Ġimprud":12940,"Ġgertrude":12941,"Ġcemetery":12942,"Ġdestructive":12943,"Ġsovereignty":12944,"Ġmontoni":12945,"grow":12946,"lud":12947,"onder":12948,"six":12949,"vy":12950,"ym":12951,"Ġtire":12952,"Ġau":12953,"Ġtheater":12954,"Ġhound":12955,"eded":12956,"Ġdances":12957,"Ġpia":12958,"Ġni":12959,"Ġgum":12960,"oma":12961,"Ġeun":12962,"Ġum":12963,"adig":12964,"Ġker":12965,"rob":12966,"Ġchoc":12967,"Ġvon":12968,"Ġvas":12969,"raved":12970,"akov":12971,"Ġtrotted":12972,"Ġspacious":12973,"Ġgram":12974,"Ġboar":12975,"Ġcob":12976,"Ġoverlooked":12977,"Ġprecept":12978,"airy":12979,"cock":12980,"Ġcarter":12981,"Ġlifeless":12982,"Ġpresby":12983,"Ġindies":12984,"Ġdistances":12985,"Ġrepay":12986,"Ġswine":12987,"Ġrelent":12988,"Ġchees":12989,"Ġterry":12990,"Ġreads":12991,"Ġcoloss":12992,"Ġmetrop":12993,"Ġlawful":12994,"Ġinvested":12995,"Ġraff":12996,"Ġsprinkled":12997,"Ġpalms":12998,"Ġstored":12999,"Ġcastles":13000,"Ġtranscend":13001,"Ġordinarily":13002,"Ġriders":13003,"Ġdespond":13004,"Ġtalbot":13005,"Ġhopkins":13006,"Ġimpossibility":13007,"zza":13008,"Ġstarve":13009,"Ġsituations":13010,"Ġrubbish":13011,"Ġbutterflies":13012,"Ġraging":13013,"Ġdiscoveries":13014,"Ġrepresenting":13015,"Ġbaskets":13016,"Ġtended":13017,"Ġundertook":13018,"Ġempress":13019,"Ġarabs":13020,"Ġstupidity":13021,"Ġhabitu":13022,"Ġbridegroom":13023,"Ġhello":13024,"Ġricher":13025,"Ġthrilling":13026,"Ġnursing":13027,"Ġnurses":13028,"Ġchatter":13029,"Ġprecipice":13030,"Ġresource":13031,"Ġtrumpets":13032,"Ġstuart":13033,"Ġreinforce":13034,"Ġdocuments":13035,"Ġtortured":13036,"Ġgrinding":13037,"Ġmerrick":13038,"Ġrefreshment":13039,"Ġbefallen":13040,"Ġobstinacy":13041,"Ġturkish":13042,"spring":13043,"Ġdeprive":13044,"aparte":13045,"Ġautomobile":13046,"Ġpeppino":13047,"Ġmaurice":13048,"Ġguidance":13049,"erer":13050,"jor":13051,"jan":13052,"oot":13053,"Ġbah":13054,"Ġmak":13055,"Ġtok":13056,"Ġps":13057,"oric":13058,"Ġgipsy":13059,"Ġyon":13060,"Ġasp":13061,"Ġstature":13062,"Ġanci":13063,"Ġkite":13064,"Ġshifting":13065,"cting":13066,"Ġfraud":13067,"Ġchanning":13068,"Ġvrain":13069,"Ġalma":13070,"lford":13071,"Ġlect":13072,"emper":13073,"Ġabilities":13074,"ifice":13075,"Ġplucked":13076,"Ġtru":13077,"aug":13078,"wend":13079,"Ġadieu":13080,"iousness":13081,"Ġscaff":13082,"Ġundergo":13083,"Ġglittered":13084,"Ġmold":13085,"Ġmolly":13086,"Ġcarb":13087,"avia":13088,"Ġmatron":13089,"Ġnatures":13090,"sels":13091,"owering":13092,"Ġwaz":13093,"rett":13094,"Ġsubter":13095,"Ġwarmed":13096,"Ġboyhood":13097,"Ġregiments":13098,"Ġhardest":13099,"Ġcheery":13100,"Ġterrors":13101,"Ġtrav":13102,"Ġfactor":13103,"Ġpresenting":13104,"Ġmorris":13105,"Ġcork":13106,"Ġinvasion":13107,"Ġcells":13108,"brick":13109,"Ġutility":13110,"Ġfavored":13111,"Ġbrazen":13112,"Ġdispose":13113,"Ġjoyce":13114,"Ġpictured":13115,"Ġwrongs":13116,"Ġarranging":13117,"Ġerrant":13118,"Ġmassachusetts":13119,"Ġzarathustra":13120,"Ġgateway":13121,"Ġimpressive":13122,"Ġcustomers":13123,"minster":13124,"Ġtitles":13125,"Ġjerked":13126,"Ġassociates":13127,"Ġvigour":13128,"Ġjewish":13129,"Ġfolding":13130,"Ġlitter":13131,"umberland":13132,"Ġaustria":13133,"Ġcrawling":13134,"Ġribs":13135,"Ġreplies":13136,"Ġinexpress":13137,"Ġconsistent":13138,"Ġrufford":13139,"ndyke":13140,"Ġirritation":13141,"Ġascertained":13142,"jacent":13143,"Ġexaggerated":13144,"Ġinconvenience":13145,"Ġslippery":13146,"Ġstifled":13147,"Ġrighteousness":13148,"Ġscanty":13149,"Ġagriculture":13150,"Ġmultiplied":13151,"Ġfabric":13152,"Ġhannah":13153,"Ġcompromise":13154,"Ġsentinel":13155,"Ġdisregard":13156,"Ġfelix":13157,"Ġecclesiastical":13158,"Ġcatholics":13159,"Ġscaffold":13160,"cas":13161,"hall":13162,"rick":13163,"sa":13164,"sc":13165,"sus":13166,"incl":13167,"nda":13168,"Ġbool":13169,"Ġfres":13170,"Ġfared":13171,"Ġtoe":13172,"Ġtoll":13173,"Ġdashing":13174,"Ġpuls":13175,"aroo":13176,"Ġnik":13177,"Ġgems":13178,"Ġbeak":13179,"Ġbeans":13180,"icane":13181,"seemed":13182,"iders":13183,"Ġforb":13184,"Ġrains":13185,"Ġrites":13186,"Ġkay":13187,"ositions":13188,"Ġamory":13189,"Ġamph":13190,"Ġclasping":13191,"Ġloan":13192,"Ġseeks":13193,"Ġpartition":13194,"Ġremed":13195,"Ġslices":13196,"Ġaccidents":13197,"dys":13198,"Ġdistorted":13199,"ictions":13200,"Ġrepast":13201,"Ġswoon":13202,"began":13203,"Ġphase":13204,"Ġfourteenth":13205,"ibal":13206,"Ġneedles":13207,"Ġinfernal":13208,"Ġadmon":13209,"Ġpolar":13210,"Ġcaterp":13211,"Ġconstern":13212,"Ġtenant":13213,"Ġpalp":13214,"Ġsocieties":13215,"Ġmurray":13216,"Ġvein":13217,"ugal":13218,"Ġsuccessor":13219,"Ġfrontier":13220,"Ġmouthful":13221,"Ġresulted":13222,"Ġinclinations":13223,"archy":13224,"Ġgrowl":13225,"erville":13226,"Ġdescript":13227,"Ġoriental":13228,"Ġlocality":13229,"Ġexcellence":13230,"Ġvenet":13231,"Ġblindness":13232,"Ġspeechless":13233,"Ġunfit":13234,"Ġmascul":13235,"Ġimperative":13236,"papa":13237,"Ġassociate":13238,"Ġinquiring":13239,"Ġexplanations":13240,"Ġmoods":13241,"Ġprimary":13242,"Ġgowns":13243,"Ġdeliberation":13244,"Ġleisurely":13245,"Ġconcealment":13246,"Ġrifles":13247,"Ġfountains":13248,"Ġcontribute":13249,"Ġmaximilian":13250,"Ġpsychology":13251,"itzer":13252,"Ġreluctance":13253,"Ġprovincial":13254,"rupulous":13255,"Ġvinegar":13256,"Ġrenders":13257,"stein":13258,"Ġrefreshed":13259,"Ġadvertisement":13260,"finally":13261,"Ġbazaar":13262,"Ġhetty":13263,"Ġcaterpill":13264,"Ġconsternation":13265,"cop":13266,"rum":13267,"vable":13268,"Ġvern":13269,"Ġtumbling":13270,"ini":13271,"Ġwink":13272,"Ġmace":13273,"isance":13274,"Ġpion":13275,"Ġheres":13276,"Ġlind":13277,"lem":13278,"Ġeury":13279,"sex":13280,"Ġrowed":13281,"Ġraced":13282,"Ġkang":13283,"Ġsooth":13284,"rolled":13285,"Ġconsole":13286,"Ġupl":13287,"Ġvoted":13288,"rah":13289,"Ġcomedy":13290,"abilities":13291,"Ġflown":13292,"Ġflann":13293,"Ġpecun":13294,"Ġslugg":13295,"Ġfoundations":13296,"Ġperspiration":13297,"Ġgenial":13298,"Ġguiche":13299,"Ġappealing":13300,"Ġassign":13301,"nobody":13302,"Ġfewer":13303,"Ġdraper":13304,"Ġcurved":13305,"Ġbusily":13306,"Ġpromote":13307,"Ġbeset":13308,"ographer":13309,"Ġfearless":13310,"meas":13311,"Ġprofitable":13312,"Ġexclusion":13313,"Ġrespective":13314,"ounge":13315,"Ġfasten":13316,"Ġavar":13317,"Ġencir":13318,"Ġdescribing":13319,"Ġinfluenced":13320,"zzy":13321,"Ġzadig":13322,"Ġmodes":13323,"ciless":13324,"Ġexecute":13325,"Ġthreaten":13326,"Ġfamiliarity":13327,"Ġbullets":13328,"Ġunhappiness":13329,"Ġexcitedly":13330,"Ġbeliefs":13331,"Ġaugustus":13332,"Ġinvolve":13333,"Ġenthusiast":13334,"Ġtarget":13335,"Ġtarzan":13336,"Ġwindsor":13337,"Ġivy":13338,"Ġrevenue":13339,"Ġtrifles":13340,"bourg":13341,"Ġovertake":13342,"follow":13343,"Ġcontemplated":13344,"Ġdefinitely":13345,"Ġlegislation":13346,"Ġfowls":13347,"Ġbinding":13348,"Ġinsolence":13349,"Ġcushion":13350,"Ġbenevolent":13351,"Ġexpenditure":13352,"Ġenlightened":13353,"Ġkarl":13354,"Ġinconsist":13355,"Ġtechnical":13356,"Ġmetaphys":13357,"Ġpansy":13358,"Ġdynam":13359,"Ġaustralia":13360,"Ġpussy":13361,"Ġtypical":13362,"Ġmoustache":13363,"Ġreceiver":13364,"Ġkenneth":13365,"ooroo":13366,"Ġhaggard":13367,"Ġmagdalen":13368,"Ġchevalier":13369,"Ġchocolate":13370,"Ġboolooroo":13371,"Ġkangaroo":13372,"craft":13373,"full":13374,"hal":13375,"sues":13376,"tis":13377,"xion":13378,"Ġodys":13379,"Ġbates":13380,"Ġbiting":13381,"Ġcav":13382,"Ġpim":13383,"Ġpiety":13384,"ani":13385,"Ġbeaming":13386,"othered":13387,"aye":13388,"Ġanita":13389,"Ġkl":13390,"chr":13391,"Ġchased":13392,"Ġorche":13393,"Ġmann":13394,"Ġlever":13395,"Ġunhe":13396,"Ġroy":13397,"Ġquot":13398,"Ġimitate":13399,"Ġcoins":13400,"Ġtex":13401,"Ġadjacent":13402,"Ġhandwriting":13403,"Ġpersever":13404,"Ġpeeping":13405,"Ġappare":13406,"ickers":13407,"coq":13408,"Ġcaring":13409,"Ġconsumm":13410,"Ġserf":13411,"near":13412,"mann":13413,"Ġache":13414,"Ġgenji":13415,"Ġengross":13416,"Ġpropag":13417,"Ġadvances":13418,"Ġfinishing":13419,"Ġbese":13420,"Ġburdens":13421,"Ġschoo":13422,"Ġapert":13423,"Ġhatter":13424,"Ġdivinity":13425,"Ġinflict":13426,"Ġdenzil":13427,"Ġinclude":13428,"Ġnecks":13429,"Ġmagnitude":13430,"Ġlowering":13431,"Ġcommunities":13432,"Ġjerk":13433,"Ġsolemnity":13434,"Ġdiary":13435,"Ġvirgil":13436,"Ġsighs":13437,"Ġflourish":13438,"Ġdigest":13439,"Ġrustle":13440,"Ġprede":13441,"Ġodour":13442,"Ġunlocked":13443,"Ġcambridge":13444,"Ġabsurdity":13445,"Ġtheatrical":13446,"Ġtossing":13447,"Ġcavalc":13448,"Ġfunds":13449,"Ġtolerably":13450,"Ġoverwhelming":13451,"against":13452,"Ġconqueror":13453,"Ġadjusted":13454,"Ġnavigation":13455,"Ġbenevolence":13456,"Ġassassin":13457,"Ġounce":13458,"Ġincessantly":13459,"Ġaccusation":13460,"Ġbeauchamp":13461,"Ġhardships":13462,"Ġincomprehensible":13463,"Ġequipment":13464,"Ġpreliminary":13465,"Ġwizard":13466,"Ġepisode":13467,"Ġabominable":13468,"Ġpretext":13469,"Ġindoors":13470,"fr":13471,"folk":13472,"jim":13473,"maker":13474,"poss":13475,"spe":13476,"Ġtat":13477,"Ġtides":13478,"Ġtumble":13479,"Ġsara":13480,"enne":13481,"ingley":13482,"Ġduc":13483,"Ġpension":13484,"itory":13485,"Ġlaced":13486,"Ġlounge":13487,"Ġgiles":13488,"stru":13489,"Ġrector":13490,"Ġranged":13491,"Ġstacy":13492,"ammed":13493,"Ġkutuzov":13494,"Ġshines":13495,"Ġsoaked":13496,"Ġalfred":13497,"osh":13498,"Ġunrest":13499,"Ġarising":13500,"Ġtrains":13501,"Ġspied":13502,"Ġamiss":13503,"Ġenact":13504,"Ġenraged":13505,"Ġgrade":13506,"Ġpebbles":13507,"Ġsmothered":13508,"Ġstraining":13509,"Ġscam":13510,"Ġscented":13511,"Ġcamel":13512,"Ġfoll":13513,"claimed":13514,"Ġjoking":13515,"Ġpleading":13516,"Ġskilled":13517,"Ġlarry":13518,"Ġrealise":13519,"Ġsignals":13520,"Ġilleg":13521,"Ġcirculation":13522,"Ġsums":13523,"Ġprofits":13524,"Ġvalor":13525,"Ġcrosses":13526,"Ġpossessing":13527,"Ġsolve":13528,"Ġgeography":13529,"Ġthorndyke":13530,"Ġtreating":13531,"Ġposterity":13532,"Ġjourneys":13533,"Ġsacr":13534,"ologist":13535,"Ġbenj":13536,"Ġrepresents":13537,"Ġprevailing":13538,"Ġmotioned":13539,"Ġpraises":13540,"Ġmoderation":13541,"Ġmorton":13542,"knowing":13543,"Ġgradual":13544,"Ġmurmuring":13545,"Ġpike":13546,"Ġcordially":13547,"Ġmystic":13548,"Ġcopies":13549,"Ġrecollected":13550,"Ġkenw":13551,"Ġcontemptuous":13552,"Ġfragrance":13553,"Ġglimps":13554,"keepers":13555,"Ġhangs":13556,"Ġcamps":13557,"Ġthrilled":13558,"Ġnobler":13559,"Ġthreads":13560,"probably":13561,"Ġwireless":13562,"Ġbertram":13563,"Ġdiversion":13564,"Ġenquir":13565,"Ġantony":13566,"Ġbaptism":13567,"Ġkentucky":13568,"several":13569,"Ġroulet":13570,"Ġhubert":13571,"driver":13572,"Ġtasks":13573,"Ġplentiful":13574,"Ġadequate":13575,"Ġvanquished":13576,"Ġteles":13577,"Ġenvironment":13578,"ja":13579,"path":13580,"Ġbened":13581,"Ġtho":13582,"Ġhaze":13583,"otle":13584,"seus":13585,"idays":13586,"Ġatone":13587,"Ġsaith":13588,"thia":13589,"Ġalluded":13590,"indle":13591,"Ġunse":13592,"Ġabject":13593,"Ġspit":13594,"Ġproving":13595,"Ġenig":13596,"Ġtebrick":13597,"abille":13598,"Ġflows":13599,"Ġmuzzle":13600,"orne":13601,"Ġembod":13602,"Ġimple":13603,"Ġimpenet":13604,"pective":13605,"Ġindol":13606,"Ġelastic":13607,"Ġwarlike":13608,"Ġintegr":13609,"Ġassumption":13610,"Ġconfidently":13611,"Ġevans":13612,"Ġsimpson":13613,"Ġadvis":13614,"Ġpatric":13615,"Ġhonours":13616,"Ġrecourse":13617,"Ġbattered":13618,"Ġapprobation":13619,"Ġutil":13620,"Ġexclusive":13621,"Ġfreight":13622,"Ġsalmon":13623,"Ġriddle":13624,"Ġdespatched":13625,"Ġacceptable":13626,"Ġmessengers":13627,"Ġoccupations":13628,"Ġobligations":13629,"Ġpeculiarity":13630,"Ġsystems":13631,"Ġdavis":13632,"Ġprocesses":13633,"Ġtravelers":13634,"Ġbleak":13635,"Ġtriumphantly":13636,"Ġbuckingham":13637,"Ġsecurely":13638,"Ġmillionaire":13639,"twenty":13640,"Ġemergency":13641,"Ġprinting":13642,"Ġcorrectly":13643,"Ġimplored":13644,"Ġstatues":13645,"Ġimprovements":13646,"Ġdistricts":13647,"Ġconvenience":13648,"Ġfascination":13649,"Ġtowering":13650,"Ġapprehensions":13651,"Ġmastered":13652,"Ġreluctant":13653,"Ġmiserably":13654,"Ġenergies":13655,"Ġperchance":13656,"Ġmerriment":13657,"Ġmentally":13658,"Ġsicily":13659,"Ġenlarged":13660,"Ġdisadvantage":13661,"Ġcongregation":13662,"unciation":13663,"occupied":13664,"Ġstanley":13665,"Ġcompartment":13666,"Ġbicycle":13667,"Ġancients":13668,"Ġpecuniary":13669,"bad":13670,"dan":13671,"tie":13672,"ucc":13673,"uition":13674,"ugn":13675,"Ġtren":13676,"Ġsite":13677,"Ġbingley":13678,"Ġdante":13679,"Ġpon":13680,"Ġpairs":13681,"Ġgables":13682,"Ġbearer":13683,"iration":13684,"Ġramb":13685,"Ġanec":13686,"Ġsections":13687,"Ġshew":13688,"riers":13689,"Ġsoj":13690,"Ġsuite":13691,"Ġdeity":13692,"Ġdeference":13693,"Ġmyri":13694,"Ġconvert":13695,"Ġchaff":13696,"Ġjerv":13697,"anti":13698,"Ġspraw":13699,"Ġaggress":13700,"Ġbrus":13701,"Ġclair":13702,"Ġhoward":13703,"Ġundergone":13704,"Ġglove":13705,"cod":13706,"Ġaccuse":13707,"Ġcommiss":13708,"Ġattic":13709,"Ġsawyer":13710,"Ġcourses":13711,"Ġarmstrong":13712,"Ġexpose":13713,"Ġhumb":13714,"Ġfamine":13715,"Ġsleigh":13716,"Ġpowerless":13717,"Ġsnug":13718,"Ġtrigger":13719,"Ġextension":13720,"Ġmerciless":13721,"Ġsignify":13722,"Ġdrives":13723,"Ġcutter":13724,"Ġdiscrim":13725,
[...]
